{
  "<EOS>": 0,
  "<GO>": 1,
  "<UNK>": 2,
  "the": 3,
  "and": 4,
  "of": 5,
  "to": 6,
  "in": 7,
  "a": 8,
  "is": 9,
  ",": 10,
  ".": 11,
  "you": 12,
  "for": 13,
  "that": 14,
  "[@@": 15,
  "are": 16,
  "with": 17,
  "-@@": 18,
  "ing": 19,
  "(@@": 20,
  "will": 21,
  "from": 22,
  "And": 23,
  "have": 24,
  "on": 25,
  "ed": 26,
  "not": 27,
  "be": 28,
  "or": 29,
  "they": 30,
  "]": 31,
  "s@@": 32,
  "The": 33,
  "p@@": 34,
  "S@@": 35,
  "in@@": 36,
  "-": 37,
  "it": 38,
  "\"@@": 39,
  "as": 40,
  "s": 41,
  "es": 42,
  "before": 43,
  "t@@": 44,
  "who": 45,
  "s,": 46,
  "your": 47,
  "by": 48,
  "an": 49,
  ":": 50,
  "n@@": 51,
  ")": 52,
  "e@@": 53,
  "has": 54,
  "C@@": 55,
  "d@@": 56,
  "e,": 57,
  "c@@": 58,
  "re@@": 59,
  "H@@": 60,
  "b@@": 61,
  "We": 62,
  "Allah": 63,
  "T@@": 64,
  "l@@": 65,
  "M@@": 66,
  "i@@": 67,
  "F@@": 68,
  "I": 69,
  "s.": 70,
  "P@@": 71,
  "g@@": 72,
  "f@@": 73,
  "al@@": 74,
  "at": 75,
  "y@@": 76,
  "m@@": 77,
  ",@@": 78,
  "/@@": 79,
  "?": 80,
  "en@@": 81,
  "e.": 82,
  "D@@": 83,
  "those": 84,
  "it@@": 85,
  "y": 86,
  "er@@": 87,
  "L@@": 88,
  "them": 89,
  "ers": 90,
  "th@@": 91,
  "v@@": 92,
  "r@@": 93,
  "R@@": 94,
  "can": 95,
  "he": 96,
  "their": 97,
  ".@@": 98,
  "which": 99,
  "us": 100,
  "this": 101,
  "we": 102,
  "st@@": 103,
  "dis@@": 104,
  "ar@@": 105,
  "B@@": 106,
  "was": 107,
  "ic@@": 108,
  "_": 109,
  "un@@": 110,
  "er": 111,
  "our": 112,
  "He": 113,
  "at@@": 114,
  "k@@": 115,
  "es,": 116,
  "or@@": 117,
  "on@@": 118,
  "one": 119,
  "N@@": 120,
  "G@@": 121,
  "E@@": 122,
  "il@@": 123,
  "u@@": 124,
  "ation": 125,
  "a@@": 126,
  "ad@@": 127,
  "ed@@": 128,
  "W@@": 129,
  "is@@": 130,
  "al": 131,
  "es@@": 132,
  "an@@": 133,
  "all": 134,
  "A@@": 135,
  ";": 136,
  "id@@": 137,
  "el@@": 138,
  "do": 139,
  "what": 140,
  "w@@": 141,
  "5@@": 142,
  "em@@": 143,
  "3@@": 144,
  "ate": 145,
  "ic": 146,
  "o@@": 147,
  "ul@@": 148,
  ".\"": 149,
  "2018": 150,
  "its": 151,
  "h@@": 152,
  ":@@": 153,
  "but": 154,
  "if": 155,
  "when": 156,
  "All": 157,
  "“@@": 158,
  "K@@": 159,
  "y,": 160,
  "et@@": 161,
  "0@@": 162,
  "been": 163,
  "ing@@": 164,
  "ac@@": 165,
  "his": 166,
  "8@@": 167,
  "as@@": 168,
  "2@@": 169,
  "es.": 170,
  "us@@": 171,
  "more": 172,
  "ed,": 173,
  "4@@": 174,
  "were": 175,
  "ly": 176,
  "ent@@": 177,
  "ro@@": 178,
  "V@@": 179,
  "ch@@": 180,
  "!": 181,
  "ur@@": 182,
  "O": 183,
  "I@@": 184,
  "2019": 185,
  "im@@": 186,
  "le@@": 187,
  "ing,": 188,
  "ap@@": 189,
  "\"": 190,
  "1": 191,
  "de@@": 192,
  "i": 193,
  "ated": 194,
  "am@@": 195,
  "ol@@": 196,
  "ab@@": 197,
  "e": 198,
  "t": 199,
  "other": 200,
  "7@@": 201,
  "people": 202,
  "1@@": 203,
  "than": 204,
  "also": 205,
  "about": 206,
  "You": 207,
  "5": 208,
  "pro@@": 209,
  "9@@": 210,
  "O@@": 211,
  "ed.": 212,
  "able": 213,
  "so": 214,
  "6@@": 215,
  "ar": 216,
  "2": 217,
  "In": 218,
  "–": 219,
  "ag@@": 220,
  "It": 221,
  "ion@@": 222,
  "sh@@": 223,
  "z@@": 224,
  "j@@": 225,
  "y.": 226,
  "iv@@": 227,
  "This": 228,
  "ion": 229,
  "J@@": 230,
  "x@@": 231,
  "ex@@": 232,
  "Lord": 233,
  "Indeed,": 234,
  "no": 235,
  "there": 236,
  "...": 237,
  "One": 238,
  "o": 239,
  "had": 240,
  "res@@": 241,
  "and@@": 242,
  "tr@@": 243,
  "ir@@": 244,
  "e:": 245,
  "ant@@": 246,
  "A": 247,
  "sp@@": 248,
  "may": 249,
  "him": 250,
  "le": 251,
  "co@@": 252,
  "om@@": 253,
  "ot@@": 254,
  "Y@@": 255,
  "per@@": 256,
  "do@@": 257,
  "term": 258,
  "er,": 259,
  "ical": 260,
  "ent": 261,
  "Our": 262,
  "&": 263,
  "upon": 264,
  "out": 265,
  "+@@": 266,
  "any": 267,
  "would": 268,
  "est@@": 269,
  "months": 270,
  "my": 271,
  "like": 272,
  "Juz'-@@": 273,
  "For": 274,
  "pl@@": 275,
  "se@@": 276,
  "con@@": 277,
  "ance": 278,
  "Every": 279,
  "ter@@": 280,
  "weeks": 281,
  "en": 282,
  "2015": 283,
  "و": 284,
  "$@@": 285,
  "g": 286,
  "up": 287,
  "],": 288,
  "me": 289,
  "age": 290,
  "vir@@": 291,
  "%": 292,
  "But": 293,
  "ions": 294,
  "Three": 295,
  "k": 296,
  "most": 297,
  "ing.": 298,
  "am": 299,
  "2016": 300,
  "2017": 301,
  "ine": 302,
  "00@@": 303,
  "over": 304,
  "ure": 305,
  "10@@": 306,
  "Philosophy": 307,
  "then": 308,
  "4": 309,
  "ay@@": 310,
  "after": 311,
  "/": 312,
  "ian": 313,
  "pre@@": 314,
  "*@@": 315,
  "used": 316,
  "ig@@": 317,
  "believ@@": 318,
  "m": 319,
  "be@@": 320,
  "19@@": 321,
  "ies": 322,
  "ating": 323,
  "os@@": 324,
  "ers@@": 325,
  "pat@@": 326,
  "God": 327,
  "2014": 328,
  "um@@": 329,
  "200@@": 330,
  "od@@": 331,
  "should": 332,
  "only": 333,
  "av@@": 334,
  "all@@": 335,
  "ion,": 336,
  "among": 337,
  "lo@@": 338,
  "2013": 339,
  "to@@": 340,
  "op@@": 341,
  ").": 342,
  "cl@@": 343,
  "U@@": 344,
  "3": 345,
  "His": 346,
  "life": 347,
  "time": 348,
  "’s": 349,
  "20@@": 350,
  "make": 351,
  "qu@@": 352,
  "If": 353,
  "ity": 354,
  "into": 355,
  "ish@@": 356,
  "said,": 357,
  "af@@": 358,
  "'@@": 359,
  "Ex@@": 360,
  "Z@@": 361,
  "for@@": 362,
  "18@@": 363,
  "ers.": 364,
  "est": 365,
  "201@@": 366,
  "ut@@": 367,
  "S": 368,
  "str@@": 369,
  "ec@@": 370,
  "'s": 371,
  "ment": 372,
  "u": 373,
  "com@@": 374,
  "out@@": 375,
  "),": 376,
  "ations": 377,
  "They": 378,
  "12@@": 379,
  "ip@@": 380,
  "ne@@": 381,
  "May": 382,
  "ant": 383,
  "March": 384,
  "man@@": 385,
  "?@@": 386,
  "ion.": 387,
  "some": 388,
  "29@@": 389,
  "inter@@": 390,
  "such": 391,
  "made": 392,
  "14@@": 393,
  "p": 394,
  "s:": 395,
  "he@@": 396,
  "ev@@": 397,
  "new": 398,
  "15@@": 399,
  "”": 400,
  "ers,": 401,
  "ist@@": 402,
  "24": 403,
  "ast@@": 404,
  "8": 405,
  "if@@": 406,
  "sc@@": 407,
  "ha@@": 408,
  "ive": 409,
  "ak@@": 410,
  "eng@@": 411,
  "how": 412,
  "So": 413,
  "In@@": 414,
  "ight@@": 415,
  "Quran": 416,
  "30@@": 417,
  "13@@": 418,
  "mm": 419,
  "Res@@": 420,
  "no@@": 421,
  "February": 422,
  "Page-@@": 423,
  "X@@": 424,
  "use": 425,
  "COVID-19": 426,
  "of@@": 427,
  "7": 428,
  "Co@@": 429,
  "et": 430,
  "te@@": 431,
  "x": 432,
  "ho@@": 433,
  "a,": 434,
  "6": 435,
  "except": 436,
  "Then": 437,
  "ri@@": 438,
  "test@@": 439,
  "ther@@": 440,
  "ou@@": 441,
  "ob@@": 442,
  "ds": 443,
  "trans@@": 444,
  "ect@@": 445,
  "ay,": 446,
  "T": 447,
  "you,": 448,
  "come": 449,
  "mon@@": 450,
  "25@@": 451,
  "April": 452,
  "pt@@": 453,
  "day": 454,
  "two": 455,
  "January": 456,
  "er.": 457,
  "get": 458,
  "pun@@": 459,
  "ib@@": 460,
  "ear@@": 461,
  "ized": 462,
  "ia": 463,
  "many": 464,
  "ish": 465,
  "ation@@": 466,
  "say@@": 467,
  "gr@@": 468,
  "ath@@": 469,
  "ings": 470,
  "28@@": 471,
  "iz@@": 472,
  "ment@@": 473,
  "them,": 474,
  "hours": 475,
  "16@@": 476,
  "Al@@": 477,
  "ates": 478,
  "l": 479,
  "sy@@": 480,
  "Th@@": 481,
  "int@@": 482,
  "ph@@": 483,
  "ru@@": 484,
  "Ch@@": 485,
  "ang@@": 486,
  "act@@": 487,
  "ection": 488,
  "Lord,": 489,
  "while": 490,
  "company": 491,
  "good": 492,
  "(2@@": 493,
  "sub@@": 494,
  "More": 495,
  "best": 496,
  "mod@@": 497,
  "1.@@": 498,
  "ens@@": 499,
  "10": 500,
  "said": 501,
  "ected": 502,
  "h": 503,
  "Contact": 504,
  "we@@": 505,
  "ever": 506,
  "id": 507,
  "Allah,": 508,
  "C": 509,
  "October": 510,
  "ra@@": 511,
  "tattoos@@": 512,
  "ts,": 513,
  "cre@@": 514,
  "high": 515,
  "th": 516,
  "fl@@": 517,
  "50@@": 518,
  "ity,": 519,
  "know": 520,
  "n": 521,
  "ian@@": 522,
  "el": 523,
  "words": 524,
  "month": 525,
  "up@@": 526,
  "D": 527,
  "whom": 528,
  "through": 529,
  "first": 530,
  "fa@@": 531,
  "ce@@": 532,
  "products": 533,
  "St@@": 534,
  "24@@": 535,
  "ow@@": 536,
  "ill@@": 537,
  "see": 538,
  "What": 539,
  "ge": 540,
  "00": 541,
  ".”": 542,
  "ess@@": 543,
  "end": 544,
  "ted": 545,
  "June": 546,
  "V": 547,
  "eas@@": 548,
  "ta@@": 549,
  "war@@": 550,
  "1:@@": 551,
  "China": 552,
  "ter": 553,
  "every": 554,
  "November": 555,
  "e-@@": 556,
  "ci@@": 557,
  "bo@@": 558,
  "ation.": 559,
  "believe": 560,
  "AR@@": 561,
  "ts": 562,
  "ash@@": 563,
  "December": 564,
  "Us": 565,
  "these": 566,
  "did": 567,
  "ass@@": 568,
  "say,": 569,
  "17@@": 570,
  "2.@@": 571,
  "help": 572,
  "On": 573,
  "dat@@": 574,
  "week": 575,
  "ا@@": 576,
  "end@@": 577,
  "d": 578,
  "because": 579,
  "quality": 580,
  "©": 581,
  "part@@": 582,
  "0": 583,
  "September": 584,
  "between": 585,
  "including": 586,
  "dr@@": 587,
  "cr@@": 588,
  "so@@": 589,
  "inde@@": 590,
  "Islamic": 591,
  "Sh@@": 592,
  "way": 593,
  "down": 594,
  "comm@@": 595,
  "clo@@": 596,
  "SARS-CoV@@": 597,
  "’@@": 598,
  "them@@": 599,
  "sent": 600,
  "ire@@": 601,
  "take": 602,
  "Arabic": 603,
  "Categories": 604,
  "History": 605,
  "acc@@": 606,
  "th,": 607,
  "CoV@@": 608,
  "does": 609,
  "There": 610,
  "ite": 611,
  "9": 612,
  "ik@@": 613,
  "20": 614,
  "0.@@": 615,
  "sa@@": 616,
  "Q@@": 617,
  "Two": 618,
  "ation,": 619,
  "ve": 620,
  "shall": 621,
  "br@@": 622,
  "1-@@": 623,
  "me@@": 624,
  "99@@": 625,
  "wh@@": 626,
  "work": 627,
  "Hadith": 628,
  "mess@@": 629,
  "bl@@": 630,
  "Know": 631,
  "(and": 632,
  "ed:": 633,
  ")@@": 634,
  "Day": 635,
  "August": 636,
  "P": 637,
  "sign@@": 638,
  "us,": 639,
  "just": 640,
  "5-@@": 641,
  "su@@": 642,
  "Way": 643,
  "Com@@": 644,
  "ors": 645,
  "even": 646,
  "As": 647,
  "Re@@": 648,
  "les": 649,
  "there@@": 650,
  "Anytime": 651,
  "Six": 652,
  "phrase": 653,
  "Mar@@": 654,
  "sel@@": 655,
  "Pro@@": 656,
  "ary": 657,
  "2019@@": 658,
  "where": 659,
  "ub@@": 660,
  "60@@": 661,
  "bitcoin": 662,
  "less": 663,
  "Logic": 664,
  "world@@": 665,
  "Exact": 666,
  "امام": 667,
  "►": 668,
  "ial": 669,
  "Fiqh": 670,
  "ets": 671,
  "های": 672,
  "Grammar": 673,
  "tim@@": 674,
  "Ethics": 675,
  "Theology": 676,
  "give": 677,
  "اخلاق": 678,
  "you@@": 679,
  "mind)": 680,
  "عرفان": 681,
  "اسلامی": 682,
  "(only": 683,
  "gnosis:": 684,
  "Irfan": 685,
  "could": 686,
  "مبانی": 687,
  "شیعه": 688,
  "اندیشه": 689,
  "ولایت": 690,
  "خمینی": 691,
  "(ره)": 692,
  "مفاهیم": 693,
  "قرآنی": 694,
  "derivatives)": 695,
  "فقیه": 696,
  "حکومت": 697,
  "ef@@": 698,
  "c": 699,
  "oth@@": 700,
  "پیامبران": 701,
  "great": 702,
  "tri@@": 703,
  "Allah@@": 704,
  "ext@@": 705,
  "sur@@": 706,
  "inf@@": 707,
  "ally": 708,
  "dec@@": 709,
  ",000": 710,
  "An@@": 711,
  "ov@@": 712,
  "work@@": 713,
  "ə@@": 714,
  "par@@": 715,
  "en,": 716,
  "When": 717,
  "coronavir@@": 718,
  "han@@": 719,
  "--@@": 720,
  "di@@": 721,
  "a.": 722,
  "How": 723,
  ".com": 724,
  "rec@@": 725,
  "aw@@": 726,
  "casino": 727,
  "att@@": 728,
  "the@@": 729,
  "mpt@@": 730,
  "M": 731,
  "wor@@": 732,
  "ach@@": 733,
  "ind@@": 734,
  "ous": 735,
  "ence": 736,
  "Mon@@": 737,
  "Copyright": 738,
  "ice": 739,
  "ick@@": 740,
  "need": 741,
  "fe@@": 742,
  "tru@@": 743,
  "_@@": 744,
  "Him": 745,
  "ered": 746,
  "guid@@": 747,
  "ver@@": 748,
  "over@@": 749,
  "pr@@": 750,
  "?\"": 751,
  "fect@@": 752,
  "min@@": 753,
  "service": 754,
  "add@@": 755,
  "ying": 756,
  "ia,": 757,
  "atory": 758,
  "Do": 759,
  "earth": 760,
  "very": 761,
  "free": 762,
  "against": 763,
  "tur@@": 764,
  "air@@": 765,
  "world": 766,
  "To": 767,
  "R": 768,
  "ren@@": 769,
  "il": 770,
  "ase": 771,
  "hand@@": 772,
  "col@@": 773,
  "den@@": 774,
  "bel@@": 775,
  "ong@@": 776,
  "man": 777,
  "mm@@": 778,
  "2,": 779,
  "per": 780,
  "you.": 781,
  "E": 782,
  "ement": 783,
  "ful": 784,
  "produc@@": 785,
  "sol@@": 786,
  "26@@": 787,
  "number": 788,
  "well": 789,
  "ce": 790,
  "comp@@": 791,
  "ry": 792,
  "within": 793,
  "ER@@": 794,
  "30": 795,
  "cases": 796,
  "RE@@": 797,
  "tatto@@": 798,
  "po@@": 799,
  "b": 800,
  "My": 801,
  "For@@": 802,
  "Him@@": 803,
  "ve@@": 804,
  "uc@@": 805,
  "using": 806,
  "ents": 807,
  "created": 808,
  "form@@": 809,
  "ts@@": 810,
  "27@@": 811,
  "order": 812,
  "uses": 813,
  "Muhammad@@": 814,
  "ts.": 815,
  "ID@@": 816,
  "ord@@": 817,
  "Pl@@": 818,
  "ser@@": 819,
  "days": 820,
  "ISO900@@": 821,
  "whoever": 822,
  "ifi@@": 823,
  "ment.": 824,
  "mission": 825,
  "es:": 826,
  "57@@": 827,
  "ients": 828,
  "ely": 829,
  "lin@@": 830,
  "Me@@": 831,
  "ir": 832,
  "ide": 833,
  "lif@@": 834,
  "being": 835,
  "ure@@": 836,
  "dist@@": 837,
  "ep@@": 838,
  "Qu@@": 839,
  "Last": 840,
  "day@@": 841,
  "ISO@@": 842,
  "nor": 843,
  "port@@": 844,
  "40@@": 845,
  "dro@@": 846,
  "23@@": 847,
  "ins": 848,
  "July": 849,
  "low": 850,
  "als": 851,
  "ks": 852,
  "f": 853,
  "ain@@": 854,
  "ard@@": 855,
  "Your": 856,
  "judgments": 857,
  "16": 858,
  "given": 859,
  "it.": 860,
  "under@@": 861,
  "ery": 862,
  "spir@@": 863,
  "coun@@": 864,
  "ease": 865,
  "heavens": 866,
  "rel@@": 867,
  "right": 868,
  "spec@@": 869,
  "2020@@": 870,
  "information": 871,
  "oc@@": 872,
  "L": 873,
  "news": 874,
  "erved.": 875,
  "fac@@": 876,
  "q@@": 877,
  "different": 878,
  "3.@@": 879,
  "online": 880,
  "pe@@": 881,
  "without": 882,
  "2020": 883,
  "le,": 884,
  "them.": 885,
  "inv@@": 886,
  "New": 887,
  "believed": 888,
  "ress@@": 889,
  "15": 890,
  "ort@@": 891,
  "da": 892,
  "cell@@": 893,
  "found": 894,
  "80@@": 895,
  "let": 896,
  "ud@@": 897,
  "Con@@": 898,
  "ight": 899,
  "ere@@": 900,
  "data": 901,
  "].": 902,
  "now": 903,
  "That": 904,
  "ting": 905,
  "based": 906,
  "000": 907,
  "12": 908,
  "her@@": 909,
  "wrong@@": 910,
  "(3@@": 911,
  "an,": 912,
  "#@@": 913,
  "’": 914,
  ".)": 915,
  "w": 916,
  "CE@@": 917,
  "100@@": 918,
  "met@@": 919,
  ":00": 920,
  "els": 921,
  "50": 922,
  "mo@@": 923,
  "are@@": 924,
  "ok@@": 925,
  "gar@@": 926,
  "ah@@": 927,
  "ran@@": 928,
  "might": 929,
  "countries": 930,
  "4.@@": 931,
  "ack": 932,
  "ities": 933,
  "!@@": 934,
  "ens": 935,
  "ement@@": 936,
  "gu@@": 937,
  "known": 938,
  "place": 939,
  "human": 940,
  "%@@": 941,
  "call": 942,
  "ended": 943,
  "hand": 944,
  "iting": 945,
  "ell@@": 946,
  "say": 947,
  "En@@": 948,
  "Up@@": 949,
  "ost@@": 950,
  "ma@@": 951,
  "ishment": 952,
  "on,": 953,
  "+": 954,
  "5.@@": 955,
  "1,": 956,
  "ific@@": 957,
  "3:@@": 958,
  "each": 959,
  "find": 960,
  "ient": 961,
  "Ac@@": 962,
  "ad": 963,
  "ual": 964,
  "him,": 965,
  "fil@@": 966,
  "Mess@@": 967,
  "5)": 968,
  "peop@@": 969,
  "ace@@": 970,
  "clear": 971,
  "d,": 972,
  "prov@@": 973,
  "vis@@": 974,
  "wa@@": 975,
  "ann@@": 976,
  "art@@": 977,
  "ient@@": 978,
  "Jesus": 979,
  "read@@": 980,
  "r": 981,
  "He@@": 982,
  "Ad@@": 983,
  "bu@@": 984,
  "will@@": 985,
  "1,@@": 986,
  "ong": 987,
  "anc@@": 988,
  "ah": 989,
  "years": 990,
  "ict@@": 991,
  "d.": 992,
  "act": 993,
  "car@@": 994,
  "ct@@": 995,
  "ious": 996,
  "Ro@@": 997,
  "Home": 998,
  "United": 999,
  "‘@@": 1000,
  "it,": 1001,
  "contact": 1002,
  "since": 1003,
  "exp@@": 1004,
  "ade": 1005,
  "Lord@@": 1006,
  "ity.": 1007,
  "CO@@": 1008,
  "oms": 1009,
  "away": 1010,
  "mat@@": 1011,
  "form": 1012,
  "care": 1013,
  "ref@@": 1014,
  "way@@": 1015,
  "ence,": 1016,
  "Tr@@": 1017,
  "ge@@": 1018,
  "AN@@": 1019,
  "-2": 1020,
  "ect": 1021,
  "ist": 1022,
  "children": 1023,
  "COV@@": 1024,
  "low@@": 1025,
  "around": 1026,
  "until": 1027,
  "ments": 1028,
  "ch": 1029,
  "cent@@": 1030,
  "al-@@": 1031,
  "se": 1032,
  "enc@@": 1033,
  "develop@@": 1034,
  "Un@@": 1035,
  "Hotel": 1036,
  "Best": 1037,
  "]@@": 1038,
  "map": 1039,
  "From": 1040,
  "lim@@": 1041,
  "hum@@": 1042,
  "Dis@@": 1043,
  "fo@@": 1044,
  "cont@@": 1045,
  "ded": 1046,
  "set": 1047,
  "ment,": 1048,
  "Chin@@": 1049,
  "sin@@": 1050,
  "prot@@": 1051,
  "become": 1052,
  "ness@@": 1053,
  "ise": 1054,
  "ace": 1055,
  "fact@@": 1056,
  "ɗ@@": 1057,
  "ly@@": 1058,
  "is,": 1059,
  "S-@@": 1060,
  "70@@": 1061,
  "Site": 1062,
  "ied": 1063,
  "ages": 1064,
  "us.": 1065,
  "ness": 1066,
  "har@@": 1067,
  "Co.,": 1068,
  "ay": 1069,
  "provide": 1070,
  "cause": 1071,
  "ative": 1072,
  "IT@@": 1073,
  "88@@": 1074,
  "him@@": 1075,
  "miss@@": 1076,
  "system": 1077,
  "during": 1078,
  "ey@@": 1079,
  "erc@@": 1080,
  "ful@@": 1081,
  "production": 1082,
  "Rec@@": 1083,
  "or,": 1084,
  "ack@@": 1085,
  "water": 1086,
  "fear": 1087,
  "aff@@": 1088,
  "'": 1089,
  "des@@": 1090,
  "ency": 1091,
  "ly,": 1092,
  "compan@@": 1093,
  "both": 1094,
  "same": 1095,
  "Kar@@": 1096,
  "Be@@": 1097,
  "recomm@@": 1098,
  "ory": 1099,
  "Ar@@": 1100,
  "bat@@": 1101,
  "associ@@": 1102,
  "FA@@": 1103,
  "sam@@": 1104,
  "want": 1105,
  "34@@": 1106,
  "ograph@@": 1107,
  "gener@@": 1108,
  "go": 1109,
  "dev@@": 1110,
  "1.": 1111,
  "custom@@": 1112,
  "Rights": 1113,
  "never": 1114,
  "under": 1115,
  "au@@": 1116,
  "fer@@": 1117,
  "cas@@": 1118,
  "und@@": 1119,
  "health": 1120,
  "eb@@": 1121,
  "red": 1122,
  "sk@@": 1123,
  "self@@": 1124,
  "stat@@": 1125,
  "og@@": 1126,
  "pres@@": 1127,
  "ified": 1128,
  "News": 1129,
  "Y": 1130,
  "yl@@": 1131,
  "19": 1132,
  "design@@": 1133,
  "ns": 1134,
  "-0@@": 1135,
  "oper@@": 1136,
  "ech@@": 1137,
  "ons": 1138,
  "in,": 1139,
  "fir@@": 1140,
  "enger": 1141,
  "cor@@": 1142,
  "About": 1143,
  "eg@@": 1144,
  "ident@@": 1145,
  "35@@": 1146,
  "can@@": 1147,
  "Prophet": 1148,
  "back": 1149,
  "that@@": 1150,
  "Chinese": 1151,
  "reported": 1152,
  "Book@@": 1153,
  "ous@@": 1154,
  "ner": 1155,
  "Curren@@": 1156,
  "ories": 1157,
  "land": 1158,
  "du@@": 1159,
  "rat@@": 1160,
  "Ap@@": 1161,
  "ics": 1162,
  "evere": 1163,
  "itt@@": 1164,
  "2.": 1165,
  "gen@@": 1166,
  "ell": 1167,
  "whatever": 1168,
  "o,": 1169,
  "le.": 1170,
  "th.": 1171,
  "Europe": 1172,
  "already": 1173,
  "much": 1174,
  "18": 1175,
  "ition": 1176,
  "led": 1177,
  "2)": 1178,
  "ail@@": 1179,
  "year@@": 1180,
  "ends": 1181,
  "phone": 1182,
  "os": 1183,
  "rev@@": 1184,
  "med": 1185,
  "old": 1186,
  "Se@@": 1187,
  "go@@": 1188,
  "ies,": 1189,
  "sl@@": 1190,
  "ning": 1191,
  "2-@@": 1192,
  "cons@@": 1193,
  "&@@": 1194,
  "put": 1195,
  "v": 1196,
  "ult@@": 1197,
  "ity@@": 1198,
  "©@@": 1199,
  "hy@@": 1200,
  "World": 1201,
  "own": 1202,
  "book": 1203,
  "Spe@@": 1204,
  "17": 1205,
  "i,": 1206,
  "things": 1207,
  "Sp@@": 1208,
  "Sc@@": 1209,
  "–@@": 1210,
  "Qur'@@": 1211,
  "Call": 1212,
  "fore@@": 1213,
  "1)": 1214,
  "price": 1215,
  "ited": 1216,
  "bur@@": 1217,
  "wan@@": 1218,
  "ute": 1219,
  "public": 1220,
  "4)": 1221,
  "create": 1222,
  "13": 1223,
  "da@@": 1224,
  "special@@": 1225,
  "hands": 1226,
  "fin@@": 1227,
  "better": 1228,
  "indu@@": 1229,
  "power": 1230,
  "mer@@": 1231,
  "(4@@": 1232,
  "serv@@": 1233,
  "ort": 1234,
  "Is": 1235,
  "know@@": 1236,
  "comes": 1237,
  "lab@@": 1238,
  "love": 1239,
  "3)": 1240,
  "Or@@": 1241,
  "Bo@@": 1242,
  "ire": 1243,
  "H": 1244,
  "14": 1245,
  "reg@@": 1246,
  "6)": 1247,
  "acy": 1248,
  "Most": 1249,
  "called": 1250,
  "gre@@": 1251,
  "Forex": 1252,
  "mult@@": 1253,
  "USD": 1254,
  "ering": 1255,
  "people,": 1256,
  "Mus@@": 1257,
  "test": 1258,
  "char@@": 1259,
  "a-@@": 1260,
  "Ne@@": 1261,
  "land@@": 1262,
  "vers@@": 1263,
  "im": 1264,
  "Ital@@": 1265,
  "son": 1266,
  "ust@@": 1267,
  "We@@": 1268,
  "i-@@": 1269,
  "etc.": 1270,
  "45@@": 1271,
  "amb@@": 1272,
  "…": 1273,
  "90@@": 1274,
  "ON@@": 1275,
  "7)": 1276,
  "evil": 1277,
  "Time:": 1278,
  "Know@@": 1279,
  "al,": 1280,
  "according": 1281,
  "ator": 1282,
  "De@@": 1283,
  "risk": 1284,
  "Q": 1285,
  "led@@": 1286,
  "came": 1287,
  "iy@@": 1288,
  "25": 1289,
  "believers": 1290,
  "sec@@": 1291,
  "ch,": 1292,
  "meas@@": 1293,
  "area": 1294,
  "With": 1295,
  "wash@@": 1296,
  "after@@": 1297,
  "IS@@": 1298,
  "emb@@": 1299,
  "king": 1300,
  "wid@@": 1301,
  "tain@@": 1302,
  "000@@": 1303,
  "three": 1304,
  "el,": 1305,
  "wa": 1306,
  "ill": 1307,
  "mar@@": 1308,
  "sw@@": 1309,
  "appro@@": 1310,
  "100": 1311,
  "cy@@": 1312,
  "process@@": 1313,
  "God,": 1314,
  "igh@@": 1315,
  "must": 1316,
  "surely": 1317,
  "nam@@": 1318,
  "revealed": 1319,
  "del@@": 1320,
  "US@@": 1321,
  "ste@@": 1322,
  "anal@@": 1323,
  "e?": 1324,
  "az@@": 1325,
  "rem@@": 1326,
  "day,": 1327,
  "include": 1328,
  "ale": 1329,
  "Bi@@": 1330,
  "cho@@": 1331,
  "send": 1332,
  "spread": 1333,
  "Ltd.": 1334,
  "199@@": 1335,
  "z": 1336,
  "ically": 1337,
  "ones": 1338,
  "um": 1339,
  "Artic@@": 1340,
  "high-@@": 1341,
  "0-@@": 1342,
  "t.": 1343,
  "main@@": 1344,
  "38@@": 1345,
  "22": 1346,
  "results": 1347,
  "word": 1348,
  "ability": 1349,
  "part": 1350,
  "2:@@": 1351,
  "ently": 1352,
  "By": 1353,
  "name": 1354,
  "ased": 1355,
  "log@@": 1356,
  "market": 1357,
  "pass@@": 1358,
  "earth@@": 1359,
  "3,": 1360,
  "worship": 1361,
  "ca@@": 1362,
  "ants": 1363,
  "IN@@": 1364,
  "support": 1365,
  "one@@": 1366,
  "/0@@": 1367,
  "not@@": 1368,
  "plic@@": 1369,
  "11": 1370,
  "professional": 1371,
  "follow": 1372,
  "turn": 1373,
  "break": 1374,
  "ane": 1375,
  "7.@@": 1376,
  "available": 1377,
  "cer@@": 1378,
  "our@@": 1379,
  "fr@@": 1380,
  "city": 1381,
  "n,": 1382,
  "21": 1383,
  "uk@@": 1384,
  "Cash": 1385,
  "Allah.": 1386,
  "line": 1387,
  "established": 1388,
  "on.": 1389,
  "business": 1390,
  "CH@@": 1391,
  "67@@": 1392,
  "case": 1393,
  "What@@": 1394,
  "ular": 1395,
  "rep@@": 1396,
  "ear": 1397,
  "new@@": 1398,
  "ps": 1399,
  "well@@": 1400,
  "77@@": 1401,
  "suppl@@": 1402,
  "ings,": 1403,
  "Those": 1404,
  "ions,": 1405,
  "system@@": 1406,
  "No": 1407,
  "Moses": 1408,
  "abl@@": 1409,
  "located": 1410,
  "med@@": 1411,
  "light": 1412,
  "indeed": 1413,
  "trad@@": 1414,
  "U": 1415,
  "University": 1416,
  "ma": 1417,
  "en.": 1418,
  "mercy": 1419,
  "ƙ@@": 1420,
  "pp@@": 1421,
  "OR@@": 1422,
  "mag@@": 1423,
  "et,": 1424,
  "steel": 1425,
  "pers@@": 1426,
  "These": 1427,
  "Dildo": 1428,
  "Gu@@": 1429,
  "God@@": 1430,
  "t,": 1431,
  "Ha@@": 1432,
  "stand@@": 1433,
  "ever@@": 1434,
  "ure,": 1435,
  "Produc@@": 1436,
  "book@@": 1437,
  "Cl@@": 1438,
  "arr@@": 1439,
  "Wire": 1440,
  "36@@": 1441,
  "As@@": 1442,
  "Ind@@": 1443,
  "ship@@": 1444,
  "37@@": 1445,
  "duc@@": 1446,
  "gave": 1447,
  "lar@@": 1448,
  "li@@": 1449,
  "re": 1450,
  "ric@@": 1451,
  "ask@@": 1452,
  "related": 1453,
  "However,": 1454,
  "ia@@": 1455,
  "Or": 1456,
  "found@@": 1457,
  "another": 1458,
  "read": 1459,
  "G": 1460,
  "ify": 1461,
  "Im@@": 1462,
  "un": 1463,
  "requ@@": 1464,
  "Read": 1465,
  "inst@@": 1466,
  "invest@@": 1467,
  "Pol@@": 1468,
  "travel": 1469,
  "gl@@": 1470,
  "val@@": 1471,
  "»": 1472,
  "on-@@": 1473,
  "English": 1474,
  "put@@": 1475,
  "66@@": 1476,
  "4.": 1477,
  "jo@@": 1478,
  "rece@@": 1479,
  "scho@@": 1480,
  "pot@@": 1481,
  "dem@@": 1482,
  "Ltd": 1483,
  "ce,": 1484,
  "year": 1485,
  "imm@@": 1486,
  "look": 1487,
  "air": 1488,
  "rib@@": 1489,
  "seen": 1490,
  "ai": 1491,
  "hib@@": 1492,
  "ISO9001": 1493,
  "machin@@": 1494,
  "taken": 1495,
  "ures": 1496,
  "Mal@@": 1497,
  "important": 1498,
  "she": 1499,
  "heav@@": 1500,
  "verses": 1501,
  "Gre@@": 1502,
  "China,": 1503,
  "amp@@": 1504,
  "product": 1505,
  "million": 1506,
  "@@@": 1507,
  "thing": 1508,
  "US": 1509,
  "manufactur@@": 1510,
  "her": 1511,
  "bar@@": 1512,
  "75@@": 1513,
  "video": 1514,
  "S,": 1515,
  "All@@": 1516,
  "Br@@": 1517,
  "Le@@": 1518,
  "Who": 1519,
  "29": 1520,
  "pack@@": 1521,
  "orts": 1522,
  "East": 1523,
  "Sho@@": 1524,
  "Ph@@": 1525,
  "think": 1526,
  "knowledge": 1527,
  "ple@@": 1528,
  "any@@": 1529,
  "development": 1530,
  "organ@@": 1531,
  "tion": 1532,
  "Po@@": 1533,
  "ly.": 1534,
  "show": 1535,
  "oll@@": 1536,
  "8)": 1537,
  "300@@": 1538,
  "today": 1539,
  "inj@@": 1540,
  "top": 1541,
  "Mark@@": 1542,
  "Ma@@": 1543,
  "ms": 1544,
  "lov@@": 1545,
  "don@@": 1546,
  "ie": 1547,
  "st": 1548,
  "certific@@": 1549,
  "bro@@": 1550,
  "South": 1551,
  "ible": 1552,
  "still": 1553,
  "here": 1554,
  "back@@": 1555,
  "1/@@": 1556,
  "ot": 1557,
  "net@@": 1558,
  "der": 1559,
  "main": 1560,
  "erg@@": 1561,
  "ys@@": 1562,
  "ر@@": 1563,
  "ign@@": 1564,
  "9)": 1565,
  "ick": 1566,
  "break@@": 1567,
  "long": 1568,
  "ions.": 1569,
  "ISO": 1570,
  "going": 1571,
  "ty": 1572,
  "Tri@@": 1573,
  "truth": 1574,
  "900@@": 1575,
  "research": 1576,
  "servic@@": 1577,
  "www.@@": 1578,
  "Pictures": 1579,
  "site": 1580,
  "(": 1581,
  "equ@@": 1582,
  "mark@@": 1583,
  "done": 1584,
  "rol@@": 1585,
  "unity": 1586,
  "der@@": 1587,
  "Inter@@": 1588,
  "ath": 1589,
  "leg@@": 1590,
  "lessons": 1591,
  "ask": 1592,
  "hosp@@": 1593,
  "men": 1594,
  "brought": 1595,
  "large": 1596,
  "o.": 1597,
  "6-@@": 1598,
  "medi@@": 1599,
  "(S@@": 1600,
  "plac@@": 1601,
  "det@@": 1602,
  "48@@": 1603,
  "small": 1604,
  "good@@": 1605,
  "35": 1606,
  "bring": 1607,
  "Google": 1608,
  "announ@@": 1609,
  "tw@@": 1610,
  "TE@@": 1611,
  "international": 1612,
  "quest@@": 1613,
  "pop@@": 1614,
  "Ab@@": 1615,
  "Bel@@": 1616,
  "ending": 1617,
  "ix@@": 1618,
  "enter@@": 1619,
  "vol@@": 1620,
  "=@@": 1621,
  "s.@@": 1622,
  "now@@": 1623,
  "SA@@": 1624,
  "ele@@": 1625,
  "due": 1626,
  "ling": 1627,
  "anim@@": 1628,
  "coll@@": 1629,
  "Spec@@": 1630,
  "ier": 1631,
  "ize": 1632,
  "ate@@": 1633,
  "Cha@@": 1634,
  "AS@@": 1635,
  "y:": 1636,
  "mis@@": 1637,
  "You@@": 1638,
  "60": 1639,
  "hol@@": 1640,
  "ongs": 1641,
  "×@@": 1642,
  "acking": 1643,
  "others": 1644,
  "8.@@": 1645,
  "medical": 1646,
  "having": 1647,
  "ue": 1648,
  "Company": 1649,
  "6.@@": 1650,
  "sim@@": 1651,
  "ore": 1652,
  "me,": 1653,
  "exam@@": 1654,
  "ned": 1655,
  "aj@@": 1656,
  "control": 1657,
  "heal@@": 1658,
  "ple": 1659,
  "wide": 1660,
  "ides": 1661,
  "certainly": 1662,
  "stra@@": 1663,
  "Book": 1664,
  "keep": 1665,
  "ium": 1666,
  "28": 1667,
  "software": 1668,
  "transp@@": 1669,
  "Sel@@": 1670,
  "Pr@@": 1671,
  "prev@@": 1672,
  "Am@@": 1673,
  "Fe@@": 1674,
  "perfect": 1675,
  "uring": 1676,
  "ines": 1677,
  "pan@@": 1678,
  "meth@@": 1679,
  "den": 1680,
  "ess": 1681,
  "website": 1682,
  "F": 1683,
  "ality": 1684,
  "light@@": 1685,
  "qual@@": 1686,
  "ged": 1687,
  "hu@@": 1688,
  "'t": 1689,
  "s;": 1690,
  "cha@@": 1691,
  "Why": 1692,
  "11@@": 1693,
  "ental": 1694,
  "Is@@": 1695,
  "support@@": 1696,
  "B": 1697,
  "ial@@": 1698,
  "ast": 1699,
  "ies.": 1700,
  "39@@": 1701,
  ".,": 1702,
  "und": 1703,
  "Health": 1704,
  "looking": 1705,
  "ists": 1706,
  "la@@": 1707,
  "Car@@": 1708,
  "rele@@": 1709,
  "Free": 1710,
  "home": 1711,
  "imin@@": 1712,
  "AL@@": 1713,
  "study": 1714,
  "ile": 1715,
  "ety": 1716,
  "pol@@": 1717,
  "enter": 1718,
  "ug@@": 1719,
  "antly": 1720,
  "Time": 1721,
  "ional": 1722,
  "pos@@": 1723,
  "km": 1724,
  "N": 1725,
  "X": 1726,
  "WH@@": 1727,
  "establ@@": 1728,
  "sure": 1729,
  "various": 1730,
  "fre@@": 1731,
  "saf@@": 1732,
  "ced": 1733,
  "mov@@": 1734,
  "Ra@@": 1735,
  "vi@@": 1736,
  "why": 1737,
  "full": 1738,
  "offer": 1739,
  "(1@@": 1740,
  "5:@@": 1741,
  "opt@@": 1742,
  "ding": 1743,
  "m.": 1744,
  "ing:": 1745,
  "fol@@": 1746,
  "ide@@": 1747,
  "tar@@": 1748,
  "rid@@": 1749,
  "few": 1750,
  "5,": 1751,
  "success@@": 1752,
  "(12@@": 1753,
  "EN@@": 1754,
  "high@@": 1755,
  "CE": 1756,
  "ensive": 1757,
  "ids": 1758,
  "Man@@": 1759,
  "tow@@": 1760,
  "por@@": 1761,
  "od": 1762,
  "ance.": 1763,
  "said:": 1764,
  "W": 1765,
  "respon@@": 1766,
  "desc@@": 1767,
  "wat@@": 1768,
  "div@@": 1769,
  "tra@@": 1770,
  "technical": 1771,
  "Cor@@": 1772,
  "...@@": 1773,
  "ake": 1774,
  "ols": 1775,
  "lot": 1776,
  "Some": 1777,
  "sit@@": 1778,
  "erv@@": 1779,
  "adv@@": 1780,
  "post@@": 1781,
  "ech": 1782,
  "Coun@@": 1783,
  "speed": 1784,
  "cur@@": 1785,
  "S.": 1786,
  "According": 1787,
  "rate": 1788,
  "Col@@": 1789,
  "Par@@": 1790,
  "making": 1791,
  "2008": 1792,
  "ths": 1793,
  "22@@": 1794,
  "employ@@": 1795,
  "arter": 1796,
  "fic@@": 1797,
  "3.": 1798,
  "sal@@": 1799,
  "manufact@@": 1800,
  "control@@": 1801,
  "ban@@": 1802,
  "convers@@": 1803,
  "indic@@": 1804,
  "ization": 1805,
  "face": 1806,
  "mot@@": 1807,
  "ل@@": 1808,
  "Download": 1809,
  "ku@@": 1810,
  "ysis": 1811,
  "dit@@": 1812,
  "ith@@": 1813,
  "posit@@": 1814,
  "8-@@": 1815,
  "higher": 1816,
  "ster@@": 1817,
  "Fl@@": 1818,
  "often": 1819,
  "lower": 1820,
  "him.": 1821,
  "art": 1822,
  "syn@@": 1823,
  "contain@@": 1824,
  "Riga": 1825,
  "Part@@": 1826,
  "Kore@@": 1827,
  "ros@@": 1828,
  "ke@@": 1829,
  "ose": 1830,
  "imp@@": 1831,
  "Abraham": 1832,
  "Qur@@": 1833,
  "questions": 1834,
  "TA@@": 1835,
  "(1)": 1836,
  "working": 1837,
  "customers": 1838,
  "play@@": 1839,
  "69@@": 1840,
  "your@@": 1841,
  "To@@": 1842,
  "alt@@": 1843,
  "After": 1844,
  "etern@@": 1845,
  "author@@": 1846,
  "pain@@": 1847,
  "receive": 1848,
  "experience": 1849,
  "ators": 1850,
  "factory": 1851,
  "whose": 1852,
  "grat@@": 1853,
  "above": 1854,
  "ially": 1855,
  "cle@@": 1856,
  "curren@@": 1857,
  "Please": 1858,
  "possible": 1859,
  ".com/@@": 1860,
  "o-@@": 1861,
  "ent.": 1862,
  "Android": 1863,
  "chan@@": 1864,
  "don’t": 1865,
  "ces": 1866,
  "countri@@": 1867,
  "m,": 1868,
  "ally,": 1869,
  "il,": 1870,
  "major": 1871,
  "Mo@@": 1872,
  "cover": 1873,
  "loc@@": 1874,
  "tt@@": 1875,
  "together": 1876,
  "ple,": 1877,
  "ance,": 1878,
  "ap": 1879,
  "fire": 1880,
  "unt@@": 1881,
  "person": 1882,
  "Be": 1883,
  "action": 1884,
  "liv@@": 1885,
  "plan@@": 1886,
  "hel@@": 1887,
  "common": 1888,
  "ching": 1889,
  "AM@@": 1890,
  ".com@@": 1891,
  "io": 1892,
  "inc@@": 1893,
  "reward": 1894,
  "tre@@": 1895,
  "righteous": 1896,
  "Americ@@": 1897,
  "visit": 1898,
  "iti@@": 1899,
  "ark@@": 1900,
  "65@@": 1901,
  "Tem@@": 1902,
  "ard": 1903,
  "Certific@@": 1904,
  "Gr@@": 1905,
  "giving": 1906,
  "Stat@@": 1907,
  "Have": 1908,
  "9:@@": 1909,
  "or.": 1910,
  "ys": 1911,
  "equipment": 1912,
  "Holy": 1913,
  "na": 1914,
  "pt": 1915,
  "Cre@@": 1916,
  "ging": 1917,
  "~@@": 1918,
  "early": 1919,
  "next": 1920,
  "te": 1921,
  "fi@@": 1922,
  "leng@@": 1923,
  "sm@@": 1924,
  "EA": 1925,
  "dep@@": 1926,
  "sales": 1927,
  "hor@@": 1928,
  ".,@@": 1929,
  "stud@@": 1930,
  "especially": 1931,
  "98@@": 1932,
  "via": 1933,
  "ore@@": 1934,
  "68@@": 1935,
  "government": 1936,
  "women": 1937,
  "law@@": 1938,
  "Sy@@": 1939,
  "Rem@@": 1940,
  "management": 1941,
  "Val@@": 1942,
  "9.@@": 1943,
  "one.": 1944,
  "3-@@": 1945,
  "RI@@": 1946,
  "riv@@": 1947,
  "means": 1948,
  "in.": 1949,
  "death": 1950,
  "yo@@": 1951,
  "date": 1952,
  "range": 1953,
  "Sa@@": 1954,
  "rights": 1955,
  "Jes@@": 1956,
  "times": 1957,
  "course": 1958,
  "y-@@": 1959,
  "kin@@": 1960,
  "poly@@": 1961,
  "night": 1962,
  "ched": 1963,
  "applic@@": 1964,
  "makes": 1965,
  "K": 1966,
  "4:@@": 1967,
  "host@@": 1968,
  "social": 1969,
  "dom@@": 1970,
  "s)": 1971,
  "—": 1972,
  "Than@@": 1973,
  "ion:": 1974,
  "conce@@": 1975,
  "struct@@": 1976,
  "95@@": 1977,
  "Sun@@": 1978,
  "Post@@": 1979,
  "Me": 1980,
  "UN@@": 1981,
  "Flight": 1982,
  "ey": 1983,
  "nat@@": 1984,
  "Mobile": 1985,
  "popular": 1986,
  "Pe@@": 1987,
  "ption": 1988,
  "works": 1989,
  "but@@": 1990,
  "port": 1991,
  "ura": 1992,
  "iPhone": 1993,
  "off@@": 1994,
  "ations.": 1995,
  "gra@@": 1996,
  "rest@@": 1997,
  "combin@@": 1998,
  "choose": 1999,
  "level": 2000,
  "€": 2001,
  "ow": 2002,
  "Other": 2003,
  "sign": 2004,
  "more@@": 2005,
  "technology": 2006,
  "ise@@": 2007,
  "live": 2008,
  "001": 2009,
  "ity:": 2010,
  "Te@@": 2011,
  "ibr@@": 2012,
  "=": 2013,
  "": 2014,
  "(10@@": 2015,
  "following": 2016,
  "cal@@": 2017,
  "access": 2018,
  "dest@@": 2019,
  "who@@": 2020,
  "provided": 2021,
  "ya@@": 2022,
  "?”": 2023,
  "bi@@": 2024,
  "Support": 2025,
  "open": 2026,
  "one,": 2027,
  "building": 2028,
  "cess@@": 2029,
  "uf@@": 2030,
  "deliv@@": 2031,
  "Welcome": 2032,
  "effic@@": 2033,
  "xim@@": 2034,
  "ond": 2035,
  "ure.": 2036,
  "oring": 2037,
  "L,": 2038,
  "cryptocurrency": 2039,
  "Pric@@": 2040,
  "specific": 2041,
  "format@@": 2042,
  "£@@": 2043,
  "regist@@": 2044,
  "86@@": 2045,
  "present": 2046,
  "Mos@@": 2047,
  "rap@@": 2048,
  "International": 2049,
  "ray": 2050,
  "U.@@": 2051,
  "knows": 2052,
  "Minist@@": 2053,
  "effect@@": 2054,
  "than@@": 2055,
  "Get": 2056,
  "19,": 2057,
  "developed": 2058,
  "Script@@": 2059,
  "off": 2060,
  "pow@@": 2061,
  "Su@@": 2062,
  "aste": 2063,
  "ari@@": 2064,
  "iddle": 2065,
  "effective": 2066,
  "Bas@@": 2067,
  "econom@@": 2068,
  "Can@@": 2069,
  "school": 2070,
  "empt@@": 2071,
  "whether": 2072,
  "electr@@": 2073,
  "host": 2074,
  "version": 2075,
  "deeds": 2076,
  "child@@": 2077,
  "tal@@": 2078,
  "6:@@": 2079,
  "aged": 2080,
  "leave": 2081,
  "26": 2082,
  "iful": 2083,
  "ities,": 2084,
  "treatment": 2085,
  "gives": 2086,
  "21@@": 2087,
  "Cont@@": 2088,
  "Pre@@": 2089,
  "stre@@": 2090,
  "23": 2091,
  "500@@": 2092,
  "type": 2093,
  "repent@@": 2094,
  "food": 2095,
  "money": 2096,
  "DA@@": 2097,
  "cap@@": 2098,
  "Technology": 2099,
  "Prov@@": 2100,
  "ee": 2101,
  "guide": 2102,
  "ately": 2103,
  "univers@@": 2104,
  "yp@@": 2105,
  "ash": 2106,
  "Lesbian": 2107,
  "ox@@": 2108,
  "ance@@": 2109,
  "purch@@": 2110,
  "machine": 2111,
  "ES@@": 2112,
  "ic,": 2113,
  "ods": 2114,
  "across": 2115,
  "Lo@@": 2116,
  "hearts": 2117,
  "it’s": 2118,
  "trading": 2119,
  "signific@@": 2120,
  "pur@@": 2121,
  "pi@@": 2122,
  "aid": 2123,
  "ine,": 2124,
  "و@@": 2125,
  "Windows": 2126,
  "e.@@": 2127,
  "increase": 2128,
  "email": 2129,
  "CA@@": 2130,
  "LED": 2131,
  "Bl@@": 2132,
  "duce": 2133,
  "Ther@@": 2134,
  "crit@@": 2135,
  "Sal@@": 2136,
  "install@@": 2137,
  "27": 2138,
  "list@@": 2139,
  "ars": 2140,
  "driv@@": 2141,
  "ration": 2142,
  "ink": 2143,
  "che@@": 2144,
  "fully": 2145,
  "ials": 2146,
  "team": 2147,
  "least": 2148,
  "eful": 2149,
  "ones@@": 2150,
  "ision": 2151,
  "person@@": 2152,
  "*": 2153,
  "ij@@": 2154,
  "ures@@": 2155,
  "7,": 2156,
  "ح@@": 2157,
  "produce": 2158,
  "with@@": 2159,
  "total": 2160,
  "Au@@": 2161,
  "craft": 2162,
  "moun@@": 2163,
  "Hell@@": 2164,
  "ough@@": 2165,
  "Mater@@": 2166,
  "55@@": 2167,
  "ological": 2168,
  "best@@": 2169,
  "themselves": 2170,
  "easy": 2171,
  "lor@@": 2172,
  "avail@@": 2173,
  "cod@@": 2174,
  "conn@@": 2175,
  "ott@@": 2176,
  "progr@@": 2177,
  "abb@@": 2178,
  "4,": 2179,
  "Wor@@": 2180,
  "s?": 2181,
  "manufacturer": 2182,
  "last": 2183,
  "services": 2184,
  "always": 2185,
  "numb@@": 2186,
  "ies@@": 2187,
  "issu@@": 2188,
  "ches": 2189,
  "ished": 2190,
  "true": 2191,
  "Fran@@": 2192,
  "org@@": 2193,
  "European": 2194,
  "group": 2195,
  "ina": 2196,
  "Sat@@": 2197,
  "ur": 2198,
  "pag@@": 2199,
  "ively": 2200,
  "wel@@": 2201,
  "Now": 2202,
  "cop@@": 2203,
  "4-@@": 2204,
  "ta": 2205,
  "ense": 2206,
  "incre@@": 2207,
  "ples": 2208,
  "10:@@": 2209,
  "Tag@@": 2210,
  "ent,": 2211,
  "account": 2212,
  "Are": 2213,
  "Out@@": 2214,
  "cannot": 2215,
  "s/@@": 2216,
  "press@@": 2217,
  "(5@@": 2218,
  "iqu@@": 2219,
  "eness": 2220,
  "states": 2221,
  "conditions": 2222,
  "Chang@@": 2223,
  "stain@@": 2224,
  "â@@": 2225,
  "pris@@": 2226,
  "Host@@": 2227,
  "97@@": 2228,
  "oo@@": 2229,
  "High": 2230,
  "e)": 2231,
  "ic.": 2232,
  "D,": 2233,
  "yet": 2234,
  "ential": 2235,
  "several": 2236,
  "200": 2237,
  "Internet": 2238,
  "efore,": 2239,
  "ital@@": 2240,
  "pay@@": 2241,
  "leading": 2242,
  "tain": 2243,
  "docum@@": 2244,
  "concerning": 2245,
  "ɓ@@": 2246,
  "God.": 2247,
  "04:@@": 2248,
  "ator@@": 2249,
  "fer": 2250,
  "all,": 2251,
  "Sim@@": 2252,
  "ined": 2253,
  "other@@": 2254,
  "47@@": 2255,
  "oup@@": 2256,
  "sequ@@": 2257,
  "blood": 2258,
  "feel": 2259,
  "increas@@": 2260,
  "angels": 2261,
  "board": 2262,
  "current": 2263,
  "hour@@": 2264,
  "itional": 2265,
  "Abraham@@": 2266,
  "designed": 2267,
  "’t": 2268,
  "Indeed": 2269,
  "activ@@": 2270,
  "Dim@@": 2271,
  "wo@@": 2272,
  "Lik@@": 2273,
  "compet@@": 2274,
  "hom@@": 2275,
  "ol": 2276,
  ";@@": 2277,
  "men@@": 2278,
  "prec@@": 2279,
  "80": 2280,
  "Jo@@": 2281,
  "2018@@": 2282,
  "SE@@": 2283,
  "start": 2284,
  "guidance": 2285,
  "Fin@@": 2286,
  "Christ@@": 2287,
  "ence.": 2288,
  "engine@@": 2289,
  "6,": 2290,
  "Cr@@": 2291,
  ");": 2292,
  "ins@@": 2293,
  "App@@": 2294,
  "series": 2295,
  "training": 2296,
  "impl@@": 2297,
  "includes": 2298,
  "global": 2299,
  "Sub@@": 2300,
  "د@@": 2301,
  "Eur@@": 2302,
  "ب@@": 2303,
  "31": 2304,
  "Job": 2305,
  "5/@@": 2306,
  "aging": 2307,
  "environ@@": 2308,
  "posed": 2309,
  "Hu@@": 2310,
  "near": 2311,
  "websit@@": 2312,
  "ature": 2313,
  "Air": 2314,
  "proper@@": 2315,
  "local": 2316,
  "hold": 2317,
  "pri@@": 2318,
  "2012": 2319,
  "100%": 2320,
  "45": 2321,
  "hard@@": 2322,
  "ink@@": 2323,
  "cour@@": 2324,
  "Phara@@": 2325,
  "mas@@": 2326,
  "olog@@": 2327,
  "wom@@": 2328,
  "dra@@": 2329,
  "tag@@": 2330,
  "ane@@": 2331,
  "card@@": 2332,
  "ate,": 2333,
  "once": 2334,
  "ip": 2335,
  "process": 2336,
  "ever,": 2337,
  "ays": 2338,
  "share": 2339,
  "rug@@": 2340,
  "3D": 2341,
  "a.@@": 2342,
  "as,": 2343,
  "ans": 2344,
  "cam@@": 2345,
  "ital": 2346,
  "ike": 2347,
  "Fa@@": 2348,
  "paper": 2349,
  "Per@@": 2350,
  "rewar@@": 2351,
  "ior": 2352,
  "sed": 2353,
  "amin@@": 2354,
  "extr@@": 2355,
  "ton": 2356,
  "strateg@@": 2357,
  "Pay@@": 2358,
  "RO@@": 2359,
  "compar@@": 2360,
  "she@@": 2361,
  "merc@@": 2362,
  "caused": 2363,
  "ology": 2364,
  "consum@@": 2365,
  "took": 2366,
  "ia.": 2367,
  "plan": 2368,
  "chem@@": 2369,
  "Afric@@": 2370,
  "resist@@": 2371,
  "al.": 2372,
  "avoid": 2373,
  "Go": 2374,
  "izing": 2375,
  "National": 2376,
  "sett@@": 2377,
  "forgive": 2378,
  "ecting": 2379,
  "access@@": 2380,
  "MP@@": 2381,
  "Guang@@": 2382,
  "8,": 2383,
  "lock@@": 2384,
  "onic": 2385,
  "response": 2386,
  "age.": 2387,
  "amount": 2388,
  "Of": 2389,
  "Let": 2390,
  "age,": 2391,
  "knowled@@": 2392,
  "ی@@": 2393,
  "provides": 2394,
  "reading": 2395,
  "Steel": 2396,
  "integr@@": 2397,
  "ards": 2398,
  "cm": 2399,
  "need@@": 2400,
  "Online": 2401,
  "meet": 2402,
  "gn@@": 2403,
  "Tel@@": 2404,
  "79@@": 2405,
  "uck@@": 2406,
  "material@@": 2407,
  "et.": 2408,
  "proved": 2409,
  "Air@@": 2410,
  "similar": 2411,
  "til@@": 2412,
  "try": 2413,
  "er:": 2414,
  "No@@": 2415,
  "ired": 2416,
  "ians": 2417,
  "El@@": 2418,
  "ects": 2419,
  "direct@@": 2420,
  "industry": 2421,
  "Link": 2422,
  "37": 2423,
  "row": 2424,
  "Italy": 2425,
  "require@@": 2426,
  "ress": 2427,
  "ners": 2428,
  "App": 2429,
  "and,": 2430,
  "bre@@": 2431,
  "pray@@": 2432,
  "ک@@": 2433,
  "country": 2434,
  "offic@@": 2435,
  "san@@": 2436,
  "Who@@": 2437,
  "ek@@": 2438,
  "CD@@": 2439,
  "ident": 2440,
  "standard": 2441,
  "John": 2442,
  "ili@@": 2443,
  "North": 2444,
  "weight": 2445,
  "cov@@": 2446,
  "ecut@@": 2447,
  "material": 2448,
  "lear@@": 2449,
  "ust": 2450,
  "continu@@": 2451,
  "taking": 2452,
  "please": 2453,
  "Ta@@": 2454,
  "remain": 2455,
  "ome": 2456,
  "an.": 2457,
  "tis@@": 2458,
  "!!": 2459,
  "ship": 2460,
  "States": 2461,
  "prayer": 2462,
  "giv@@": 2463,
  "Private": 2464,
  "ives": 2465,
  "condit@@": 2466,
  "87@@": 2467,
  "ening": 2468,
  "PC@@": 2469,
  "ung@@": 2470,
  "assemb@@": 2471,
  "Wh@@": 2472,
  "administ@@": 2473,
  "tem@@": 2474,
  "seek": 2475,
  "week@@": 2476,
  "mp@@": 2477,
  "etic": 2478,
  "cost": 2479,
  "12:@@": 2480,
  "needs": 2481,
  "pric@@": 2482,
  "99": 2483,
  "age@@": 2484,
  "tou@@": 2485,
  "arm@@": 2486,
  "mal@@": 2487,
  "MH": 2488,
  "Mis@@": 2489,
  "result": 2490,
  "protection": 2491,
  "ret@@": 2492,
  "Nor@@": 2493,
  "abil@@": 2494,
  "bir@@": 2495,
  "crush@@": 2496,
  "40": 2497,
  "real": 2498,
  "doing": 2499,
  "ination": 2500,
  "iang": 2501,
  "500": 2502,
  "sil@@": 2503,
  "time.": 2504,
  "ads": 2505,
  "students": 2506,
  "faith@@": 2507,
  "Al-@@": 2508,
  "ining": 2509,
  "relig@@": 2510,
  "comman@@": 2511,
  "ga@@": 2512,
  "ga": 2513,
  "ings.": 2514,
  "market@@": 2515,
  "hai": 2516,
  "ild": 2517,
  "single": 2518,
  "ie@@": 2519,
  "cle": 2520,
  "Sur@@": 2521,
  "Loc@@": 2522,
  "let@@": 2523,
  "At": 2524,
  "ING": 2525,
  "ine@@": 2526,
  "nov@@": 2527,
  "umb@@": 2528,
  "Reg@@": 2529,
  "state": 2530,
  "Inst@@": 2531,
  "ws": 2532,
  "example": 2533,
  "bas@@": 2534,
  "ily": 2535,
  "amm@@": 2536,
  "distribut@@": 2537,
  "6.": 2538,
  "corpor@@": 2539,
  "four": 2540,
  "parts": 2541,
  "little": 2542,
  "am,": 2543,
  "cs@@": 2544,
  "lik@@": 2545,
  "ism": 2546,
  "ll": 2547,
  "complete": 2548,
  "world.": 2549,
  "Bu@@": 2550,
  "ans@@": 2551,
  "occur@@": 2552,
  "itting": 2553,
  "Ningbo": 2554,
  "mobile": 2555,
  "solut@@": 2556,
  "right@@": 2557,
  "coming": 2558,
  "Product": 2559,
  "soul": 2560,
  "word@@": 2561,
  "10.@@": 2562,
  "ã@@": 2563,
  "07@@": 2564,
  "prise": 2565,
  "NE@@": 2566,
  "400@@": 2567,
  "***": 2568,
  "ain": 2569,
  "educ@@": 2570,
  "flight": 2571,
  "thereum": 2572,
  "85@@": 2573,
  "ots": 2574,
  "accoun@@": 2575,
  "cover@@": 2576,
  "personal": 2577,
  "https://www.@@": 2578,
  "get@@": 2579,
  "Show@@": 2580,
  "mit": 2581,
  "cryp@@": 2582,
  "introduc@@": 2583,
  "ham@@": 2584,
  "ock": 2585,
  "cooper@@": 2586,
  "Austral@@": 2587,
  "thus": 2588,
  "cast": 2589,
  "omat@@": 2590,
  ".0@@": 2591,
  "pm": 2592,
  "possib@@": 2593,
  "bet@@": 2594,
  "Rel@@": 2595,
  "los@@": 2596,
  "five": 2597,
  "TH@@": 2598,
  "Size": 2599,
  "CS@@": 2600,
  "ured": 2601,
  "gran@@": 2602,
  "remember": 2603,
  "ution": 2604,
  "gest": 2605,
  "design": 2606,
  "�@@": 2607,
  "”@@": 2608,
  "ites": 2609,
  "customer": 2610,
  "servants": 2611,
  "Students": 2612,
  "MA@@": 2613,
  "ems": 2614,
  "rain": 2615,
  "complet@@": 2616,
  "Since": 2617,
  "—@@": 2618,
  "م": 2619,
  "close": 2620,
  "GB@@": 2621,
  "AP@@": 2622,
  "46@@": 2623,
  "kind@@": 2624,
  "ices": 2625,
  "protect": 2626,
  "offers": 2627,
  "inn@@": 2628,
  "ention": 2629,
  "look@@": 2630,
  "2,@@": 2631,
  "HO@@": 2632,
  "ne": 2633,
  "tit@@": 2634,
  "change": 2635,
  "Pres@@": 2636,
  "11:@@": 2637,
  "rooms": 2638,
  "formed": 2639,
  "Pack@@": 2640,
  "LE@@": 2641,
  "vel": 2642,
  "Oper@@": 2643,
  "za": 2644,
  "reco@@": 2645,
  "8:@@": 2646,
  "ury": 2647,
  "AC@@": 2648,
  "RA@@": 2649,
  "rub@@": 2650,
  "Microsoft": 2651,
  "Join": 2652,
  "k,": 2653,
  "ective": 2654,
  "everything": 2655,
  "08@@": 2656,
  "n.": 2657,
  "Em@@": 2658,
  "search": 2659,
  "****": 2660,
  "point": 2661,
  "TO": 2662,
  "private": 2663,
  "conduc@@": 2664,
  "special": 2665,
  "Many": 2666,
  "ris@@": 2667,
  "help@@": 2668,
  "ached": 2669,
  "ese": 2670,
  "transl@@": 2671,
  "temperature": 2672,
  "Products": 2673,
  "says": 2674,
  "gro@@": 2675,
  "Port@@": 2676,
  "is.": 2677,
  "icy": 2678,
  "heaven": 2679,
  "ame": 2680,
  "ther": 2681,
  "page": 2682,
  "ational": 2683,
  "exper@@": 2684,
  "CR@@": 2685,
  "Str@@": 2686,
  "ls": 2687,
  "Use": 2688,
  "Take": 2689,
  "init@@": 2690,
  "ten": 2691,
  "Ser@@": 2692,
  "buy": 2693,
  "New@@": 2694,
  "ut": 2695,
  "mill@@": 2696,
  "LI@@": 2697,
  "speak": 2698,
  "http://@@": 2699,
  "earing": 2700,
  "gam@@": 2701,
  "certain": 2702,
  "time,": 2703,
  "Go@@": 2704,
  "scre@@": 2705,
  "SM@@": 2706,
  "long@@": 2707,
  "gri@@": 2708,
  "ton@@": 2709,
  "though": 2710,
  "EUR@@": 2711,
  "perce@@": 2712,
  "58@@": 2713,
  "ulation": 2714,
  "م@@": 2715,
  "sures": 2716,
  "domin@@": 2717,
  "osh@@": 2718,
  "really": 2719,
  "acts": 2720,
  "baby": 2721,
  "tell": 2722,
  "ece": 2723,
  "PE@@": 2724,
  "sour@@": 2725,
  "run@@": 2726,
  "sid@@": 2727,
  "too": 2728,
  "quickly": 2729,
  "pping": 2730,
  "Machin@@": 2731,
  "TI@@": 2732,
  "Sec@@": 2733,
  "quot@@": 2734,
  "top@@": 2735,
  "ن@@": 2736,
  "partic@@": 2737,
  "family": 2738,
  "matter": 2739,
  "ipp@@": 2740,
  "ene": 2741,
  "considered": 2742,
  "side": 2743,
  "fast@@": 2744,
  "ror": 2745,
  "jud@@": 2746,
  "priv@@": 2747,
  "glass": 2748,
  "uge": 2749,
  "business@@": 2750,
  "advanced": 2751,
  "automat@@": 2752,
  "lic@@": 2753,
  "ather": 2754,
  "On@@": 2755,
  "features": 2756,
  "a)": 2757,
  "daily": 2758,
  "Luke": 2759,
  "general": 2760,
  "Jet": 2761,
  "Med@@": 2762,
  "LT@@": 2763,
  "speak@@": 2764,
  "(M@@": 2765,
  "Mas@@": 2766,
  "ign": 2767,
  "influ@@": 2768,
  "ball": 2769,
  "(16@@": 2770,
  "zhou": 2771,
  "Swed@@": 2772,
  "beg@@": 2773,
  "diam@@": 2774,
  "anything": 2775,
  "Fil@@": 2776,
  "conv@@": 2777,
  "sugg@@": 2778,
  "mus@@": 2779,
  "placed": 2780,
  "excellent": 2781,
  "toward": 2782,
  "Ger@@": 2783,
  "Machine": 2784,
  "return": 2785,
  "play": 2786,
  "almost": 2787,
  "ump": 2788,
  "Sol@@": 2789,
  "cost@@": 2790,
  "TO@@": 2791,
  "Cour@@": 2792,
  "me.": 2793,
  "oph@@": 2794,
  "Ev@@": 2795,
  "Wel@@": 2796,
  "hold@@": 2797,
  "mail": 2798,
  "Can": 2799,
  "degre@@": 2800,
  "9/@@": 2801,
  "rememb@@": 2802,
  "Science": 2803,
  "article": 2804,
  "start@@": 2805,
  "An": 2806,
  "66": 2807,
  "eding": 2808,
  "mitted": 2809,
  "na@@": 2810,
  "judg@@": 2811,
  "pleas@@": 2812,
  "Bitcoin": 2813,
  "shi,@@": 2814,
  "oth": 2815,
  "Cent@@": 2816,
  "fail@@": 2817,
  "behind": 2818,
  "faith": 2819,
  "ya": 2820,
  "ع@@": 2821,
  "lev@@": 2822,
  "fal@@": 2823,
  "cent": 2824,
  "resour@@": 2825,
  "Cal@@": 2826,
  "SH@@": 2827,
  "…@@": 2828,
  "creation": 2829,
  "reach": 2830,
  "fast": 2831,
  "cat@@": 2832,
  "osp@@": 2833,
  "just@@": 2834,
  "greater": 2835,
  "acqu@@": 2836,
  "ock@@": 2837,
  "natural": 2838,
  "ries": 2839,
  "download": 2840,
  "de": 2841,
  "Shang@@": 2842,
  "ware": 2843,
  "Of@@": 2844,
  "compl@@": 2845,
  "High@@": 2846,
  "ba": 2847,
  "praise": 2848,
  "Facebook": 2849,
  "FI@@": 2850,
  "3/@@": 2851,
  "funct@@": 2852,
  "yan@@": 2853,
  "capacity": 2854,
  "mad@@": 2855,
  "HOTE@@": 2856,
  "Day@@": 2857,
  "Nam@@": 2858,
  "fall@@": 2859,
  "strong": 2860,
  "GS": 2861,
  "ification": 2862,
  "anyone": 2863,
  "lead": 2864,
  "ull@@": 2865,
  "°C": 2866,
  "lines": 2867,
  "digital": 2868,
  "itive": 2869,
  "field": 2870,
  "typ@@": 2871,
  "heart": 2872,
  "contr@@": 2873,
  "frequ@@": 2874,
  "internet": 2875,
  "Test@@": 2876,
  "page:": 2877,
  "const@@": 2878,
  "Video": 2879,
  "humans": 2880,
  "IC@@": 2881,
  "Az@@": 2882,
  "sins": 2883,
  "Sit@@": 2884,
  "living": 2885,
  "Archives": 2886,
  "Ste@@": 2887,
  "Char@@": 2888,
  "app@@": 2889,
  "dam@@": 2890,
  "Sha@@": 2891,
  "promot@@": 2892,
  "Trans@@": 2893,
  "IL@@": 2894,
  "2009": 2895,
  "Law@@": 2896,
  "perhaps": 2897,
  "ha": 2898,
  "great@@": 2899,
  "ah,": 2900,
  "44@@": 2901,
  "min": 2902,
  "gather@@": 2903,
  "Rob@@": 2904,
  "Line": 2905,
  "preh@@": 2906,
  "32@@": 2907,
  "sho@@": 2908,
  "size": 2909,
  "UK": 2910,
  "Bik@@": 2911,
  "Service": 2912,
  "NO@@": 2913,
  "passed": 2914,
  "train": 2915,
  "ber@@": 2916,
  "ind": 2917,
  "report@@": 2918,
  "Comm@@": 2919,
  "reas@@": 2920,
  "my@@": 2921,
  "vel@@": 2922,
  "Business": 2923,
  "conf@@": 2924,
  "ility": 2925,
  "sch@@": 2926,
  "positive": 2927,
  "guarant@@": 2928,
  "American": 2929,
  "stor@@": 2930,
  "Center": 2931,
  "concer@@": 2932,
  "thy": 2933,
  "forgiveness": 2934,
  "beli@@": 2935,
  "proph@@": 2936,
  "list": 2937,
  "fur@@": 2938,
  "asked": 2939,
  "a'@@": 2940,
  "ees": 2941,
  "err@@": 2942,
  "doub@@": 2943,
  "ations,": 2944,
  "Deliv@@": 2945,
  "se.": 2946,
  "ought": 2947,
  "ats": 2948,
  "aut@@": 2949,
  "got": 2950,
  "rop@@": 2951,
  "itor": 2952,
  "active": 2953,
  "uct@@": 2954,
  "view@@": 2955,
  "ger": 2956,
  "30%": 2957,
  "ass": 2958,
  "rest": 2959,
  "150@@": 2960,
  "game": 2961,
  "ult": 2962,
  "Prev@@": 2963,
  "FSX": 2964,
  "further": 2965,
  "enjoy@@": 2966,
  "some@@": 2967,
  "promise": 2968,
  "ren": 2969,
  "fat@@": 2970,
  "ript@@": 2971,
  "head@@": 2972,
  "thre@@": 2973,
  "Expert": 2974,
  "seconds": 2975,
  "wn": 2976,
  "Del@@": 2977,
  "Information": 2978,
  "national": 2979,
  "ict": 2980,
  "mm,": 2981,
  "IT": 2982,
  "Office": 2983,
  "ka": 2984,
  "in-@@": 2985,
  "bon@@": 2986,
  "ension": 2987,
  "ence@@": 2988,
  "itation": 2989,
  "rad@@": 2990,
  "tic": 2991,
  "scient@@": 2992,
  "300": 2993,
  "Advisor": 2994,
  "Organ@@": 2995,
  "exist@@": 2996,
  "equip@@": 2997,
  "Av@@": 2998,
  "AB@@": 2999,
  "remin@@": 3000,
  "€@@": 3001,
  "sor@@": 3002,
  "sou@@": 3003,
  "supply": 3004,
  "to-@@": 3005,
  "sun": 3006,
  "7:@@": 3007,
  "short@@": 3008,
  "Don@@": 3009,
  "32": 3010,
  "Mom": 3011,
  "highly": 3012,
  "regul@@": 3013,
  "religion": 3014,
  "named": 3015,
  "Satan": 3016,
  "10/@@": 3017,
  "box": 3018,
  "win@@": 3019,
  "ction": 3020,
  "govern@@": 3021,
  "eng": 3022,
  "ened": 3023,
  "table": 3024,
  "became": 3025,
  "5.": 3026,
  "pen@@": 3027,
  "ric": 3028,
  "travel@@": 3029,
  "pay": 3030,
  "head": 3031,
  "ief": 3032,
  "suf@@": 3033,
  "wr@@": 3034,
  "n’t": 3035,
  "}": 3036,
  "earch@@": 3037,
  "view": 3038,
  "Det@@": 3039,
  "either": 3040,
  "strial": 3041,
  "Cho@@": 3042,
  "asc@@": 3043,
  "saw": 3044,
  "NA": 3045,
  "Africa": 3046,
  "materials": 3047,
  "34": 3048,
  "ided": 3049,
  "（@@": 3050,
  "shar@@": 3051,
  "claim@@": 3052,
  "row@@": 3053,
  "valu@@": 3054,
  "content": 3055,
  "Plastic": 3056,
  "Dong@@": 3057,
  "ep": 3058,
  "Web@@": 3059,
  "was@@": 3060,
  "media": 3061,
  "Bar@@": 3062,
  "aper": 3063,
  "ak": 3064,
  "•": 3065,
  "ensure": 3066,
  "provid@@": 3067,
  "id,": 3068,
  "Ir@@": 3069,
  "inting": 3070,
  "body": 3071,
  "Not": 3072,
  "Priv@@": 3073,
  "Thus": 3074,
  "friendly": 3075,
  "serve": 3076,
  "Bus@@": 3077,
  "location": 3078,
  "secon@@": 3079,
  "utions": 3080,
  "ara": 3081,
  "e,@@": 3082,
  "Vol@@": 3083,
  "cou@@": 3084,
  "ux@@": 3085,
  "spend": 3086,
  "takes": 3087,
  "someone": 3088,
  "far": 3089,
  "hard": 3090,
  "bac@@": 3091,
  "CC@@": 3092,
  "stay": 3093,
  "Spir@@": 3094,
  "along": 3095,
  "Hol@@": 3096,
  "olic": 3097,
  "technolog@@": 3098,
  "itiz@@": 3099,
  "2000@@": 3100,
  "minutes": 3101,
  "develop": 3102,
  "Lim@@": 3103,
  "itors": 3104,
  "education": 3105,
  "res": 3106,
  "writ@@": 3107,
  "himself": 3108,
  "echan@@": 3109,
  "Good": 3110,
  "usually": 3111,
  "rect": 3112,
  "ce.": 3113,
  "sin": 3114,
  "tor@@": 3115,
  "oid": 3116,
  "self": 3117,
  "tified": 3118,
  "big": 3119,
  "product@@": 3120,
  "stems": 3121,
  "shi@@": 3122,
  "Maldives": 3123,
  "reli@@": 3124,
  "evidence": 3125,
  "Here": 3126,
  "web": 3127,
  "10-@@": 3128,
  "ice,": 3129,
  "21:@@": 3130,
  "ways": 3131,
  "performance": 3132,
  "forth": 3133,
  "Hack": 3134,
  "cial": 3135,
  "tool": 3136,
  "far@@": 3137,
  "West": 3138,
  "treat@@": 3139,
  "tu@@": 3140,
  "received": 3141,
  "save": 3142,
  "mol@@": 3143,
  "former": 3144,
  "65": 3145,
  "2010": 3146,
  "FS@@": 3147,
  "growth": 3148,
  "sens@@": 3149,
  "Rom@@": 3150,
  "bod@@": 3151,
  "app": 3152,
  "present@@": 3153,
  "throughout": 3154,
  "ER": 3155,
  "ME@@": 3156,
  "AU@@": 3157,
  "pract@@": 3158,
  "She": 3159,
  "Germany": 3160,
  "fit@@": 3161,
  "prevent": 3162,
  "unique": 3163,
  "necessary": 3164,
  "Great": 3165,
  "room": 3166,
  "benefit": 3167,
  "Yes@@": 3168,
  "Ob@@": 3169,
  "lock": 3170,
  "memb@@": 3171,
  "die": 3172,
  "%.": 3173,
  "Europ@@": 3174,
  "flo@@": 3175,
  "knowing": 3176,
  "limited": 3177,
  "bill@@": 3178,
  "eder@@": 3179,
  "Hot": 3180,
  "language": 3181,
  "SS@@": 3182,
  "files": 3183,
  "wal@@": 3184,
  "shipping": 3185,
  "required": 3186,
  "White": 3187,
  "down@@": 3188,
  "areas": 3189,
  "，@@": 3190,
  "forward": 3191,
  "effect": 3192,
  "parents": 3193,
  "BU@@": 3194,
  "Sw@@": 3195,
  "cul@@": 3196,
  "7-@@": 3197,
  "network": 3198,
  "ail": 3199,
  "official": 3200,
  "ant,": 3201,
  "post": 3202,
  "hund@@": 3203,
  "DA": 3204,
  "mentioned": 3205,
  "lot@@": 3206,
  "ation:": 3207,
  "oud": 3208,
  "Count@@": 3209,
  "tery": 3210,
  "\\@@": 3211,
  "iOS": 3212,
  "C,": 3213,
  "companies": 3214,
  "whole": 3215,
  "Electr@@": 3216,
  "س@@": 3217,
  "gi@@": 3218,
  "center": 3219,
  "ader": 3220,
  "partment": 3221,
  "um,": 3222,
  "48": 3223,
  "Power": 3224,
  "UR@@": 3225,
  "44": 3226,
  "circ@@": 3227,
  "e;": 3228,
  "pressure": 3229,
  "mail@@": 3230,
  "key": 3231,
  "9,": 3232,
  "grow@@": 3233,
  "supp@@": 3234,
  "chang@@": 3235,
  "easily": 3236,
  "fle@@": 3237,
  "bid@@": 3238,
  "iev@@": 3239,
  "Post": 3240,
  "pleasure": 3241,
  "Tw@@": 3242,
  "eds": 3243,
  "Today": 3244,
  "eting": 3245,
  "poss@@": 3246,
  "Mel@@": 3247,
  "It’s": 3248,
  "followed": 3249,
  "Mol@@": 3250,
  "particip@@": 3251,
  "ar,": 3252,
  "(17@@": 3253,
  "Add@@": 3254,
  "Person@@": 3255,
  "Tur@@": 3256,
  "mut@@": 3257,
  "variety": 3258,
  "zh@@": 3259,
  "grad@@": 3260,
  "plat@@": 3261,
  "conven@@": 3262,
  "od,": 3263,
  "Share": 3264,
  "3,@@": 3265,
  "Vir@@": 3266,
  "hear": 3267,
  "ifor@@": 3268,
  "SI@@": 3269,
  "ented": 3270,
  "metal": 3271,
  "i.@@": 3272,
  "differ@@": 3273,
  "transfer": 3274,
  "profess@@": 3275,
  "ert": 3276,
  "°@@": 3277,
  "code": 3278,
  "IS": 3279,
  "int": 3280,
  "left": 3281,
  "touch": 3282,
  "studies": 3283,
  "pe": 3284,
  "hon@@": 3285,
  "ich@@": 3286,
  "ibility": 3287,
  "cult@@": 3288,
  "Web": 3289,
  "PRO@@": 3290,
  "downlo@@": 3291,
  "house": 3292,
  "Side": 3293,
  "State": 3294,
  "history": 3295,
  "Asia": 3296,
  "Data": 3297,
  "turned": 3298,
  "PH@@": 3299,
  "Did": 3300,
  "ised": 3301,
  "ad,": 3302,
  "users": 3303,
  "People": 3304,
  "Group": 3305,
  "directly": 3306,
  "ribut@@": 3307,
  "ked": 3308,
  "2000": 3309,
  "AL": 3310,
  "Top": 3311,
  "Bay@@": 3312,
  "ram@@": 3313,
  "ordin@@": 3314,
  "prophet": 3315,
  "something": 3316,
  "”.": 3317,
  "short": 3318,
  "file": 3319,
  "fiel@@": 3320,
  "covered": 3321,
  "first@@": 3322,
  "With@@": 3323,
  "hearing": 3324,
  "9-@@": 3325,
  "Applic@@": 3326,
  "cy": 3327,
  "solution": 3328,
  "11,": 3329,
  "e!": 3330,
  "trials": 3331,
  "later": 3332,
  "eter": 3333,
  "gen": 3334,
  "College": 3335,
  "set@@": 3336,
  "run": 3337,
  "thr@@": 3338,
  "Bro@@": 3339,
  "wire": 3340,
  "33@@": 3341,
  "Engl@@": 3342,
  "Fol@@": 3343,
  "so,": 3344,
  "iber@@": 3345,
  "pain": 3346,
  "oke": 3347,
  "shop@@": 3348,
  "ements": 3349,
  "ivers@@": 3350,
  "board@@": 3351,
  "Bible": 3352,
  "Gospel": 3353,
  "Pan@@": 3354,
  "wing": 3355,
  "Us@@": 3356,
  "sight": 3357,
  "ique": 3358,
  "public@@": 3359,
  "Cap@@": 3360,
  "Suppl@@": 3361,
  "cities": 3362,
  "square": 3363,
  "promis@@": 3364,
  "cook@@": 3365,
  "SG@@": 3366,
  "Braz@@": 3367,
  "ume": 3368,
  "win": 3369,
  "experi@@": 3370,
  "land,": 3371,
  "firm@@": 3372,
  "Cer@@": 3373,
  "arly": 3374,
  "office": 3375,
  "class@@": 3376,
  "ifying": 3377,
  "enough": 3378,
  "separ@@": 3379,
  "：@@": 3380,
  "commer@@": 3381,
  "Brit@@": 3382,
  "sea": 3383,
  "13:@@": 3384,
  "angel@@": 3385,
  "itut@@": 3386,
  "bor@@": 3387,
  "Son": 3388,
  "ana": 3389,
  "ough": 3390,
  "cart@@": 3391,
  "(2)": 3392,
  "meeting": 3393,
  "bank": 3394,
  "era": 3395,
  "iers": 3396,
  "event@@": 3397,
  "release": 3398,
  "nothing": 3399,
  "lots": 3400,
  "City": 3401,
  "Diam@@": 3402,
  "World@@": 3403,
  "ck@@": 3404,
  "Ge@@": 3405,
  "ific": 3406,
  "ago": 3407,
  "outh": 3408,
  "asks": 3409,
  "CP@@": 3410,
  "hot@@": 3411,
  "ously": 3412,
  "outside": 3413,
  "categ@@": 3414,
  "soci@@": 3415,
  "powder": 3416,
  "tly": 3417,
  "T/@@": 3418,
  "astr@@": 3419,
  "rit@@": 3420,
  "individuals": 3421,
  "stri@@": 3422,
  "acted": 3423,
  "pap@@": 3424,
  "blog@@": 3425,
  "workers": 3426,
  "Ter@@": 3427,
  "Fre@@": 3428,
  "ley": 3429,
  "ern": 3430,
  "Fo@@": 3431,
  "histor@@": 3432,
  "likely": 3433,
  "Media": 3434,
  "oh@@": 3435,
  "120@@": 3436,
  "er-@@": 3437,
  "42": 3438,
  "ani@@": 3439,
  "appl@@": 3440,
  "ishing": 3441,
  "glor@@": 3442,
  "foreign": 3443,
  "types": 3444,
  "practice": 3445,
  "lay@@": 3446,
  "message": 3447,
  "Arab@@": 3448,
  "report": 3449,
  "thers": 3450,
  "bal@@": 3451,
  "i.": 3452,
  "asting": 3453,
  "sing": 3454,
  "THE": 3455,
  "ā@@": 3456,
  "ector": 3457,
  "ipe": 3458,
  "corru@@": 3459,
  "Jan@@": 3460,
  "pal@@": 3461,
  "instruct@@": 3462,
  "nation@@": 3463,
  "2017@@": 3464,
  "Child@@": 3465,
  "PC": 3466,
  "\",": 3467,
  "worthy": 3468,
  "instead": 3469,
  "pra@@": 3470,
  "Water": 3471,
  "Custom@@": 3472,
  "Af@@": 3473,
  "eat": 3474,
  "Look": 3475,
  "oh": 3476,
  "Its": 3477,
  "latest": 3478,
  "kind": 3479,
  "ences": 3480,
  "learning": 3481,
  "School": 3482,
  "micro@@": 3483,
  "Ib@@": 3484,
  "LL@@": 3485,
  "ule": 3486,
  "porary": 3487,
  "itch@@": 3488,
  "ored": 3489,
  "ward": 3490,
  "destro@@": 3491,
  "ble": 3492,
  "Black": 3493,
  "wish": 3494,
  "20,": 3495,
  "\".": 3496,
  "Muhammad": 3497,
  "ually": 3498,
  "ime": 3499,
  "Anal@@": 3500,
  "white": 3501,
  "Min@@": 3502,
  "Comments": 3503,
  "250@@": 3504,
  "obey": 3505,
  "wrong": 3506,
  "fus@@": 3507,
  "asp@@": 3508,
  "Ba@@": 3509,
  "Hum@@": 3510,
  "ere": 3511,
  "marketing": 3512,
  "held": 3513,
  "ney": 3514,
  "mil@@": 3515,
  "12.@@": 3516,
  "Bul@@": 3517,
  "heard": 3518,
  "mam@@": 3519,
  "ray@@": 3520,
  "text": 3521,
  "Sun": 3522,
  "Industrial": 3523,
  "Mag@@": 3524,
  "started": 3525,
  "bonus": 3526,
  "Where": 3527,
  "、@@": 3528,
  "recogn@@": 3529,
  "tom": 3530,
  "16:@@": 3531,
  "lat@@": 3532,
  "stand": 3533,
  "ben@@": 3534,
  "lost": 3535,
  "less@@": 3536,
  "iction": 3537,
  "providing": 3538,
  "rush@@": 3539,
  "son@@": 3540,
  "everyone": 3541,
  "59@@": 3542,
  "adop@@": 3543,
  "proce@@": 3544,
  "god@@": 3545,
  "Saf@@": 3546,
  "peri@@": 3547,
  "ground": 3548,
  "(9@@": 3549,
  "temper@@": 3550,
  "water@@": 3551,
  "LA@@": 3552,
  "able.": 3553,
  "happ@@": 3554,
  "value": 3555,
  "recent": 3556,
  "meant": 3557,
  "Found@@": 3558,
  "Metal": 3559,
  "practices": 3560,
  "Trading": 3561,
  "ze": 3562,
  "fru@@": 3563,
  "Hy@@": 3564,
  "payment": 3565,
  "you’re": 3566,
  "construction": 3567,
  "went": 3568,
  "hyp@@": 3569,
  "Stainless": 3570,
  "90": 3571,
  "yourself": 3572,
  "forms": 3573,
  "door": 3574,
  "follow@@": 3575,
  "Russ@@": 3576,
  "Ko@@": 3577,
  "yst@@": 3578,
  "period": 3579,
  "ults": 3580,
  "May@@": 3581,
  "accept": 3582,
  "DI@@": 3583,
  "ny": 3584,
  "inted": 3585,
  "PER@@": 3586,
  "es)": 3587,
  "diffic@@": 3588,
  "saved": 3589,
  "promised": 3590,
  "screen": 3591,
  "nal": 3592,
  "Light": 3593,
  "So@@": 3594,
  "Ver@@": 3595,
  "una": 3596,
  "written": 3597,
  "remove": 3598,
  "Visit": 3599,
  "plann@@": 3600,
  "idence": 3601,
  "character@@": 3602,
  "continue": 3603,
  "yt@@": 3604,
  "Isa@@": 3605,
  "Up": 3606,
  "ty@@": 3607,
  "41": 3608,
  "origin@@": 3609,
  "17:@@": 3610,
  "six": 3611,
  "ony": 3612,
  "bab@@": 3613,
  "dead": 3614,
  "exce@@": 3615,
  "dre@@": 3616,
  "clus@@": 3617,
  "raw": 3618,
  "security": 3619,
  "Moun@@": 3620,
  "220@@": 3621,
  "published": 3622,
  "hi": 3623,
  "detail@@": 3624,
  "color": 3625,
  "Sm@@": 3626,
  "included": 3627,
  "bag@@": 3628,
  "hous@@": 3629,
  "Open@@": 3630,
  "49": 3631,
  "includ@@": 3632,
  "Poly@@": 3633,
  "count": 3634,
  "Act@@": 3635,
  "jects": 3636,
  "oil": 3637,
  "le-@@": 3638,
  "ö@@": 3639,
  "oking": 3640,
  "plastic": 3641,
  "shap@@": 3642,
  "Int@@": 3643,
  "press": 3644,
  "nor@@": 3645,
  "images": 3646,
  "aur@@": 3647,
  "Tun@@": 3648,
  "ativ@@": 3649,
  "Main": 3650,
  "Compan@@": 3651,
  "Z": 3652,
  "ix": 3653,
  "program": 3654,
  "sle@@": 3655,
  "）": 3656,
  "ree": 3657,
  "15:@@": 3658,
  "young": 3659,
  "FO@@": 3660,
  "hack": 3661,
  "siz@@": 3662,
  "erved": 3663,
  "Hor@@": 3664,
  "kg": 3665,
  "simple": 3666,
  ">": 3667,
  "neither": 3668,
  "surface": 3669,
  "49@@": 3670,
  "MO@@": 3671,
  "today@@": 3672,
  "ang": 3673,
  "ading": 3674,
  "10,": 3675,
  "address": 3676,
  "64": 3677,
  "Stor@@": 3678,
  "36": 3679,
  "worshipp@@": 3680,
  "every@@": 3681,
  "nit@@": 3682,
  "Prot@@": 3683,
  "Not@@": 3684,
  "Mot@@": 3685,
  "J": 3686,
  "vide@@": 3687,
  "PVC": 3688,
  "effects": 3689,
  "Job@@": 3690,
  "deal": 3691,
  "essential": 3692,
  "ar.": 3693,
  "getting": 3694,
  "rout@@": 3695,
  "ener@@": 3696,
  "Pat@@": 3697,
  "minim@@": 3698,
  "aning": 3699,
  "gir@@": 3700,
  "famous": 3701,
  "hour": 3702,
  "am.": 3703,
  "at,": 3704,
  "$": 3705,
  "(18@@": 3706,
  "é@@": 3707,
  "a:": 3708,
  "wordpress": 3709,
  "quite": 3710,
  "ber": 3711,
  "Public": 3712,
  "AND": 3713,
  "hal@@": 3714,
  "hann@@": 3715,
  "ope": 3716,
  "surv@@": 3717,
  "favor": 3718,
  "manif@@": 3719,
  "Bre@@": 3720,
  "kin": 3721,
  "techn@@": 3722,
  "T-@@": 3723,
  "river": 3724,
  "Tra@@": 3725,
  "Marmaris": 3726,
  "erous": 3727,
  "factory,": 3728,
  "conver@@": 3729,
  "committed": 3730,
  "Israel@@": 3731,
  "iya": 3732,
  "Manufacturer": 3733,
  "allow": 3734,
  "itter": 3735,
  "bol@@": 3736,
  "Associ@@": 3737,
  "famil@@": 3738,
  "direct": 3739,
  "(7@@": 3740,
  "represent@@": 3741,
  "Tim@@": 3742,
  "ports": 3743,
  "wall@@": 3744,
  "IP@@": 3745,
  "proof": 3746,
  "super@@": 3747,
  "man,": 3748,
  "8.": 3749,
  "sup@@": 3750,
  ")=@@": 3751,
  "improve": 3752,
  "Even": 3753,
  "ester": 3754,
  "Mod@@": 3755,
  "ce:": 3756,
  "occ@@": 3757,
  "shows": 3758,
  "86": 3759,
  "89@@": 3760,
  "<@@": 3761,
  "PO@@": 3762,
  "Packing": 3763,
  "aim@@": 3764,
  "Lab@@": 3765,
  "aces": 3766,
  "pend@@": 3767,
  "mone": 3768,
  "CI@@": 3769,
  "Christ": 3770,
  "ower": 3771,
  "12,": 3772,
  "Rev@@": 3773,
  "WordPress": 3774,
  "14:@@": 3775,
  "enn@@": 3776,
  "attr@@": 3777,
  "Serv@@": 3778,
  "pon@@": 3779,
  "choice": 3780,
  "base": 3781,
  "Russian": 3782,
  "DE@@": 3783,
  "Des@@": 3784,
  "Yo@@": 3785,
  "iding": 3786,
  "izes": 3787,
  "Lin@@": 3788,
  "added": 3789,
  "sex@@": 3790,
  "average": 3791,
  "build@@": 3792,
  "km)": 3793,
  "bul@@": 3794,
  "eyes": 3795,
  "ript": 3796,
  "fact": 3797,
  "ten@@": 3798,
  "electric": 3799,
  "acks": 3800,
  "pass": 3801,
  "Red@@": 3802,
  "motor": 3803,
  "cut@@": 3804,
  "While": 3805,
  "friend@@": 3806,
  "foc@@": 3807,
  "Open": 3808,
  "(14@@": 3809,
  "Do@@": 3810,
  "camp@@": 3811,
  "enjoy": 3812,
  "22:@@": 3813,
  "prepar@@": 3814,
  "check": 3815,
  "Hear@@": 3816,
  "ich": 3817,
  "ross": 3818,
  "pet@@": 3819,
  "wholes@@": 3820,
  "foot@@": 3821,
  "dy@@": 3822,
  "ming": 3823,
  "The@@": 3824,
  "ri": 3825,
  "shown": 3826,
  "again@@": 3827,
  "Ang@@": 3828,
  "Gener@@": 3829,
  "Andro@@": 3830,
  "ves": 3831,
  "Fun@@": 3832,
  "ner@@": 3833,
  "consider": 3834,
  "arch@@": 3835,
  "actions": 3836,
  "jour@@": 3837,
  "el.": 3838,
  "Pet@@": 3839,
  "а@@": 3840,
  "Quality": 3841,
  "mu@@": 3842,
  "members": 3843,
  "emp@@": 3844,
  ",000@@": 3845,
  "cies": 3846,
  "how@@": 3847,
  "Model": 3848,
  "brow@@": 3849,
  "ced@@": 3850,
  "tains": 3851,
  "understand": 3852,
  "rather": 3853,
  "arriv@@": 3854,
  "Paradise": 3855,
  "Their": 3856,
  "verse": 3857,
  "ieve": 3858,
  "witness": 3859,
  "First": 3860,
  "thor@@": 3861,
  "ift": 3862,
  "car": 3863,
  "chat": 3864,
  "translation": 3865,
  "original": 3866,
  "ugu@@": 3867,
  "Tool": 3868,
  "Japan": 3869,
  "fund@@": 3870,
  "Hun@@": 3871,
  "India": 3872,
  "second": 3873,
  "Like": 3874,
  "g,": 3875,
  "Oc@@": 3876,
  "II": 3877,
  "mental": 3878,
  "built": 3879,
  "German": 3880,
  "inher@@": 3881,
  "mor@@": 3882,
  "application": 3883,
  "ax@@": 3884,
  "ram": 3885,
  "43": 3886,
  "hope": 3887,
  "FX": 3888,
  "Spy": 3889,
  "unds": 3890,
  "Vi@@": 3891,
  "к@@": 3892,
  "0.0@@": 3893,
  "(N@@": 3894,
  "bin@@": 3895,
  "Stud@@": 3896,
  "Ant@@": 3897,
  "33": 3898,
  "items": 3899,
  "inding": 3900,
  "appe@@": 3901,
  "becomes": 3902,
  "third": 3903,
  "Bur@@": 3904,
  "autom@@": 3905,
  "Just": 3906,
  "ld@@": 3907,
  "capac@@": 3908,
  "focus": 3909,
  "mighty": 3910,
  "prog@@": 3911,
  "Som@@": 3912,
  "16.@@": 3913,
  "ience": 3914,
  "BO@@": 3915,
  "rig@@": 3916,
  "ali": 3917,
  "94@@": 3918,
  "**@@": 3919,
  "able@@": 3920,
  "IN": 3921,
  "ES": 3922,
  "Review": 3923,
  "user": 3924,
  "General": 3925,
  "Nev@@": 3926,
  "LO@@": 3927,
  "artic@@": 3928,
  "ested": 3929,
  "obe@@": 3930,
  "strength": 3931,
  "alth": 3932,
  "SU@@": 3933,
  "ba@@": 3934,
  "David": 3935,
  "ears": 3936,
  "store": 3937,
  "enem@@": 3938,
  "declared": 3939,
  "assist@@": 3940,
  "Langu@@": 3941,
  "):": 3942,
  "Vide@@": 3943,
  "trust": 3944,
  "gas": 3945,
  "thought": 3946,
  "Univers@@": 3947,
  "refer@@": 3948,
  "peace": 3949,
  "opp@@": 3950,
  "ioned": 3951,
  "laun@@": 3952,
  "Sing@@": 3953,
  ".00": 3954,
  "ST@@": 3955,
  "dark@@": 3956,
  "Net@@": 3957,
  "39": 3958,
  "iss@@": 3959,
  "Jud@@": 3960,
  "TC@@": 3961,
  "Japanese": 3962,
  "arm": 3963,
  "Ref@@": 3964,
  "(6@@": 3965,
  "LE": 3966,
  "intell@@": 3967,
  "domain": 3968,
  "fight": 3969,
  "ready": 3970,
  "USD@@": 3971,
  "″": 3972,
  "Pow@@": 3973,
  "Gl@@": 3974,
  "modern": 3975,
  "D.": 3976,
  "rang@@": 3977,
  "dow@@": 3978,
  "Control": 3979,
  "ت@@": 3980,
  "ands": 3981,
  "adjust@@": 3982,
  "ml@@": 3983,
  "​@@": 3984,
  "__@@": 3985,
  "mul@@": 3986,
  "rema@@": 3987,
  "move": 3988,
  "Tor@@": 3989,
  "At@@": 3990,
  "Vis@@": 3991,
  "OEM": 3992,
  "”,": 3993,
  "ani": 3994,
  "pal": 3995,
  "remain@@": 3996,
  "Bir@@": 3997,
  "Di@@": 3998,
  "ody": 3999,
  "ump@@": 4000,
  "exc@@": 4001,
  "sure@@": 4002,
  "necess@@": 4003,
  "ularly": 4004,
  "17,": 4005,
  "Rik@@": 4006,
  "Hot@@": 4007,
  "Factory": 4008,
  "sense": 4009,
  "Corpor@@": 4010,
  "Lat@@": 4011,
  "Play@@": 4012,
  "os,": 4013,
  "itable": 4014,
  "Red": 4015,
  "Digital": 4016,
  "manag@@": 4017,
  "y’s": 4018,
  "g.": 4019,
  "call@@": 4020,
  "rain@@": 4021,
  "bar": 4022,
  "ver": 4023,
  "600@@": 4024,
  "probl@@": 4025,
  "GB": 4026,
  "Jiz@@": 4027,
  "chec@@": 4028,
  "198@@": 4029,
  "individual": 4030,
  "ku": 4031,
  "Although": 4032,
  "turning": 4033,
  "Play": 4034,
  "iving": 4035,
  "ung": 4036,
  "reason": 4037,
  "sound": 4038,
  "ject@@": 4039,
  "project": 4040,
  "58": 4041,
  "purpos@@": 4042,
  "jected": 4043,
  "you’@@": 4044,
  "ring": 4045,
  "shore": 4046,
  "ra": 4047,
  "Jin@@": 4048,
  "shan": 4049,
  "welcome": 4050,
  "activity": 4051,
  "05": 4052,
  "addition": 4053,
  "resp@@": 4054,
  "C-@@": 4055,
  "ini": 4056,
  "78": 4057,
  "beautiful": 4058,
  "position": 4059,
  "raised": 4060,
  "display@@": 4061,
  "TV": 4062,
  "uck": 4063,
  "Ret@@": 4064,
  "TA": 4065,
  "issues": 4066,
  "command": 4067,
  "110@@": 4068,
  "Medical": 4069,
  "favor@@": 4070,
  "hes@@": 4071,
  "V,": 4072,
  "nec@@": 4073,
  "oft": 4074,
  "ory,": 4075,
  "ف@@": 4076,
  "ships": 4077,
  "с@@": 4078,
  "job@@": 4079,
  "anted": 4080,
  "although": 4081,
  "1000@@": 4082,
  "Phone": 4083,
  "swe@@": 4084,
  "entire": 4085,
  "Adv@@": 4086,
  "script@@": 4087,
  "em": 4088,
  "ə": 4089,
  "{@@": 4090,
  "defin@@": 4091,
  "sons": 4092,
  "ived": 4093,
  "tained": 4094,
  "possess@@": 4095,
  ">@@": 4096,
  "write": 4097,
  "Supp@@": 4098,
  "eal@@": 4099,
  "repl@@": 4100,
  "died": 4101,
  "75": 4102,
  "exchange": 4103,
  "big@@": 4104,
  "Che@@": 4105,
  "kingdom": 4106,
  "father": 4107,
  "fill": 4108,
  "had@@": 4109,
  "box@@": 4110,
  "Dec@@": 4111,
  "spe@@": 4112,
  "function": 4113,
  "ising": 4114,
  "Development": 4115,
  "Does": 4116,
  "06:@@": 4117,
  "sa": 4118,
  "problem": 4119,
  "ی": 4120,
  "fav@@": 4121,
  "ural": 4122,
  "BA@@": 4123,
  "uch@@": 4124,
  "fiber": 4125,
  "Shir@@": 4126,
  "esting": 4127,
  "eth@@": 4128,
  "incl@@": 4129,
  "Full": 4130,
  "watch": 4131,
  "job": 4132,
  "anti-@@": 4133,
  "tour@@": 4134,
  "stone": 4135,
  "house@@": 4136,
  "compass@@": 4137,
  "AT@@": 4138,
  "flu@@": 4139,
  "Ag@@": 4140,
  "lose": 4141,
  "Dat@@": 4142,
  "ership": 4143,
  "desire": 4144,
  "prepared": 4145,
  "net": 4146,
  "drive": 4147,
  "saying": 4148,
  "Jac@@": 4149,
  "contribut@@": 4150,
  "ka@@": 4151,
  "hood": 4152,
  "ez@@": 4153,
  "11.@@": 4154,
  "fill@@": 4155,
  "ams": 4156,
  "Global": 4157,
  "Design@@": 4158,
  "strum@@": 4159,
  "particular": 4160,
  "55": 4161,
  "gradu@@": 4162,
  "ord": 4163,
  "gue": 4164,
  "19:@@": 4165,
  "requirements": 4166,
  "Mary": 4167,
  "Dr@@": 4168,
  "AN": 4169,
  "T,": 4170,
  "rich": 4171,
  "Oce@@": 4172,
  "Goog@@": 4173,
  "Sou@@": 4174,
  "onlin@@": 4175,
  "thousands": 4176,
  "PP@@": 4177,
  "Ul@@": 4178,
  "150": 4179,
  "HA@@": 4180,
  "wah@@": 4181,
  "bad": 4182,
  "university": 4183,
  "trust@@": 4184,
  "wis@@": 4185,
  "weak@@": 4186,
  "les@@": 4187,
  "arily": 4188,
  "er’s": 4189,
  "Ke@@": 4190,
  "eye": 4191,
  "Ban@@": 4192,
  "isa": 4193,
  "West@@": 4194,
  "UR": 4195,
  "oups": 4196,
  "probably": 4197,
  "WA@@": 4198,
  "Shenzhen": 4199,
  "istics": 4200,
  "Ed@@": 4201,
  "See": 4202,
  "..@@": 4203,
  "Niger@@": 4204,
  "rac@@": 4205,
  "Bet@@": 4206,
  "whe@@": 4207,
  "Management": 4208,
  "tel@@": 4209,
  "11/@@": 4210,
  "showed": 4211,
  "class": 4212,
  "Dist@@": 4213,
  "served": 4214,
  "financial": 4215,
  "expl@@": 4216,
  "lam@@": 4217,
  "Build@@": 4218,
  "u,": 4219,
  "Gover@@": 4220,
  "Stre@@": 4221,
  "eth": 4222,
  "alm@@": 4223,
  "Only": 4224,
  "Shar@@": 4225,
  "ko@@": 4226,
  "Number": 4227,
  "Software": 4228,
  "Imam": 4229,
  "sul@@": 4230,
  "7.": 4231,
  "ama": 4232,
  "obl@@": 4233,
  "18,": 4234,
  "brings": 4235,
  "sexual": 4236,
  "illed": 4237,
  "ih@@": 4238,
  "build": 4239,
  "(20@@": 4240,
  "responsible": 4241,
  "appeared": 4242,
  "sun@@": 4243,
  "learn": 4244,
  "fig@@": 4245,
  "celebr@@": 4246,
  "ه@@": 4247,
  "ä@@": 4248,
  "udi": 4249,
  "18:@@": 4250,
  "Wash@@": 4251,
  "House": 4252,
  "icle": 4253,
  "windo@@": 4254,
  "Jan": 4255,
  "Lux@@": 4256,
  "Over": 4257,
  "esh": 4258,
  "zz@@": 4259,
  "Bang@@": 4260,
  "Fore@@": 4261,
  "fas@@": 4262,
  "But@@": 4263,
  "ips": 4264,
  "amaz@@": 4265,
  "blo@@": 4266,
  "music": 4267,
  "fect": 4268,
  "Solutions": 4269,
  "yourselves": 4270,
  "KU@@": 4271,
  "A.": 4272,
  "vari@@": 4273,
  "mom@@": 4274,
  "thir@@": 4275,
  "train@@": 4276,
  "raise": 4277,
  "Show": 4278,
  "pure": 4279,
  "blessed": 4280,
  "goes": 4281,
  "hosting": 4282,
  "Ber@@": 4283,
  "Ho@@": 4284,
  "ON": 4285,
  "computer": 4286,
  "langu@@": 4287,
  "display": 4288,
  "ude": 4289,
  "ights": 4290,
  "Park": 4291,
  "ills": 4292,
  "(H@@": 4293,
  "ortation": 4294,
  "【@@": 4295,
  "York": 4296,
  "63": 4297,
  "Because": 4298,
  "X-@@": 4299,
  "reng@@": 4300,
  "primary": 4301,
  "ges": 4302,
  "interest": 4303,
  "4/@@": 4304,
  "places": 4305,
  "dur@@": 4306,
  "approach": 4307,
  "allows": 4308,
  "ano": 4309,
  "Islam@@": 4310,
  "HGH": 4311,
  "Har@@": 4312,
  "nograph@@": 4313,
  "Beaut@@": 4314,
  "OF": 4315,
  "Je@@": 4316,
  "sites": 4317,
  "Exp@@": 4318,
  "presented": 4319,
  "real@@": 4320,
  "expect@@": 4321,
  "Lu@@": 4322,
  "Met@@": 4323,
  "ith": 4324,
  "Commer@@": 4325,
  "lad@@": 4326,
  "96@@": 4327,
  "French": 4328,
  "agg@@": 4329,
  "ro": 4330,
  "MAR@@": 4331,
  "safe": 4332,
  "shi": 4333,
  "se,": 4334,
  "performan@@": 4335,
  "friend": 4336,
  "ribe": 4337,
  "destroyed": 4338,
  "ority": 4339,
  "ji@@": 4340,
  "law": 4341,
  "(0@@": 4342,
  "Gran@@": 4343,
  "player": 4344,
  "sem@@": 4345,
  "EX@@": 4346,
  "Work": 4347,
  "link": 4348,
  "x,": 4349,
  "ingly": 4350,
  "Por@@": 4351,
  "Tow@@": 4352,
  "sell": 4353,
  "ida": 4354,
  "began": 4355,
  "Categ@@": 4356,
  "vict@@": 4357,
  "prim@@": 4358,
  "kar@@": 4359,
  "Switzer@@": 4360,
  "(C@@": 4361,
  "Manufactur@@": 4362,
  "Zh@@": 4363,
  "istic": 4364,
  "ari": 4365,
  "Blu@@": 4366,
  "Version": 4367,
  "strong@@": 4368,
  "appointed": 4369,
  "Pi@@": 4370,
  "https://@@": 4371,
  "Adam": 4372,
  "bear": 4373,
  "wall": 4374,
  "witness@@": 4375,
  "cess": 4376,
  "unic@@": 4377,
  "Church": 4378,
  "Da@@": 4379,
  "mak@@": 4380,
  "king@@": 4381,
  "don": 4382,
  "determin@@": 4383,
  "iling": 4384,
  "events": 4385,
  "7/@@": 4386,
  "1]": 4387,
  "Social": 4388,
  "Bit@@": 4389,
  "Sam@@": 4390,
  "relationship": 4391,
  "Bal@@": 4392,
  "je@@": 4393,
  "Hong": 4394,
  "ugg@@": 4395,
  "ange": 4396,
  "load": 4397,
  "answ@@": 4398,
  "card": 4399,
  "Bag@@": 4400,
  "Sk@@": 4401,
  "future": 4402,
  "force": 4403,
  "Gam@@": 4404,
  "Room": 4405,
  "longer": 4406,
  "brother": 4407,
  "hur@@": 4408,
  "ü@@": 4409,
  "mankind": 4410,
  "ral": 4411,
  "stop": 4412,
  "oud@@": 4413,
  "Airport": 4414,
  "OF@@": 4415,
  "shared": 4416,
  "steps": 4417,
  "ou": 4418,
  "A.@@": 4419,
  "Arch@@": 4420,
  "aid@@": 4421,
  "Power@@": 4422,
  "aving": 4423,
  "12/@@": 4424,
  "Publ@@": 4425,
  "Whe@@": 4426,
  "и@@": 4427,
  "relation@@": 4428,
  "ي@@": 4429,
  "feat@@": 4430,
  "dar@@": 4431,
  "6/@@": 4432,
  "member": 4433,
  "authority": 4434,
  "role": 4435,
  "listen": 4436,
  "Central": 4437,
  "Fr@@": 4438,
  "Wo@@": 4439,
  "andro@@": 4440,
  "holy": 4441,
  "om": 4442,
  "oo": 4443,
  "fu@@": 4444,
  "Double": 4445,
  "Equ@@": 4446,
  "rob@@": 4447,
  "SP@@": 4448,
  "tak@@": 4449,
  "aves": 4450,
  "MS": 4451,
  "mos@@": 4452,
  "decision": 4453,
  "presence": 4454,
  "wait": 4455,
  "ters": 4456,
  "blockchain": 4457,
  "ving": 4458,
  "Hir@@": 4459,
  "awa@@": 4460,
  "Point": 4461,
  "chosen": 4462,
  "names": 4463,
  "actually": 4464,
  "Are@@": 4465,
  "20:@@": 4466,
  "hoto": 4467,
  "source": 4468,
  "ن": 4469,
  "opened": 4470,
  "gal@@": 4471,
  "joy": 4472,
  "Sl@@": 4473,
  "iss": 4474,
  "accur@@": 4475,
  "ت": 4476,
  "loy@@": 4477,
  "SO@@": 4478,
  "platform": 4479,
  "games": 4480,
  "agre@@": 4481,
  "ke": 4482,
  "ances": 4483,
  "2004": 4484,
  "q": 4485,
  "returned": 4486,
  "mid@@": 4487,
  "oved": 4488,
  "insp@@": 4489,
  "deter@@": 4490,
  "Ah@@": 4491,
  "Over@@": 4492,
  "consequ@@": 4493,
  "hoto@@": 4494,
  "num@@": 4495,
  "model": 4496,
  "·": 4497,
  "Mer@@": 4498,
  "Robot": 4499,
  "maj@@": 4500,
  "rou@@": 4501,
  "accept@@": 4502,
  "Ji@@": 4503,
  "record": 4504,
  "ses": 4505,
  "Server": 4506,
  "def@@": 4507,
  "stim@@": 4508,
  "Lev@@": 4509,
  "animals": 4510,
  "mean": 4511,
  "TR@@": 4512,
  "immediately": 4513,
  "itary": 4514,
  "Royal": 4515,
  "dut@@": 4516,
  "books": 4517,
  "standing": 4518,
  "Mac@@": 4519,
  "kuma": 4520,
  "Ukrain@@": 4521,
  "Every@@": 4522,
  "Buy": 4523,
  "greatest": 4524,
  "Flo@@": 4525,
  "seven": 4526,
  "Fir@@": 4527,
  "carried": 4528,
  "Pass@@": 4529,
  "Cz@@": 4530,
  "ab": 4531,
  "satisf@@": 4532,
  "Dan@@": 4533,
  "tun@@": 4534,
  "Word": 4535,
  "Ham@@": 4536,
  "01": 4537,
  "bit": 4538,
  "firm": 4539,
  "ideas": 4540,
  "basic": 4541,
  "Mak@@": 4542,
  "tape": 4543,
  "teach@@": 4544,
  "key@@": 4545,
  "Transp@@": 4546,
  "energy": 4547,
  "u-@@": 4548,
  "fall": 4549,
  "2011": 4550,
  "Mr@@": 4551,
  "soon": 4552,
  "Hel@@": 4553,
  "BE@@": 4554,
  "rist@@": 4555,
  "50%": 4556,
  "atively": 4557,
  "sharing": 4558,
  "asonic": 4559,
  "prices": 4560,
  "heart@@": 4561,
  "A:": 4562,
  "Ig@@": 4563,
  "á@@": 4564,
  "IL": 4565,
  "Engine@@": 4566,
  "regarding": 4567,
  "atic": 4568,
  "Park@@": 4569,
  "OS@@": 4570,
  "ises": 4571,
  "rul@@": 4572,
  "sent@@": 4573,
  "ster": 4574,
  "Eas@@": 4575,
  "mine": 4576,
  "DC": 4577,
  "offered": 4578,
  "cel@@": 4579,
  "400": 4580,
  "walk": 4581,
  "spoken": 4582,
  "Cle@@": 4583,
  "ñ@@": 4584,
  "fix@@": 4585,
  "8/@@": 4586,
  "benefits": 4587,
  "ickness": 4588,
  "Direct@@": 4589,
  "GA@@": 4590,
  "Live": 4591,
  "ival": 4592,
  "Sof@@": 4593,
  "Kur@@": 4594,
  "JP@@": 4595,
  "FREE": 4596,
  "minut@@": 4597,
  "9.": 4598,
  "31@@": 4599,
  "..": 4600,
  "consider@@": 4601,
  "declar@@": 4602,
  "15,": 4603,
  "born": 4604,
  "worldwide": 4605,
  "inside": 4606,
  "Life": 4607,
  "(s)": 4608,
  "Click": 4609,
  "knew": 4610,
  "abase": 4611,
  "Gar@@": 4612,
  "Wondershare": 4613,
  "Beach": 4614,
  "lowing": 4615,
  "hid@@": 4616,
  "Real": 4617,
  "CE,": 4618,
  "47": 4619,
  "Aut@@": 4620,
  "(8@@": 4621,
  "servant": 4622,
  "C.": 4623,
  "offering": 4624,
  "1000": 4625,
  "ach": 4626,
  "2018.": 4627,
  "Tak@@": 4628,
  "14,": 4629,
  "Blog": 4630,
  "changed": 4631,
  "Land": 4632,
  "graph@@": 4633,
  "woman": 4634,
  "nation": 4635,
  "Baby": 4636,
  "review@@": 4637,
  "appear": 4638,
  "Blue": 4639,
  "j": 4640,
  "Car": 4641,
  "wants": 4642,
  "ed.@@": 4643,
  "Phar@@": 4644,
  "device": 4645,
  "tern": 4646,
  "Fri@@": 4647,
  "red@@": 4648,
  "E-@@": 4649,
  "Will": 4650,
  "nic@@": 4651,
  "1:": 4652,
  "CNC": 4653,
  "Israel": 4654,
  "told": 4655,
  "wise": 4656,
  "Road,": 4657,
  "Let@@": 4658,
  "render@@": 4659,
  "Mat@@": 4660,
  "﻿": 4661,
  "800": 4662,
  "℃": 4663,
  "di": 4664,
  "PA@@": 4665,
  "half": 4666,
  "F,": 4667,
  "Hard@@": 4668,
  "advant@@": 4669,
  "difficult": 4670,
  "yar@@": 4671,
  "fruit": 4672,
  "16,": 4673,
  "4,@@": 4674,
  "Research": 4675,
  "Ben@@": 4676,
  "A,": 4677,
  "eing": 4678,
  "aluminum": 4679,
  "21,": 4680,
  "Black@@": 4681,
  "sist@@": 4682,
  "fash@@": 4683,
  "idea": 4684,
  "physical": 4685,
  "hab@@": 4686,
  "ç@@": 4687,
  "road": 4688,
  "bud@@": 4689,
  "Hand@@": 4690,
  "Tape": 4691,
  "info@@": 4692,
  "Christians": 4693,
  "asking": 4694,
  "nia": 4695,
  "Gi@@": 4696,
  "reason@@": 4697,
  "Ru@@": 4698,
  "feet": 4699,
  "54@@": 4700,
  "umin@@": 4701,
  "Also": 4702,
  "review": 4703,
  "las": 4704,
  "96": 4705,
  "USA": 4706,
  "20-@@": 4707,
  "itchen": 4708,
  "Canada": 4709,
  "Indian": 4710,
  "agu@@": 4711,
  "ban": 4712,
  "affic": 4713,
  "igin": 4714,
  "step": 4715,
  "question": 4716,
  "Aud@@": 4717,
  "superi@@": 4718,
  "tan@@": 4719,
  "changes": 4720,
  "maintain": 4721,
  "cut": 4722,
  "No.@@": 4723,
  "Stra@@": 4724,
  "talk": 4725,
  "Bon@@": 4726,
  "princi@@": 4727,
  "appear@@": 4728,
  "ei": 4729,
  "CM@@": 4730,
  "Jav@@": 4731,
  "beginning": 4732,
  "comput@@": 4733,
  "ino": 4734,
  "ason": 4735,
  "Mill@@": 4736,
  "bless": 4737,
  "som@@": 4738,
  "tattoo": 4739,
  "lands": 4740,
  "95": 4741,
  "dedicated": 4742,
  "ko": 4743,
  "Sin@@": 4744,
  "13,": 4745,
  "experienced": 4746,
  "fine": 4747,
  "Make": 4748,
  "Noah": 4749,
  "carry": 4750,
  "{": 4751,
  "Tru@@": 4752,
  "Carbon": 4753,
  "gift": 4754,
  "pursu@@": 4755,
  "Pur@@": 4756,
  "ivity": 4757,
  "itate": 4758,
  "LY": 4759,
  "attention": 4760,
  "normal": 4761,
  "languages": 4762,
  "angel": 4763,
  "Fit@@": 4764,
  "event": 4765,
  "war": 4766,
  "que": 4767,
  "viol@@": 4768,
  "irs": 4769,
  "hotel": 4770,
  "Mad@@": 4771,
  "gol@@": 4772,
  "ml": 4773,
  "ild@@": 4774,
  "refl@@": 4775,
  "communication": 4776,
  "opportunity": 4777,
  "SS": 4778,
  "note": 4779,
  "Op@@": 4780,
  "Cop@@": 4781,
  "sets": 4782,
  "GA": 4783,
  "thousand": 4784,
  "thern": 4785,
  "dict@@": 4786,
  "server": 4787,
  "Ukraine": 4788,
  "San@@": 4789,
  "select": 4790,
  "Rad@@": 4791,
  "Jer@@": 4792,
  "itions": 4793,
  "difference": 4794,
  "deposit": 4795,
  "taining": 4796,
  "Lee": 4797,
  "phas@@": 4798,
  "region": 4799,
  "2/@@": 4800,
  "Sanya": 4801,
  "la": 4802,
  "Autom@@": 4803,
  "ilities": 4804,
  "round": 4805,
  "70": 4806,
  "68": 4807,
  "Training": 4808,
  "ff@@": 4809,
  "details": 4810,
  "treat": 4811,
  "sum@@": 4812,
  "France": 4813,
  "phys@@": 4814,
  "BA": 4815,
  "seeking": 4816,
  "sof@@": 4817,
  "double": 4818,
  "Yor@@": 4819,
  "front": 4820,
  "appropriate": 4821,
  "iews": 4822,
  "tools": 4823,
  "gy@@": 4824,
  "gin@@": 4825,
  "past": 4826,
  "Ur@@": 4827,
  "}@@": 4828,
  "46": 4829,
  "shir@@": 4830,
  "GE@@": 4831,
  "Resort": 4832,
  "Aust@@": 4833,
  "】@@": 4834,
  "74@@": 4835,
  "ah’s": 4836,
  "tab@@": 4837,
  "unlimited": 4838,
  "imag@@": 4839,
  "sing@@": 4840,
  "Tal@@": 4841,
  "fut@@": 4842,
  "morning": 4843,
  "adem@@": 4844,
  "doubt": 4845,
  "DS@@": 4846,
  "carbon": 4847,
  "cher@@": 4848,
  "Trad@@": 4849,
  "respond": 4850,
  "contains": 4851,
  "ouse@@": 4852,
  "Box": 4853,
  "augh@@": 4854,
  "ply": 4855,
  "older": 4856,
  "request": 4857,
  "OD@@": 4858,
  "59": 4859,
  "loss": 4860,
  "edly": 4861,
  "PDF": 4862,
  "brother@@": 4863,
  "Ƙ@@": 4864,
  "worth": 4865,
  "Feat@@": 4866,
  "ood": 4867,
  "64@@": 4868,
  "gold": 4869,
  "oral": 4870,
  "Dev@@": 4871,
  "Bab@@": 4872,
  "cutting": 4873,
  "Spr@@": 4874,
  "2]": 4875,
  "fit": 4876,
  "dece@@": 4877,
  "hot": 4878,
  "deliver": 4879,
  ",00": 4880,
  "TS": 4881,
  "ummer": 4882,
  "plug@@": 4883,
  "invol@@": 4884,
  "smart@@": 4885,
  "ulty": 4886,
  "accompl@@": 4887,
  "Institute": 4888,
  "web@@": 4889,
  "answer": 4890,
  "vill@@": 4891,
  "co": 4892,
  "ata": 4893,
  "supplier": 4894,
  "Fur@@": 4895,
  "±@@": 4896,
  "benef@@": 4897,
  "aching": 4898,
  "Wan@@": 4899,
  "sely": 4900,
  "During": 4901,
  "powerful": 4902,
  "Saint": 4903,
  "ok": 4904,
  "problems": 4905,
  "Fat@@": 4906,
  "pict@@": 4907,
  "Mex@@": 4908,
  "tube": 4909,
  "jet": 4910,
  "clean": 4911,
  "satis@@": 4912,
  "urg@@": 4913,
  "su": 4914,
  "~": 4915,
  "Should": 4916,
  "timate": 4917,
  "250": 4918,
  "BMW": 4919,
  "Old": 4920,
  "filled": 4921,
  "Tai@@": 4922,
  "ul": 4923,
  "Search": 4924,
  "Jun@@": 4925,
  "space": 4926,
  "Give": 4927,
  "command@@": 4928,
  "Tub@@": 4929,
  "softwar@@": 4930,
  "My@@": 4931,
  "h,": 4932,
  "Hon@@": 4933,
  "struction": 4934,
  "Bat@@": 4935,
  "though@@": 4936,
  "EA@@": 4937,
  "61": 4938,
  "Work@@": 4939,
  "show@@": 4940,
  "bit@@": 4941,
  "repe@@": 4942,
  "VE": 4943,
  "Vill@@": 4944,
  "ler": 4945,
  "click": 4946,
  "Lam@@": 4947,
  "King": 4948,
  "14.@@": 4949,
  "Tu@@": 4950,
  "62": 4951,
  "ager": 4952,
  "amo@@": 4953,
  "conclud@@": 4954,
  "mother": 4955,
  "eh@@": 4956,
  "ile@@": 4957,
  "involved": 4958,
  "38": 4959,
  "Dubai": 4960,
  "Was": 4961,
  "(13@@": 4962,
  "Istanbul": 4963,
  "USA@@": 4964,
  "offer@@": 4965,
  "uff@@": 4966,
  "Led": 4967,
  "(40@@": 4968,
  "below": 4969,
  "communic@@": 4970,
  "More@@": 4971,
  "Numb@@": 4972,
  "ria": 4973,
  "ygen": 4974,
  "Sour@@": 4975,
  "Blog@@": 4976,
  "I.": 4977,
  "NA@@": 4978,
  "Christian": 4979,
  "enna": 4980,
  "areer": 4981,
  "i'@@": 4982,
  "beaut@@": 4983,
  "gets": 4984,
  "67": 4985,
  "ums": 4986,
  "(B@@": 4987,
  "(25@@": 4988,
  "Hal@@": 4989,
  "inging": 4990,
  "Off@@": 4991,
  "Mult@@": 4992,
  "Scre@@": 4993,
  "°": 4994,
  "mo": 4995,
  "Under@@": 4996,
  "expected": 4997,
  "beyond": 4998,
  "yn@@": 4999,
  "John@@": 5000,
  "arth": 5001,
  "Sil@@": 5002,
  "acle": 5003,
  "resol@@": 5004,
  "alone": 5005,
  "aries": 5006,
  "needed": 5007,
  "A-@@": 5008,
  "99.@@": 5009,
  "core": 5010,
  "Tour@@": 5011,
  "I’@@": 5012,
  "op": 5013,
  "raz@@": 5014,
  "liter@@": 5015,
  "atures": 5016,
  "covenant": 5017,
  "Indu@@": 5018,
  "ests": 5019,
  "righteousness": 5020,
  "ED": 5021,
  "Ga@@": 5022,
  "Cam@@": 5023,
  "AM": 5024,
  "HE@@": 5025,
  "wisdom": 5026,
  "film": 5027,
  "categor@@": 5028,
  "nel": 5029,
  "IP": 5030,
  "desires": 5031,
  "capt@@": 5032,
  "taught": 5033,
  "Pal@@": 5034,
  "Administ@@": 5035,
  "Train": 5036,
  "sear@@": 5037,
  "oub@@": 5038,
  "Twitter": 5039,
  "Gal@@": 5040,
  "God’s": 5041,
  "Happy": 5042,
  "tub@@": 5043,
  "52": 5044,
  "Travel": 5045,
  "Mu@@": 5046,
  "gain@@": 5047,
  "Australia": 5048,
  "blog": 5049,
  "completely": 5050,
  "Turk@@": 5051,
  "Spanish": 5052,
  "TION": 5053,
  "meaning": 5054,
  "Her@@": 5055,
  "KA@@": 5056,
  "System": 5057,
  "Technolog@@": 5058,
  "shel@@": 5059,
  "polit@@": 5060,
  "View": 5061,
  "atives": 5062,
  "PM": 5063,
  "rown": 5064,
  "loves": 5065,
  "GH@@": 5066,
  "84@@": 5067,
  "ost": 5068,
  "therefore": 5069,
  "bed": 5070,
  "Apple": 5071,
  "spring": 5072,
  "Sci@@": 5073,
  "couple": 5074,
  "ada": 5075,
  "Nat@@": 5076,
  "ME": 5077,
  "yu@@": 5078,
  "mit@@": 5079,
  "Learn": 5080,
  "issue": 5081,
  "Grand": 5082,
  "doll@@": 5083,
  "izer": 5084,
  "legal": 5085,
  "aki": 5086,
  "abund@@": 5087,
  "cryptocurren@@": 5088,
  "arrang@@": 5089,
  "Exchange": 5090,
  "yle": 5091,
  "Ven@@": 5092,
  "ush@@": 5093,
  "igation": 5094,
  "DV@@": 5095,
  "sen@@": 5096,
  "¢@@": 5097,
  "Dut@@": 5098,
  "Ty@@": 5099,
  "Others": 5100,
  "allo@@": 5101,
  "Mic@@": 5102,
  "purpose": 5103,
  "ably": 5104,
  "wife": 5105,
  "pages": 5106,
  "James": 5107,
  "Sto@@": 5108,
  "Gir@@": 5109,
  "AD@@": 5110,
  "aya": 5111,
  "yed": 5112,
  "prophets": 5113,
  "loved": 5114,
  "spirit": 5115,
  "cu@@": 5116,
  "won@@": 5117,
  "ran": 5118,
  "succe@@": 5119,
  "Jews": 5120,
  "ext": 5121,
  "FE@@": 5122,
  "roll": 5123,
  "lack": 5124,
  "ni": 5125,
  "dif@@": 5126,
  "Ann@@": 5127,
  "Keep": 5128,
  "ye": 5129,
  "ex": 5130,
  "ea": 5131,
  "IR@@": 5132,
  "maximum": 5133,
  "TM@@": 5134,
  "ky@@": 5135,
  "cam": 5136,
  "MAN@@": 5137,
  "lie": 5138,
  "Hosting": 5139,
  "77": 5140,
  "rid": 5141,
  "(19@@": 5142,
  "78@@": 5143,
  "09": 5144,
  "rict": 5145,
  "ْ@@": 5146,
  "aming": 5147,
  "worked": 5148,
  "tic@@": 5149,
  "CD": 5150,
  "clud@@": 5151,
  "Security": 5152,
  "Green": 5153,
  "regular": 5154,
  "gin": 5155,
  "Another": 5156,
  "Music": 5157,
  "subject": 5158,
  "progress": 5159,
  "determined": 5160,
  "rend": 5161,
  "Home@@": 5162,
  "showing": 5163,
  "image": 5164,
  "again": 5165,
  "gambling": 5166,
  "aser": 5167,
  "plugin": 5168,
  "setting": 5169,
  "It@@": 5170,
  "simply": 5171,
  "Gold": 5172,
  "success": 5173,
  "HI@@": 5174,
  "unt": 5175,
  "comfor@@": 5176,
  "wanted": 5177,
  "activities": 5178,
  "applied": 5179,
  "aded": 5180,
  "Key": 5181,
  "stem@@": 5182,
  "DVD": 5183,
  "proper": 5184,
  "fee": 5185,
  "appo@@": 5186,
  "uss@@": 5187,
  "Mac": 5188,
  "mas": 5189,
  "ape": 5190,
  "Study": 5191,
  "OM@@": 5192,
  "Mul@@": 5193,
  "CT": 5194,
  "dig@@": 5195,
  "mel@@": 5196,
  "43@@": 5197,
  "gain": 5198,
  "aling": 5199,
  "s-@@": 5200,
  "points": 5201,
  "rect@@": 5202,
  "standards": 5203,
  "Education": 5204,
  "PE": 5205,
  "expect": 5206,
  "effort": 5207,
  "Before": 5208,
  "plate": 5209,
  "KE@@": 5210,
  "sn@@": 5211,
  "WE@@": 5212,
  "TU@@": 5213,
  "ck": 5214,
  "discipl@@": 5215,
  "agree": 5216,
  "Love": 5217,
  "Next": 5218,
  "Cod@@": 5219,
  "OS": 5220,
  "sale": 5221,
  "tot@@": 5222,
  "oll": 5223,
  "Windo@@": 5224,
  "Log@@": 5225,
  "َ@@": 5226,
  "Cart@@": 5227,
  "Art": 5228,
  "Hausa": 5229,
  "Max": 5230,
  "Chec@@": 5231,
  "Any@@": 5232,
  "Hotels": 5233,
  "referred": 5234,
  "helps": 5235,
  "abi": 5236,
  "Li@@": 5237,
  "ave": 5238,
  "Ay@@": 5239,
  "sometimes": 5240,
  "add": 5241,
  "arin": 5242,
  "Lar@@": 5243,
  "Wal@@": 5244,
  "(15@@": 5245,
  "negative": 5246,
  "Creator": 5247,
  "ub": 5248,
  "fun@@": 5249,
  "Phil@@": 5250,
  "vanized": 5251,
  "11-@@": 5252,
  "articles": 5253,
  "claim": 5254,
  "`@@": 5255,
  "forget": 5256,
  "Once": 5257,
  "af": 5258,
  "roduc@@": 5259,
  "PR@@": 5260,
  "mg": 5261,
  "Kan@@": 5262,
  "videos": 5263,
  "shop": 5264,
  "examples": 5265,
  "sister": 5266,
  "IE@@": 5267,
  "12-@@": 5268,
  "basis": 5269,
  "#": 5270,
  "ders": 5271,
  "aware": 5272,
  "mind": 5273,
  "--": 5274,
  "ode": 5275,
  "ico": 5276,
  "strength@@": 5277,
  "fellow": 5278,
  "dom": 5279,
  "suffer@@": 5280,
  "Gen@@": 5281,
  "serious": 5282,
  "57": 5283,
  "religious": 5284,
  "condition": 5285,
  "ji": 5286,
  "allow@@": 5287,
  "contin@@": 5288,
  "dog@@": 5289,
  "efforts": 5290,
  "iver": 5291,
  "Ak@@": 5292,
  "ret": 5293,
  "mur@@": 5294,
  "Philipp@@": 5295,
  "69": 5296,
  "sat@@": 5297,
  "ef": 5298,
  "Tam@@": 5299,
  "student": 5300,
  "however": 5301,
  "Restaur@@": 5302,
  "observe": 5303,
  "Chan@@": 5304,
  "Yes": 5305,
  "Pers@@": 5306,
  "ife": 5307,
  "ject": 5308,
  "Imag@@": 5309,
  "clearly": 5310,
  "speech": 5311,
  "false": 5312,
  "prepare": 5313,
  "discuss@@": 5314,
  "symb@@": 5315,
  "teaching": 5316,
  "connection": 5317,
  "Prem@@": 5318,
  "crow@@": 5319,
  "goal": 5320,
  "hat@@": 5321,
  "met": 5322,
  "forex": 5323,
  "NY@@": 5324,
  "cel": 5325,
  "pcs": 5326,
  "Plat@@": 5327,
  "lives": 5328,
  "spoke": 5329,
  "Conver@@": 5330,
  "Nov@@": 5331,
  "deep": 5332,
  "Mr.": 5333,
  "io@@": 5334,
  "TION@@": 5335,
  "ano@@": 5336,
  "attend": 5337,
  "wind": 5338,
  "lights": 5339,
  "Terms": 5340,
  "audio": 5341,
  "2:": 5342,
  "teach": 5343,
  "glory": 5344,
  "ireless": 5345,
  "·@@": 5346,
  "15.@@": 5347,
  "Tar@@": 5348,
  "regar@@": 5349,
  "fish": 5350,
  "Mor@@": 5351,
  "Ku@@": 5352,
  "(3)": 5353,
  "Fac@@": 5354,
  "76@@": 5355,
  "allowed": 5356,
  "bs": 5357,
  "CN@@": 5358,
  "Win@@": 5359,
  "D-@@": 5360,
  "batt@@": 5361,
  "Man": 5362,
  "devot@@": 5363,
  "FU@@": 5364,
  "Nether@@": 5365,
  "56@@": 5366,
  "wood": 5367,
  "described": 5368,
  "aud@@": 5369,
  "ush": 5370,
  "eless": 5371,
  "ss@@": 5372,
  "approval": 5373,
  "plans": 5374,
  "Yan@@": 5375,
  "draw": 5376,
  "yan": 5377,
  "reasonable": 5378,
  "Ukrainian": 5379,
  "inhab@@": 5380,
  "gan@@": 5381,
  "GPS": 5382,
  "obedient": 5383,
  "Code:": 5384,
  "Enter@@": 5385,
  "child": 5386,
  "ac": 5387,
  "sex": 5388,
  "Tho@@": 5389,
  "Brid@@": 5390,
  "demonstr@@": 5391,
  "world’s": 5392,
  "ula": 5393,
  "TS@@": 5394,
  "final": 5395,
  "23:@@": 5396,
  "grow": 5397,
  "gh@@": 5398,
  "91": 5399,
  "Conn@@": 5400,
  "Close": 5401,
  "gor@@": 5402,
  "Screen": 5403,
  "escap@@": 5404,
  "13.@@": 5405,
  "97": 5406,
  "adul@@": 5407,
  "bo": 5408,
  "Kh@@": 5409,
  "*,": 5410,
  "stated": 5411,
  "Services": 5412,
  "inder": 5413,
  "friends": 5414,
  "draulic": 5415,
  "an-@@": 5416,
  "Techn@@": 5417,
  "TUR@@": 5418,
  "600": 5419,
  "Dow@@": 5420,
  "disciples": 5421,
  "itar": 5422,
  "accounts": 5423,
  "prin@@": 5424,
  "Unlimited": 5425,
  ".org": 5426,
  "Guide": 5427,
  "0)": 5428,
  "Wa@@": 5429,
  "Thailand": 5430,
  "prove": 5431,
  "master": 5432,
  "ergy": 5433,
  "mal": 5434,
  "bearing": 5435,
  "Father": 5436,
  "voice": 5437,
  "Chat": 5438,
  "PS@@": 5439,
  "requires": 5440,
  "Top@@": 5441,
  "•@@": 5442,
  "emor@@": 5443,
  "eping": 5444,
  "Ali": 5445,
  "GO@@": 5446,
  "Cath@@": 5447,
  "ete": 5448,
  "tips": 5449,
  "spent": 5450,
  "ionally": 5451,
  "Fab@@": 5452,
  "advice": 5453,
  "TC": 5454,
  "tell@@": 5455,
  "Wom@@": 5456,
  "opportunities": 5457,
  "MA": 5458,
  "YA@@": 5459,
  "Т@@": 5460,
  "seeing": 5461,
  "Ram@@": 5462,
  "iP@@": 5463,
  "SQL": 5464,
  "situation": 5465,
  "views": 5466,
  "HD": 5467,
  "Smart": 5468,
  "OU@@": 5469,
  "Cas@@": 5470,
  "pot": 5471,
  "accepted": 5472,
  "Matthew": 5473,
  "FOR": 5474,
  "@": 5475,
  "Ox@@": 5476,
  "m)": 5477,
  "vation": 5478,
  "℃@@": 5479,
  "install": 5480,
  "igent": 5481,
  "Bar": 5482,
  "56": 5483,
  "magaz@@": 5484,
  "town": 5485,
  "udd@@": 5486,
  "Far@@": 5487,
  "enly": 5488,
  "awa": 5489,
  "begin": 5490,
  "oul@@": 5491,
  "umm@@": 5492,
  "Dar@@": 5493,
  "tempt@@": 5494,
  "happy": 5495,
  "calls": 5496,
  "ern@@": 5497,
  "-00@@": 5498,
  "iew@@": 5499,
  "uri": 5500,
  "Micro@@": 5501,
  "Ide@@": 5502,
  "og": 5503,
  "apply": 5504,
  "examin@@": 5505,
  "YO@@": 5506,
  "ov": 5507,
  "Cut@@": 5508,
  "e’s": 5509,
  "Mark": 5510,
  "Using": 5511,
  "Stone": 5512,
  ".co@@": 5513,
  "া@@": 5514,
  "Sav@@": 5515,
  "vo@@": 5516,
  "speaking": 5517,
  "eks": 5518,
  "millions": 5519,
  "1.0@@": 5520,
  "Mil@@": 5521,
  "iki": 5522,
  "comfort": 5523,
  "р@@": 5524,
  "challeng@@": 5525,
  "ken": 5526,
  "84": 5527,
  "aik@@": 5528,
  "ۇ@@": 5529,
  "Price": 5530,
  "[": 5531,
  "Name": 5532,
  "ser": 5533,
  "ި@@": 5534,
  "affect": 5535,
  "Code": 5536,
  "120": 5537,
  "Cook@@": 5538,
  "51": 5539,
  "lesson": 5540,
  "Fu@@": 5541,
  "ved": 5542,
  "won": 5543,
  "express": 5544,
  "Card": 5545,
  "ق@@": 5546,
  "®": 5547,
  "comments": 5548,
  "ouse": 5549,
  "Pro": 5550,
  "را@@": 5551,
  "Dh@@": 5552,
  "**": 5553,
  "GI@@": 5554,
  "hannel": 5555,
  "MEN@@": 5556,
  "ft": 5557,
  "ried": 5558,
  "advantage": 5559,
  "Tab@@": 5560,
  "Dom@@": 5561,
  "02": 5562,
  "ek": 5563,
  "Dre@@": 5564,
  "Under": 5565,
  "lin": 5566,
  "ja": 5567,
  "UM@@": 5568,
  "Project": 5569,
  "prayers": 5570,
  "ica": 5571,
  "wrote": 5572,
  "rejoice": 5573,
  "TT@@": 5574,
  "Food": 5575,
  "one’s": 5576,
  "minist@@": 5577,
  "Through": 5578,
  "ك@@": 5579,
  "Family": 5580,
  "respect": 5581,
  "→": 5582,
  "conclus@@": 5583,
  "itute": 5584,
  "au": 5585,
  "ifies": 5586,
  "gust@@": 5587,
  "Conv@@": 5588,
  "Yu@@": 5589,
  "ahead": 5590,
  "Golden": 5591,
  "ires": 5592,
  "Street": 5593,
  "casin@@": 5594,
  "Garden": 5595,
  "impress@@": 5596,
  "kir@@": 5597,
  "mir@@": 5598,
  "evening": 5599,
  "QU@@": 5600,
  "strive": 5601,
  "outs@@": 5602,
  "Amster@@": 5603,
  "Ka@@": 5604,
  "Cat@@": 5605,
  "Each": 5606,
  "birth": 5607,
  "dil@@": 5608,
  "perf@@": 5609,
  "ID": 5610,
  "happened": 5611,
  "recorded": 5612,
  "Light@@": 5613,
  "territ@@": 5614,
  "53": 5615,
  "mai": 5616,
  "tered": 5617,
  "Deut@@": 5618,
  "DU@@": 5619,
  "itself": 5620,
  "c.": 5621,
  "M.": 5622,
  "ona": 5623,
  "ki": 5624,
  "Ly@@": 5625,
  "Hus@@": 5626,
  "Abu": 5627,
  "Turkey": 5628,
  "serving": 5629,
  "72": 5630,
  "Academ@@": 5631,
  "balance": 5632,
  "54": 5633,
  "tried": 5634,
  "ustom": 5635,
  "honor": 5636,
  "Body": 5637,
  "Ts@@": 5638,
  "S.@@": 5639,
  "hop@@": 5640,
  "I’m": 5641,
  "opening": 5642,
  "VA@@": 5643,
  "eld": 5644,
  "Scanner": 5645,
  "gg@@": 5646,
  "Foot@@": 5647,
  "ry@@": 5648,
  "ni@@": 5649,
  "hotels": 5650,
  "Kingdom": 5651,
  "She@@": 5652,
  "La@@": 5653,
  "197@@": 5654,
  "mb@@": 5655,
  "responsib@@": 5656,
  "Ran@@": 5657,
  "Type": 5658,
  "Tan@@": 5659,
  "church": 5660,
  "Test": 5661,
  "oppos@@": 5662,
  "shipp@@": 5663,
  "ministry": 5664,
  "nav@@": 5665,
  "93": 5666,
  "ox": 5667,
  "ius": 5668,
  "sanct@@": 5669,
  "﻿@@": 5670,
  "ُ@@": 5671,
  "Christian@@": 5672,
  "130@@": 5673,
  "Wat@@": 5674,
  "Tube": 5675,
  "Foundation": 5676,
  "Mart@@": 5677,
  "غ@@": 5678,
  "understanding": 5679,
  "User": 5680,
  "Er@@": 5681,
  "ING@@": 5682,
  "LU@@": 5683,
  "learned": 5684,
  "trying": 5685,
  "mem@@": 5686,
  "onom@@": 5687,
  "Paris": 5688,
  "Square": 5689,
  "station": 5690,
  "Electric": 5691,
  "stry": 5692,
  "dish@@": 5693,
  "encour@@": 5694,
  "consid@@": 5695,
  "ing-@@": 5696,
  "ables": 5697,
  "Remember": 5698,
  "Easy": 5699,
  "discuss": 5700,
  "pher@@": 5701,
  "aron": 5702,
  "24:@@": 5703,
  "thinking": 5704,
  "indicator": 5705,
  "ressed": 5706,
  "yi": 5707,
  "influence": 5708,
  "families": 5709,
  "ita": 5710,
  "inspired": 5711,
  "dam": 5712,
  "uth": 5713,
  "ili": 5714,
  "atest": 5715,
  "Game": 5716,
  "a’s": 5717,
  "carr@@": 5718,
  "KA": 5719,
  "spirit@@": 5720,
  "Yet": 5721,
  "lies": 5722,
  "vision": 5723,
  "site,": 5724,
  "Dr.": 5725,
  "Al": 5726,
  "oy@@": 5727,
  "dang@@": 5728,
  "Kaz@@": 5729,
  "ideal": 5730,
  "≥@@": 5731,
  "81": 5732,
  "abin@@": 5733,
  "Plus": 5734,
  "yel@@": 5735,
  "Mir@@": 5736,
  "ashi": 5737,
  "FR@@": 5738,
  "w.@@": 5739,
  "matters": 5740,
  "astic": 5741,
  "emed": 5742,
  "teachers": 5743,
  "Pop@@": 5744,
  "betting": 5745,
  "rejo@@": 5746,
  "nations": 5747,
  "DE": 5748,
  "ilt@@": 5749,
  "credit": 5750,
  "aft": 5751,
  "pray": 5752,
  "offspring": 5753,
  "hun@@": 5754,
  "PS": 5755,
  "ج@@": 5756,
  "73": 5757,
  "nlo@@": 5758,
  "iTunes": 5759,
  "å@@": 5760,
  "Pet": 5761,
  "ionary": 5762,
  "ik": 5763,
  "ark": 5764,
  "Such": 5765,
  "width": 5766,
  "Mov@@": 5767,
  "keeping": 5768,
  "Ju@@": 5769,
  "ras@@": 5770,
  "qualities": 5771,
  "kept": 5772,
  "Station": 5773,
  "tree": 5774,
  "Samsung": 5775,
  "ira": 5776,
  "iv": 5777,
  "genuine": 5778,
  "Men@@": 5779,
  "BI@@": 5780,
  "Word@@": 5781,
  "Kat@@": 5782,
  "Big": 5783,
  "gram": 5784,
  "suc@@": 5785,
  "reasons": 5786,
  "Super": 5787,
  "Save": 5788,
  "van@@": 5789,
  "enables": 5790,
  "ison": 5791,
  "wives": 5792,
  "Amaz@@": 5793,
  "Ray": 5794,
  "Sample": 5795,
  "eur@@": 5796,
  "ل": 5797,
  "Lear@@": 5798,
  "Ash@@": 5799,
  "Detector": 5800,
  "ص@@": 5801,
  "express@@": 5802,
  "Less@@": 5803,
  "True": 5804,
  "xx@@": 5805,
  "visible": 5806,
  "uka": 5807,
  "iko": 5808,
  "Bonus": 5809,
  "wonder@@": 5810,
  "GE": 5811,
  "branch": 5812,
  "Professional": 5813,
  "rian": 5814,
  "Official": 5815,
  "Casino": 5816,
  "YOU": 5817,
  "ena": 5818,
  "07": 5819,
  "pose": 5820,
  "yi@@": 5821,
  "Press@@": 5822,
  ">>": 5823,
  "bag": 5824,
  "js,": 5825,
  "MB": 5826,
  "Mini": 5827,
  "92": 5828,
  "Metatrader": 5829,
  "ش@@": 5830,
  "š@@": 5831,
  "elderly": 5832,
  "Cy@@": 5833,
  "PP": 5834,
  "Rub@@": 5835,
  "occas@@": 5836,
  "TER@@": 5837,
  "boy": 5838,
  "jack@@": 5839,
  "myself": 5840,
  "felt": 5841,
  "deal@@": 5842,
  "omi": 5843,
  "USB": 5844,
  "race": 5845,
  "Egypt@@": 5846,
  "onto": 5847,
  "anger": 5848,
  "organization": 5849,
  "uk": 5850,
  "loss@@": 5851,
  "inch": 5852,
  "Jos@@": 5853,
  "KE": 5854,
  "ika": 5855,
  "Joseph": 5856,
  "Mah@@": 5857,
  "CK": 5858,
  "Singapore": 5859,
  "wan": 5860,
  "ourselves": 5861,
  "rav@@": 5862,
  "Han@@": 5863,
  "poor": 5864,
  "Andre@@": 5865,
  "interested": 5866,
  "ئ@@": 5867,
  "ê@@": 5868,
  "regard": 5869,
  "mirac@@": 5870,
  "BB@@": 5871,
  "Press": 5872,
  "Sex@@": 5873,
  "iced": 5874,
  "hu": 5875,
  "sess@@": 5876,
  "overse@@": 5877,
  "79": 5878,
  "Ə@@": 5879,
  "Solomon": 5880,
  "Club": 5881,
  "Sar@@": 5882,
  "reveal": 5883,
  "í@@": 5884,
  "Series": 5885,
  "decided": 5886,
  "vital": 5887,
  "accurate": 5888,
  "aka": 5889,
  "bus@@": 5890,
  "Will@@": 5891,
  "omo": 5892,
  "Would": 5893,
  "UA@@": 5894,
  "Gab@@": 5895,
  "War@@": 5896,
  "Den@@": 5897,
  "Don": 5898,
  "Na@@": 5899,
  "VE@@": 5900,
  "picture": 5901,
  "alive": 5902,
  "kan@@": 5903,
  "sak@@": 5904,
  "uit": 5905,
  "brothers": 5906,
  "Shin@@": 5907,
  "Lad@@": 5908,
  "fulfilled": 5909,
  "tar": 5910,
  "aba": 5911,
  "Generator": 5912,
  "ر": 5913,
  "Host": 5914,
  "Acts": 5915,
  "Bay": 5916,
  "Greek": 5917,
  "truly": 5918,
  "Link@@": 5919,
  "MO": 5920,
  "Fort@@": 5921,
  "中@@": 5922,
  "日@@": 5923,
  "Lights": 5924,
  "earlier": 5925,
  "humble": 5926,
  "exercise": 5927,
  "BR@@": 5928,
  "ُ": 5929,
  "mark": 5930,
  "ض@@": 5931,
  "2\"": 5932,
  "shin@@": 5933,
  "responsibility": 5934,
  "AF@@": 5935,
  "Shipp@@": 5936,
  "™": 5937,
  "invited": 5938,
  "alam@@": 5939,
  "Door": 5940,
  "ende@@": 5941,
  "expressed": 5942,
  "Son@@": 5943,
  "AT": 5944,
  "importance": 5945,
  "tick@@": 5946,
  "HD@@": 5947,
  "Sea": 5948,
  "Chr@@": 5949,
  "husb@@": 5950,
  "ST": 5951,
  "doc@@": 5952,
  "Yoga": 5953,
  "˚@@": 5954,
  "bus": 5955,
  "PL@@": 5956,
  "DO@@": 5957,
  "Tit@@": 5958,
  "divine": 5959,
  "despite": 5960,
  "19.@@": 5961,
  "Set@@": 5962,
  "windows": 5963,
  "1x@@": 5964,
  "َ": 5965,
  "Anti-@@": 5966,
  "rive": 5967,
  "Hat": 5968,
  "blessings": 5969,
  "stood": 5970,
  "iPh@@": 5971,
  "aside": 5972,
  "Luc@@": 5973,
  "followers": 5974,
  "е@@": 5975,
  "laws": 5976,
  "Sad@@": 5977,
  "behalf": 5978,
  "����@@": 5979,
  "Moscow": 5980,
  "Sen@@": 5981,
  "seems": 5982,
  "photos": 5983,
  "One@@": 5984,
  "becoming": 5985,
  "«": 5986,
  "Spain": 5987,
  "otrop@@": 5988,
  "conduct": 5989,
  "INE": 5990,
  "itnesses": 5991,
  "���@@": 5992,
  "destruction": 5993,
  "Ca@@": 5994,
  "Paul": 5995,
  "ş@@": 5996,
  "Cloud": 5997,
  "ai@@": 5998,
  "GO": 5999,
  "Sale": 6000,
  "Egypt": 6001,
  "CA": 6002,
  "iPad": 6003,
  "AC": 6004,
  "Jewish": 6005,
  "″@@": 6006,
  "06": 6007,
  "ugh@@": 6008,
  "Fi@@": 6009,
  "anxi@@": 6010,
  "Design": 6011,
  "Rome": 6012,
  "illa": 6013,
  "surround@@": 6014,
  "neigh@@": 6015,
  "happen": 6016,
  "agon": 6017,
  "Head": 6018,
  "explains": 6019,
  "cin@@": 6020,
  "sand@@": 6021,
  "wicked": 6022,
  "association": 6023,
  "ilt": 6024,
  "kr@@": 6025,
  "Hann@@": 6026,
  "Amazon": 6027,
  "judgment": 6028,
  "confidence": 6029,
  "Ya@@": 6030,
  "Audio": 6031,
  "λ@@": 6032,
  "Gol@@": 6033,
  "04": 6034,
  "ither": 6035,
  "heavenly": 6036,
  "enemies": 6037,
  "dit": 6038,
  "pite": 6039,
  "sovereignty": 6040,
  "Bol@@": 6041,
  "EN": 6042,
  "−@@": 6043,
  "tch": 6044,
  "yo": 6045,
  "dollar": 6046,
  "ube": 6047,
  "Sak@@": 6048,
  "ă@@": 6049,
  "iness": 6050,
  "ford": 6051,
  "Pos@@": 6052,
  "\\": 6053,
  "treas@@": 6054,
  "Ö@@": 6055,
  "ı": 6056,
  "ushi": 6057,
  "practical": 6058,
  "Osaka": 6059,
  "rich@@": 6060,
  "Sch@@": 6061,
  "Kir@@": 6062,
  "у@@": 6063,
  "enced": 6064,
  "Č@@": 6065,
  "letter": 6066,
  "moved": 6067,
  "Ass@@": 6068,
  "seem": 6069,
  "Ø@@": 6070,
  "Miss@@": 6071,
  "ذ@@": 6072,
  "Ky@@": 6073,
  "style": 6074,
  "entions": 6075,
  "panel": 6076,
  "ه": 6077,
  "Galaxy": 6078,
  "�": 6079,
  "Ken@@": 6080,
  "Therefore": 6081,
  "recognize": 6082,
  "Bank": 6083,
  "Nak@@": 6084,
  "Peter": 6085,
  "Nav@@": 6086,
  "married": 6087,
  "ó@@": 6088,
  "SA": 6089,
  "tainment": 6090,
  "challenge": 6091,
  "本@@": 6092,
  "wonderful": 6093,
  "08": 6094,
  "occasion": 6095,
  "Origin@@": 6096,
  "Isaiah": 6097,
  "iah": 6098,
  "arrived": 6099,
  "83": 6100,
  "Regar@@": 6101,
  "wine": 6102,
  "(1,@@": 6103,
  "ker": 6104,
  "fulness": 6105,
  "ط@@": 6106,
  "ouble": 6107,
  "tickets": 6108,
  "WOR@@": 6109,
  "gun@@": 6110,
  "direction": 6111,
  "walking": 6112,
  "خ@@": 6113,
  "Watch": 6114,
  "국@@": 6115,
  "object@@": 6116,
  "한@@": 6117,
  "button": 6118,
  "XX@@": 6119,
  "5000@@": 6120,
  "Wood@@": 6121,
  "strengthen": 6122,
  "Bak@@": 6123,
  "iously": 6124,
  "≤@@": 6125,
  "Long": 6126,
  "Bluetooth": 6127,
  "hotos": 6128,
  "３@@": 6129,
  "regularly": 6130,
  "willing": 6131,
  "Answ@@": 6132,
  "Nic@@": 6133,
  "sake": 6134,
  "TE": 6135,
  "Mur@@": 6136,
  "71": 6137,
  "Blockchain": 6138,
  "multimedia": 6139,
  "MI@@": 6140,
  "）@@": 6141,
  "else": 6142,
  "Though": 6143,
  "Aw@@": 6144,
  "Add": 6145,
  "London": 6146,
  "(201@@": 6147,
  "Standard": 6148,
  "rule": 6149,
  "Had@@": 6150,
  "akes": 6151,
  "←": 6152,
  "feeling": 6153,
  "shine": 6154,
  "harv@@": 6155,
  "Dem@@": 6156,
  "cho": 6157,
  "band@@": 6158,
  "(4)": 6159,
  "é": 6160,
  "Hosting@@": 6161,
  "ไ@@": 6162,
  "ท@@": 6163,
  "inking": 6164,
  "KO@@": 6165,
  "faithful": 6166,
  "ote": 6167,
  "Island": 6168,
  "GU@@": 6169,
  "Custom": 6170,
  "ima": 6171,
  "ย@@": 6172,
  "چ@@": 6173,
  "expression": 6174,
  "lived": 6175,
  "bet": 6176,
  "ا": 6177,
  "MT@@": 6178,
  "Prin@@": 6179,
  "Profess@@": 6180,
  "irc@@": 6181,
  "Shim@@": 6182,
  "ado": 6183,
  "Psalm": 6184,
  "va": 6185,
  "leaders": 6186,
  "YouTube": 6187,
  "Jacob": 6188,
  "reflect": 6189,
  "mist@@": 6190,
  "AD": 6191,
  "url@@": 6192,
  "sacred": 6193,
  "Perhaps": 6194,
  "publish@@": 6195,
  "й@@": 6196,
  "Cur@@": 6197,
  "helped": 6198,
  "Р@@": 6199,
  "Solom@@": 6200,
  "traveling": 6201,
  "Note": 6202,
  "Fiber": 6203,
  "л@@": 6204,
  "03": 6205,
  "ە@@": 6206,
  "ى@@": 6207,
  "்@@": 6208,
  "г@@": 6209,
  "Б@@": 6210,
  "burg": 6211,
  "ч@@": 6212,
  "timedia": 6213,
  "т@@": 6214,
  "ӣ@@": 6215,
  "ҷ@@": 6216,
  "о@@": 6217,
  "ъ@@": 6218,
  "Law": 6219,
  "(6)": 6220,
  "ދ@@": 6221,
  "Ў@@": 6222,
  "з@@": 6223,
  "Corinthians": 6224,
  "blessing": 6225,
  "describ@@": 6226,
  "situations": 6227,
  "deep@@": 6228,
  "precious": 6229,
  "aggage": 6230,
  "Rot@@": 6231,
  "encourage": 6232,
  "tas@@": 6233,
  "continued": 6234,
  "ecture": 6235,
  "Site@@": 6236,
  "suffering": 6237,
  "ROM": 6238,
  "ހ@@": 6239,
  "ެ@@": 6240,
  "ވ@@": 6241,
  "eum": 6242,
  "San": 6243,
  "ழ@@": 6244,
  "Consider": 6245,
  "VPN": 6246,
  "Ō@@": 6247,
  "б@@": 6248,
  "realize": 6249,
  "Solar": 6250,
  "ி@@": 6251,
  "wick@@": 6252,
  "Il@@": 6253,
  "ori": 6254,
  "0/@@": 6255,
  "Tok@@": 6256,
  "daughter": 6257,
  "sacrific@@": 6258,
  "ora": 6259,
  "Never@@": 6260,
  "Acc@@": 6261,
  "gover@@": 6262,
  "SHI@@": 6263,
  "X-ray": 6264,
  "raph@@": 6265,
  "Nag@@": 6266,
  "Young": 6267,
  "ம@@": 6268,
  "Tips": 6269,
  "explained": 6270,
  "μ@@": 6271,
  "fel@@": 6272,
  "ancient": 6273,
  "ز@@": 6274,
  "×": 6275,
  "ë@@": 6276,
  "ss": 6277,
  "Hom@@": 6278,
  "assigned": 6279,
  "­@@": 6280,
  "4,000": 6281,
  "helping": 6282,
  "prayed": 6283,
  "ille": 6284,
  "wonder": 6285,
  "Hebrew": 6286,
  "த@@": 6287,
  "ল@@": 6288,
  "Part": 6289,
  "ং@@": 6290,
  "Tattoos": 6291,
  "ব@@": 6292,
  "ം@@": 6293,
  "anta": 6294,
  "ള@@": 6295,
  "eh": 6296,
  "daugh@@": 6297,
  "ാ@@": 6298,
  "യ@@": 6299,
  "ല@@": 6300,
  "Aluminum": 6301,
  "LD@@": 6302,
  "guard": 6303,
  "asa": 6304,
  "Radio": 6305,
  "ela": 6306,
  "explain": 6307,
  "challenges": 6308,
  "salvation": 6309,
  "vs": 6310,
  "nature": 6311,
  "ة@@": 6312,
  "文@@": 6313,
  "語@@": 6314,
  "어@@": 6315,
  "മ@@": 6316,
  "ousness": 6317,
  "squ@@": 6318,
  "Airline": 6319,
  "slave": 6320,
  "arrangement": 6321,
  "decisions": 6322,
  "公@@": 6323,
  "Div@@": 6324,
  "Sand@@": 6325,
  "Sn@@": 6326,
  "obedience": 6327,
  "een": 6328,
  "notes": 6329,
  "Sake": 6330,
  "µ@@": 6331,
  "examine": 6332,
  "GN@@": 6333,
  "A)": 6334,
  "husband": 6335,
  "freedom": 6336,
  "£": 6337,
  "Class@@": 6338,
  "spiritual": 6339,
  "everlasting": 6340,
  "Player": 6341,
  "・@@": 6342,
  "Tel": 6343,
  "anced": 6344,
  "ami": 6345,
  "studying": 6346,
  "Water@@": 6347,
  "tells": 6348,
  "ب": 6349,
  "Translation": 6350,
  "Shi@@": 6351,
  "®@@": 6352,
  "justice": 6353,
  "Scann@@": 6354,
  "VPS": 6355,
  "WHSR": 6356,
  "Lighting": 6357,
  "Hyperbaric": 6358,
  "War": 6359,
  "itude": 6360,
  "¡@@": 6361,
  "د": 6362,
  "discer@@": 6363,
  "xx": 6364,
  "Lov@@": 6365,
  "BE": 6366,
  "●": 6367,
  "OB@@": 6368,
  "Catal@@": 6369,
  "²": 6370,
  "sk": 6371,
  "kan": 6372,
  "Swe@@": 6373,
  "Description@@": 6374,
  "efs": 6375,
  "closer": 6376,
  "Eth@@": 6377,
  "itating": 6378,
  "encouraged": 6379,
  "faced": 6380,
  "ewise": 6381,
  "IK@@": 6382,
  "Railway": 6383,
  "NG@@": 6384,
  "Society": 6385,
  "aring": 6386,
  "Bib@@": 6387,
  "moral": 6388,
  "Wall": 6389,
  "ِ@@": 6390,
  "le’s": 6391,
  "Description": 6392,
  "Alexand@@": 6393,
  "Ps": 6394,
  "Yam@@": 6395,
  "Nik@@": 6396,
  "menu": 6397,
  "χ@@": 6398,
  "Nigeria": 6399,
  "Messiah": 6400,
  "Dam@@": 6401,
  "warning": 6402,
  "exerc@@": 6403,
  "฿": 6404,
  "Aik@@": 6405,
  "(5)": 6406,
  "prosp@@": 6407,
  "��������@@": 6408,
  "Bec@@": 6409,
  "mon": 6410,
  "Jord@@": 6411,
  "ella": 6412,
  "…]": 6413,
  "Indic@@": 6414,
  "Zechar@@": 6415,
  "】": 6416,
  "Hebrews": 6417,
  "priests": 6418,
  "Penn@@": 6419,
  "Alex@@": 6420,
  "ʼ@@": 6421,
  "violence": 6422,
  "preach": 6423,
  "Hos@@": 6424,
  "ي": 6425,
  "bread": 6426,
  "Romans": 6427,
  "affection": 6428,
  "～@@": 6429,
  "aic": 6430,
  "２@@": 6431,
  "(20)": 6432,
  "㎡": 6433,
  "promises": 6434,
  "ī": 6435,
  "ś@@": 6436,
  "ṇ@@": 6437,
  "ū@@": 6438,
  "↩": 6439,
  "ṃ": 6440,
  "tha": 6441,
  "pter": 6442,
  "Questions": 6443,
  "Fuku@@": 6444,
  "Nin@@": 6445,
  "إ@@": 6446,
  "Touch": 6447,
  "principles": 6448,
  "Hall": 6449,
  "أ@@": 6450,
  "Kon@@": 6451,
  "resurrection": 6452,
  "ala": 6453,
  "ito": 6454,
  "è@@": 6455,
  "<": 6456,
  "ranch": 6457,
  "Ü@@": 6458,
  "Kal@@": 6459,
  "flesh": 6460,
  "isions": 6461,
  "Jon@@": 6462,
  "feelings": 6463,
  "meetings": 6464,
  "Michael": 6465,
  "anda": 6466,
  "Coin@@": 6467,
  "130": 6468,
  "overe@@": 6469,
  "itage": 6470,
  "marriage": 6471,
  "Kor@@": 6472,
  "Ephesians": 6473,
  "List": 6474,
  "Could": 6475,
  "μ": 6476,
  "involves": 6477,
  "sort": 6478,
  "experiences": 6479,
  "concern": 6480,
  "Golf": 6481,
  "Inn": 6482,
  "Step": 6483,
  "answers": 6484,
  "α@@": 6485,
  "1\"": 6486,
  "Games": 6487,
  "sacrifice": 6488,
  "ila": 6489,
  "¥@@": 6490,
  "Å@@": 6491,
  "oned": 6492,
  "emot@@": 6493,
  "��@@": 6494,
  "️": 6495,
  "Later": 6496,
  "suffer": 6497,
  "ater": 6498,
  "Sheet": 6499,
  "Gile@@": 6500,
  "fron@@": 6501,
  "DR@@": 6502,
  "Naz@@": 6503,
  "Panel": 6504,
  "plain": 6505,
  "С@@": 6506,
  "מ@@": 6507,
  "Kam@@": 6508,
  "baptized": 6509,
  "Benz": 6510,
  "nag@@": 6511,
  "Roman": 6512,
  "��": 6513,
  "gifts": 6514,
  "imitate": 6515,
  "ʊ@@": 6516,
  "Rid@@": 6517,
  "humility": 6518,
  "KI": 6519,
  "tend@@": 6520,
  "personally": 6521,
  "Municip@@": 6522,
  "earthly": 6523,
  "Gaelic": 6524,
  "ε@@": 6525,
  "㎡@@": 6526,
  "uries": 6527,
  "ž@@": 6528,
  "ẽ@@": 6529,
  "Kyo@@": 6530,
  "Features": 6531,
  "goals": 6532,
  "س": 6533,
  "Film": 6534,
  "century": 6535,
  "shepher@@": 6536,
  "Scriptures": 6537,
  "paradise": 6538,
  "§": 6539,
  "MU@@": 6540,
  "گ@@": 6541,
  "interests": 6542,
  "demonstrate": 6543,
  "Ş@@": 6544,
  "ransom": 6545,
  "girl": 6546,
  "▲": 6547,
  "Ñ@@": 6548,
  "THE@@": 6549,
  "Nar@@": 6550,
  "uki": 6551,
  "Revelation": 6552,
  "imagine": 6553,
  "ι@@": 6554,
  "Jeremiah": 6555,
  "★@@": 6556,
  "ν@@": 6557,
  "：": 6558,
  "ק@@": 6559,
  "anointed": 6560,
  "an’s": 6561,
  "ظ@@": 6562,
  "": 6563,
  "motiv@@": 6564,
  "ح": 6565,
  "MCD-@@": 6566,
  "ustr@@": 6567,
  "convinc@@": 6568,
  "⇒": 6569,
  "Genesis": 6570,
  "Matt": 6571,
  "༒@@": 6572,
  "ō@@": 6573,
  "Next:": 6574,
  "confident": 6575,
  "ī@@": 6576,
  "🙂": 6577,
  "courage": 6578,
  "Flood": 6579,
  "oka": 6580,
  "里": 6581,
  "³@@": 6582,
  "℉@@": 6583,
  "»@@": 6584,
  "Glass": 6585,
  "e#@@": 6586,
  "«@@": 6587,
  "ido": 6588,
  "Timothy": 6589,
  "prophecy": 6590,
  "Proverbs": 6591,
  "^@@": 6592,
  "、": 6593,
  "sau": 6594,
  "thoughts": 6595,
  "η@@": 6596,
  "publications": 6597,
  "ǝ@@": 6598,
  "durance": 6599,
  "́@@": 6600,
  "Still": 6601,
  "Instead": 6602,
  "ĩ@@": 6603,
  "ɩ@@": 6604,
  "appreci@@": 6605,
  "α": 6606,
  "fulfillment": 6607,
  "prophec@@": 6608,
  "Laser": 6609,
  "Ç@@": 6610,
  "apostle": 6611,
  "Men": 6612,
  "ć@@": 6613,
  "Gurga@@": 6614,
  "privileg@@": 6615,
  "Φ@@": 6616,
  "î@@": 6617,
  "´@@": 6618,
  "ã": 6619,
  "Witness": 6620,
  "Á@@": 6621,
  "č@@": 6622,
  "seed": 6623,
  "→@@": 6624,
  "119": 6625,
  "ph": 6626,
  "resurrected": 6627,
  "rebell@@": 6628,
  "sured": 6629,
  "ª": 6630,
  "4\"": 6631,
  "sheep": 6632,
  "attitude": 6633,
  "St": 6634,
  "instance": 6635,
  "carefully": 6636,
  "erly": 6637,
  "circumstances": 6638,
  "\">@@": 6639,
  "contrast": 6640,
  "γ@@": 6641,
  "í": 6642,
  "acceptable": 6643,
  "‑@@": 6644,
  "Laun@@": 6645,
  "ة": 6646,
  "chapter": 6647,
  "ō": 6648,
  "ö": 6649,
  "mate": 6650,
  "uly": 6651,
  "syl@@": 6652,
  "😉": 6653,
  "loving": 6654,
  "모": 6655,
  "，": 6656,
  "ش": 6657,
  "آ@@": 6658,
  "خ": 6659,
  "Yok@@": 6660,
  "iano": 6661,
  "β@@": 6662,
  "illustration": 6663,
  "Palace": 6664,
  "mastur@@": 6665,
  "Â@@": 6666,
  "≥": 6667,
  "fare": 6668,
  "JE@@": 6669,
  "武@@": 6670,
  "achi": 6671,
  "teachings": 6672,
  "pione@@": 6673,
  "里@@": 6674,
  "ò@@": 6675,
  "ũ@@": 6676,
  "르@@": 6677,
  "5\"": 6678,
  "툴@@": 6679,
  "Û@@": 6680,
  "Daniel": 6681,
  "joy@@": 6682,
  "²@@": 6683,
  "❤@@": 6684,
  "urged": 6685,
  "Paul’s": 6686,
  "룸": 6687,
  "RU@@": 6688,
  "＋@@": 6689,
  "Ã@@": 6690,
  "Mount": 6691,
  "¤@@": 6692,
  "discipline": 6693,
  "§@@": 6694,
  "ing#@@": 6695,
  "Cheap": 6696,
  "º@@": 6697,
  "●@@": 6698,
  "Brother": 6699,
  "ň@@": 6700,
  "６@@": 6701,
  "ร@@": 6702,
  "ɛ@@": 6703,
  "а": 6704,
  "〒@@": 6705,
  "shi,": 6706,
  "Ⅱ": 6707,
  "However": 6708,
  "pioneer": 6709,
  "õ@@": 6710,
  "appreciate": 6711,
  "❯": 6712,
  "¢": 6713,
  "á": 6714,
  "å": 6715,
  "aders": 6716,
  "ث@@": 6717,
  "😀": 6718,
  "ّ@@": 6719,
  "apost@@": 6720,
  "hab": 6721,
  "ع": 6722,
  "kings": 6723,
  "ñ": 6724,
  "atsu": 6725,
  "ث": 6726,
  "#fut@@": 6727,
  "lasting": 6728,
  "flock": 6729,
  "graibymas#@@": 6730,
  "≤": 6731,
  "ḥ": 6732,
  "ą@@": 6733,
  "и": 6734,
  "alon@@": 6735,
  "《": 6736,
  "æ@@": 6737,
  "È@@": 6738,
  "Nish@@": 6739,
  "ı@@": 6740,
  "☆@@": 6741,
  "河@@": 6742,
  "ā": 6743,
  "ė": 6744,
  "���": 6745,
  "◆@@": 6746,
  "Jerusalem": 6747,
  "팔@@": 6748,
  "¹@@": 6749,
  "레@@": 6750,
  "米": 6751,
  "Kus@@": 6752,
  "ق": 6753,
  "◆": 6754,
  "Yanzu": 6755,
  "戸@@": 6756,
  "Bow@@": 6757,
  "－@@": 6758,
  "Ruth": 6759,
  "Hezek@@": 6760,
  "ί@@": 6761,
  "Ø": 6762,
  "′@@": 6763,
  "ε": 6764,
  "congregations": 6765,
  "ú": 6766,
  "Hence": 6767,
  "⚠@@": 6768,
  "ð": 6769,
  "Shiga": 6770,
  "松@@": 6771,
  "遥": 6772,
  "ʻ@@": 6773,
  "crowd": 6774,
  "integrity": 6775,
  "Picture": 6776,
  "Ç": 6777,
  "ǝ": 6778,
  "Ž@@": 6779,
  "备@@": 6780,
  "@@": 6781,
  "노": 6782,
  "모@@": 6783,
  "д@@": 6784,
  "스@@": 6785,
  "‐@@": 6786,
  "Δ@@": 6787,
  "ば@@": 6788,
  "크@@": 6789,
  "号@@": 6790,
  "바": 6791,
  "ん@@": 6792,
  "바@@": 6793,
  "나@@": 6794,
  "な@@": 6795,
  "#užpakalio": 6796,
  "》": 6797,
  "ß@@": 6798,
  "OME": 6799,
  "ṛ@@": 6800,
  "ۈ@@": 6801,
  "₦@@": 6802,
  "kindness": 6803,
  "Saul": 6804,
  "胸@@": 6805,
  "﹜@@": 6806,
  "ė@@": 6807,
  "突@@": 6808,
  "き": 6809,
  "›": 6810,
  "Rather": 6811,
  "́": 6812,
  "타@@": 6813,
  "3\"": 6814,
  "“": 6815,
  "Moreover": 6816,
  "Previous:": 6817,
  "γ": 6818,
  "キ": 6819,
  "Isa": 6820,
  "❤": 6821,
  "è": 6822,
  "❀@@": 6823,
  "uch": 6824,
  "loyal": 6825,
  "": 6826,
  "ivate": 6827,
  "@@": 6828,
  "forever": 6829,
  "Ɓ@@": 6830,
  "ý": 6831,
  "亩@@": 6832,
  "temple": 6833,
  "文": 6834,
  "ف": 6835,
  "¬@@": 6836,
  "꧁@@": 6837,
  "☬@@": 6838,
  "ह@@": 6839,
  "꧂": 6840,
  "ि@@": 6841,
  "न@@": 6842,
  "ء": 6843,
  "â": 6844,
  "ى": 6845,
  "Exegesis": 6846,
  "û@@": 6847,
  "ṣ@@": 6848,
  "１@@": 6849,
  "Í@@": 6850,
  "Tim": 6851,
  "Elijah": 6852,
  "肺@@": 6853,
  "deeply": 6854,
  "Ɗ@@": 6855,
  "є@@": 6856,
  "convention": 6857,
  "Samuel": 6858,
  "î": 6859,
  "": 6860,
  "": 6861,
  "ว@@": 6862,
  "汉@@": 6863,
  "า@@": 6864,
  "Tower": 6865,
  "ـ@@": 6866,
  "語": 6867,
  "™@@": 6868,
  "ø@@": 6869,
  "्@@": 6870,
  "±": 6871,
  "(18)": 6872,
  "０@@": 6873,
  "말": 6874,
  "1xBet": 6875,
  "ۆ@@": 6876,
  "ř@@": 6877,
  "@@": 6878,
  "ṃ@@": 6879,
  "cultivate": 6880,
  "congregation": 6881,
  "encouragement": 6882,
  "elders": 6883,
  "ú@@": 6884,
  "１": 6885,
  "happiness": 6886,
  "alls": 6887,
  "worshippers": 6888,
  "Elisha": 6889,
  "度": 6890,
  "ρ@@": 6891,
  "à": 6892,
  "ά": 6893,
  "‹": 6894,
  "ş": 6895,
  "@@": 6896,
  "devotion": 6897,
  "Amos": 6898,
  "द@@": 6899,
  "Eve": 6900,
  "­": 6901,
  "Hak@@": 6902,
  "Χ@@": 6903,
  "Ù": 6904,
  "¯": 6905,
  "@@": 6906,
  "agawa": 6907,
  "ी": 6908,
  "κ@@": 6909,
  "psal@@": 6910,
  "@@": 6911,
  "": 6912,
  "🙁": 6913,
  "두": 6914,
  "청@@": 6915,
  "Ħ@@": 6916,
  "№": 6917,
  "ĥ@@": 6918,
  "Ρ@@": 6919,
  "ď": 6920,
  "sisters": 6921,
  "明@@": 6922,
  "Ű@@": 6923,
  "learly": 6924,
  "証@@": 6925,
  "@@": 6926,
  "漢@@": 6927,
  "ْ": 6928,
  "ذ": 6929,
  "新": 6930,
  "Mercedes": 6931,
  "ר": 6932,
  "ט@@": 6933,
  "･": 6934,
  "◇@@": 6935,
  "粤@@": 6936,
  "람": 6937,
  "요@@": 6938,
  "의": 6939,
  "랑@@": 6940,
  "사@@": 6941,
  "내": 6942,
  "고": 6943,
  "카@@": 6944,
  "리@@": 6945,
  "유@@": 6946,
  "이@@": 6947,
  "아@@": 6948,
  "시@@": 6949,
  "와@@": 6950,
  "erness": 6951,
  "Љ@@": 6952,
  "̐@@": 6953,
  "ї@@": 6954,
  "⋆": 6955,
  "全@@": 6956,
  "①": 6957,
  "ʊ": 6958,
  "ɛ": 6959,
  "炎@@": 6960,
  "ŋ@@": 6961,
  "ũ": 6962,
  "β": 6963,
  "û": 6964,
  "ń@@": 6965,
  "ւ@@": 6966,
  "": 6967,
  "ő@@": 6968,
  "Judah": 6969,
  "Tattoo": 6970,
  "⬇@@": 6971,
  "܂@@": 6972,
  "Ń@@": 6973,
  "͂@@": 6974,
  "̓@@": 6975,
  "پ@@": 6976,
  "火@@": 6977,
  "ط": 6978,
  "Ξ@@": 6979,
  "⚘": 6980,
  "Contact": 6981,
  "′": 6982,
  "亩": 6983,
  "‍": 6984,
  "П": 6985,
  "З@@": 6986,
  "Г@@": 6987,
  "Ó@@": 6988,
  "⇐": 6989,
  "⇒@@": 6990,
  "Iv@@": 6991,
  "♔": 6992,
  "〙@@": 6993,
  "Đ@@": 6994,
  "Ň@@": 6995,
  "Ꮆ@@": 6996,
  "Ł@@": 6997,
  "〘@@": 6998,
  "♔@@": 6999,
  "": 7000,
  "@@": 7001,
  "라": 7002,
  "Å": 7003,
  "𒄿@@": 7004,
  "モ@@": 7005,
  "έ@@": 7006,
  "Ephes@@": 7007,
  "Stereo": 7008,
  "э@@": 7009,
  "В@@": 7010,
  "堀": 7011,
  "頓@@": 7012,
  "道@@": 7013,
  "湾": 7014,
  "星@@": 7015,
  "ω@@": 7016,
  "τ@@": 7017,
  "ス@@": 7018,
  "σ@@": 7019,
  "量": 7020,
  "重@@": 7021,
  "床@@": 7022,
  "机@@": 7023,
  "速@@": 7024,
  "料@@": 7025,
  "送@@": 7026,
  "ワ": 7027,
  "ク@@": 7028,
  "칼@@": 7029,
  "银": 7030,
  "Ｅ": 7031,
  "č": 7032,
  "ゥ@@": 7033,
  "ト@@": 7034,
  "þ@@": 7035,
  "Memorial": 7036,
  "市": 7037,
  "南@@": 7038,
  "▸": 7039,
  "鲁@@": 7040,
  "foretold": 7041,
  "眼@@": 7042,
  "½@@": 7043,
  "ム": 7044,
  "ä": 7045,
  "conscience": 7046,
  "appreciation": 7047,
  "ḥ@@": 7048,
  "Neh@@": 7049,
  "ô": 7050,
  "cope": 7051,
  "õ": 7052,
  "ν": 7053,
  "ά@@": 7054,
  "ル@@": 7055,
  "theless": 7056,
  "Ｍ@@": 7057,
  "ｄ@@": 7058,
  "Ｏ@@": 7059,
  "Ｈ@@": 7060,
  "亚": 7061,
  "利@@": 7062,
  "尼@@": 7063,
  "tribulation": 7064,
  "보": 7065,
  "정@@": 7066,
  "용@@": 7067,
  "채@@": 7068,
  "佐": 7069,
  "》@@": 7070,
  "⌘@@": 7071,
  "♣@@": 7072,
  "parag@@": 7073,
  "persecution": 7074,
  "ţ@@": 7075,
  "」@@": 7076,
  "personality": 7077,
  "リ": 7078,
  "バ@@": 7079,
  "disciple": 7080,
  "Cor": 7081,
  "데@@": 7082,
  "♡": 7083,
  "！": 7084,
  "": 7085,
  "м@@": 7086,
  "assign@@": 7087,
  "≈@@": 7088,
  "н@@": 7089,
  "÷": 7090,
  "💕": 7091,
  "elder": 7092,
  "گ": 7093,
  "시": 7094,
  "알@@": 7095,
  "godly": 7096,
  "↓": 7097,
  "↓@@": 7098,
  "Israelites": 7099,
  "ض": 7100,
  "ȱ@@": 7101,
  "spiritually": 7102,
  "ک": 7103,
  "": 7104,
  "字@@": 7105,
  "உ@@": 7106,
  "№@@": 7107,
  "금": 7108,
  "백@@": 7109,
  "Þ@@": 7110,
  "csgo": 7111,
  "茶@@": 7112,
  "房": 7113,
  "櫟@@": 7114,
  "ج": 7115,
  "Joshua": 7116,
  "й": 7117,
  "6\"": 7118,
  "eal": 7119,
  "ย": 7120,
  "٩": 7121,
  "博@@": 7122,
  "士": 7123,
  "山": 7124,
  "久@@": 7125,
  "香@@": 7126,
  "Ä@@": 7127,
  "‌@@": 7128,
  "К@@": 7129,
  "客@@": 7130,
  "idently": 7131,
  "φ@@": 7132,
  "ω": 7133,
  "節": 7134,
  "歡@@": 7135,
  "狂@@": 7136,
  "zeal@@": 7137,
  "baptism": 7138,
  "５@@": 7139,
  "９@@": 7140,
  "４@@": 7141,
  "二@@": 7142,
  "ߋ@@": 7143,
  "preaching": 7144,
  "sacrifices": 7145,
  "₁": 7146,
  "株@@": 7147,
  "،": 7148,
  "ء@@": 7149,
  "服": 7150,
  "illustr@@": 7151,
  "`": 7152,
  "Babyl@@": 7153,
  "Ⅰ": 7154,
  "화": 7155,
  "회@@": 7156,
  "🌏": 7157,
  "🗣": 7158,
  "ï@@": 7159,
  "à@@": 7160,
  "酒": 7161,
  "org": 7162,
  "施@@": 7163,
  "餓@@": 7164,
  "鬼@@": 7165,
  "🤖": 7166,
  "´": 7167,
  "₪@@": 7168,
  "⭐": 7169,
  "Ð@@": 7170,
  "站@@": 7171,
  "Babylon": 7172,
  "щ": 7173,
  "в": 7174,
  "の": 7175,
  "스": 7176,
  "ِ": 7177,
  "루@@": 7178,
  "올@@": 7179,
  "💥@@": 7180,
  "😱": 7181,
  "蘇@@": 7182,
  "安": 7183,
  "雅@@": 7184,
  "東@@": 7185,
  "坡": 7186,
  "都": 7187,
  "成@@": 7188,
  "ٍ": 7189,
  "⌂@@": 7190,
  "ภ@@": 7191,
  "พ@@": 7192,
  "º": 7193,
  "ม@@": 7194,
  "อ@@": 7195,
  "니@@": 7196,
  "Ω@@": 7197,
  "田": 7198,
  "": 7199,
  "ﷻ": 7200,
  "郷@@": 7201,
  "관@@": 7202,
  "Þ": 7203,
  "Ì@@": 7204,
  "♥": 7205,
  "Щ": 7206,
  "м": 7207,
  "海": 7208,
  "上@@": 7209,
  "counsel": 7210,
  "ğ@@": 7211,
  "。@@": 7212,
  "9\"": 7213,
  "ū": 7214,
  "＆": 7215,
  "yal": 7216,
  "‧": 7217,
  "ṭ@@": 7218,
  "่@@": 7219,
  "ง@@": 7220,
  "щ@@": 7221,
  "ж@@": 7222,
  "／@@": 7223,
  "İ@@": 7224,
  "neighb@@": 7225,
  "Ú": 7226,
  "ª@@": 7227,
  "𓆪@@": 7228,
  "₳@@": 7229,
  "ℑ@@": 7230,
  "ł@@": 7231,
  "𓆩@@": 7232,
  "⁣@@": 7233,
  "ɔ@@": 7234,
  "ɫ@@": 7235,
  "Christ’s": 7236,
  "Devil": 7237,
  "ș@@": 7238,
  "ṅ@@": 7239,
  "Ι": 7240,
  "３": 7241,
  "；@@": 7242,
  "♦@@": 7243,
  "■@@": 7244,
  "̱@@": 7245,
  "ด@@": 7246,
  "เ@@": 7247,
  "ɲ@@": 7248,
  "ʃ@@": 7249,
  "็@@": 7250,
  "ว": 7251,
  "谷@@": 7252,
  "苅@@": 7253,
  "Ф@@": 7254,
  "": 7255,
  "➜": 7256,
  "truths": 7257,
  "ι": 7258,
  "δ@@": 7259,
  "в@@": 7260,
  "π@@": 7261,
  "¦@@": 7262,
  "О@@": 7263,
  "TCD@@": 7264,
  "网@@": 7265
}