{
  "<EOS>": 0,
  "<GO>": 1,
  "<UNK>": 2,
  "da": 3,
  ".": 4,
  ",": 5,
  "a": 6,
  "ya": 7,
  "na": 8,
  "kuma": 9,
  ":": 10,
  "ba": 11,
  "yi": 12,
  "ta": 13,
  "su": 14,
  "ne": 15,
  "mu": 16,
  "-": 17,
  "za": 18,
  ")": 19,
  "?": 20,
  "mai": 21,
  "ga": 22,
  "iya": 23,
  "ka": 24,
  "”": 25,
  "cikin": 26,
  "“": 27,
  "(": 28,
  "Allah": 29,
  "shi": 30,
  "cewa": 31,
  "daga": 32,
  "A": 33,
  "wa": 34,
  "sa": 35,
  "don": 36,
  "an": 37,
  "in": 38,
  "yana": 39,
  "ce": 40,
  "zai": 41,
  "suka": 42,
  "1": 43,
  "aka": 44,
  "wannan": 45,
  "ko": 46,
  "Jehobah": 47,
  "wani": 48,
  "S@@": 49,
  "ke": 50,
  "K@@": 51,
  "yin": 52,
  "masu": 53,
  "-@@": 54,
  "T@@": 55,
  "’": 56,
  "suna": 57,
  "(@@": 58,
  "i": 59,
  "Mai": 60,
  "k@@": 61,
  "ar": 62,
  "sun": 63,
  "a,": 64,
  "u": 65,
  "o": 66,
  "M@@": 67,
  "2": 68,
  "s@@": 69,
  "D@@": 70,
  "abin": 71,
  "yake": 72,
  "d@@": 73,
  "kan": 74,
  "B@@": 75,
  "t@@": 76,
  "Yesu": 77,
  "amfani": 78,
  "y@@": 79,
  ";": 80,
  "A@@": 81,
  "L@@": 82,
  "g@@": 83,
  "—": 84,
  "/": 85,
  "haka": 86,
  "ku": 87,
  "in@@": 88,
  "ar@@": 89,
  "zuwa": 90,
  "tare": 91,
  "n@@": 92,
  "G@@": 93,
  "f@@": 94,
  "F@@": 95,
  "i@@": 96,
  "C@@": 97,
  "i,": 98,
  "yadda": 99,
  "R@@": 100,
  "a@@": 101,
  "3": 102,
  "b@@": 103,
  "H@@": 104,
  "5": 105,
  "ci": 106,
  "wanda": 107,
  "suke": 108,
  "an@@": 109,
  "nan": 110,
  "mutane": 111,
  "nuna": 112,
  "m@@": 113,
  "c@@": 114,
  "h@@": 115,
  "zama": 116,
  "4": 117,
  "P@@": 118,
  "game": 119,
  "ma": 120,
  "e@@": 121,
  "N@@": 122,
  "al@@": 123,
  "e": 124,
  "z@@": 125,
  "s": 126,
  "wasu": 127,
  "l@@": 128,
  "at@@": 129,
  "p@@": 130,
  "a.": 131,
  "ƙ@@": 132,
  "gaba": 133,
  "kamar": 134,
  "ak@@": 135,
  "W@@": 136,
  "Tsarki": 137,
  "am@@": 138,
  "Littafi": 139,
  "domin": 140,
  "w@@": 141,
  "kai": 142,
  "r@@": 143,
  "m": 144,
  "Ka": 145,
  "yawa": 146,
  "kyau": 147,
  "j@@": 148,
  "6": 149,
  "Ya": 150,
  "ad@@": 151,
  "on": 152,
  "Y@@": 153,
  "aiki": 154,
  "ji": 155,
  "awa": 156,
  "u@@": 157,
  "Ta": 158,
  "J@@": 159,
  "Z@@": 160,
  "o@@": 161,
  "lokacin": 162,
  "as@@": 163,
  "en": 164,
  "I@@": 165,
  "duniya": 166,
  "ur@@": 167,
  "it@@": 168,
  "\"@@": 169,
  "i.": 170,
  "sosai": 171,
  "un": 172,
  "7": 173,
  "kasance": 174,
  "dukan": 175,
  "waɗanda": 176,
  "er@@": 177,
  "idan": 178,
  "amma": 179,
  "Kuma": 180,
  "ciki": 181,
  "8": 182,
  "har": 183,
  "E@@": 184,
  "10": 185,
  "iy@@": 186,
  "ina": 187,
  "ai": 188,
  "ab@@": 189,
  "Da": 190,
  "yaya": 191,
  "!": 192,
  "irin": 193,
  "ake": 194,
  "Amma": 195,
  "'@@": 196,
  "O@@": 197,
  "ni": 198,
  "sh@@": 199,
  "ana": 200,
  "hakan": 201,
  ".@@": 202,
  "_": 203,
  "en@@": 204,
  "9": 205,
  "3@@": 206,
  "is@@": 207,
  "or@@": 208,
  "]": 209,
  "‘": 210,
  "un@@": 211,
  "e,": 212,
  "on@@": 213,
  "ir@@": 214,
  "ay@@": 215,
  "t": 216,
  "muna": 217,
  "er": 218,
  "12": 219,
  "v@@": 220,
  "insa": 221,
  "ing": 222,
  "ts@@": 223,
  "15": 224,
  "y": 225,
  "kamata": 226,
  "san": 227,
  "4@@": 228,
  "shekara": 229,
  "uwa": 230,
  "V@@": 231,
  "5@@": 232,
  "mafi": 233,
  "id@@": 234,
  "Idan": 235,
  "taimaka": 236,
  "ag@@": 237,
  "Wannan": 238,
  ">": 239,
  "2@@": 240,
  "Jehovah": 241,
  "ha@@": 242,
  "ma@@": 243,
  "im@@": 244,
  "lokaci": 245,
  "11": 246,
  "wajen": 247,
  "sa’ad": 248,
  "son": 249,
  "sai": 250,
  "waɗannan": 251,
  "U@@": 252,
  "0@@": 253,
  "ara": 254,
  "muka": 255,
  "ã@@": 256,
  "yan": 257,
  "af@@": 258,
  "bayan": 259,
  "8@@": 260,
  "mana": 261,
  "wata": 262,
  "Al@@": 263,
  "il@@": 264,
  "bi": 265,
  "el@@": 266,
  "Me": 267,
  "so": 268,
  "duk": 269,
  "\"": 270,
  "ra@@": 271,
  "ik@@": 272,
  "iyar": 273,
  "...": 274,
  "Za": 275,
  "wurin": 276,
  "14": 277,
  "13": 278,
  "bai": 279,
  "ita": 280,
  "to": 281,
  "7@@": 282,
  "st@@": 283,
  "ɗ@@": 284,
  "ata": 285,
  "/@@": 286,
  "biyu": 287,
  "gaskiya": 288,
  "fi": 289,
  "muke": 290,
  "16": 291,
  "ic@@": 292,
  "6@@": 293,
  "ta@@": 294,
  "Na": 295,
  "ig@@": 296,
  "Hotel": 297,
  "re@@": 298,
  "da@@": 299,
  "farko": 300,
  "wa@@": 301,
  "mutum": 302,
  "ku@@": 303,
  "bauta": 304,
  "Ba": 305,
  "samun": 306,
  "et@@": 307,
  "17": 308,
  "kawai": 309,
  "ari": 310,
  "samu": 311,
  "Ubangiji": 312,
  "Bulus": 313,
  "ol@@": 314,
  ",@@": 315,
  "20": 316,
  "inmu": 317,
  "ri@@": 318,
  "1@@": 319,
  "An": 320,
  "hanyar": 321,
  "farin": 322,
  "kar@@": 323,
  "19@@": 324,
  "bukatar": 325,
  "az@@": 326,
  "9@@": 327,
  "ro@@": 328,
  "aikin": 329,
  "es": 330,
  "[": 331,
  "um@@": 332,
  "ul@@": 333,
  "masa": 334,
  "uk@@": 335,
  "kuwa": 336,
  "sa@@": 337,
  "I": 338,
  "yar@@": 339,
  "ac@@": 340,
  "24": 341,
  "jin": 342,
  "sami": 343,
  "a-@@": 344,
  "yau": 345,
  "girma": 346,
  "Duk": 347,
  "al": 348,
  "Kiristoci": 349,
  "10@@": 350,
  "’@@": 351,
  "#@@": 352,
  "mat@@": 353,
  "war@@": 354,
  "lo@@": 355,
  "19": 356,
  "18": 357,
  "tana": 358,
  "bar": 359,
  "rai": 360,
  "ɗaya": 361,
  "abubuwa": 362,
  "ash@@": 363,
  "sama": 364,
  "k": 365,
  "shafi": 366,
  "ama": 367,
  "&": 368,
  "insu": 369,
  "e.": 370,
  "gare": 371,
  "Yana": 372,
  "cin": 373,
  "yanzu": 374,
  "in,": 375,
  "es@@": 376,
  "iz@@": 377,
  ":@@": 378,
  "ut@@": 379,
  "d": 380,
  "matsayin": 381,
  "wan@@": 382,
  "M": 383,
  "ace": 384,
  "musu": 385,
  "kayan": 386,
  "us@@": 387,
  "i-@@": 388,
  "kasa": 389,
  "em@@": 390,
  "bayyana": 391,
  "are": 392,
  "muhimmanci": 393,
  "mun": 394,
  "aki": 395,
  "u,": 396,
  "zo": 397,
  "Saboda": 398,
  "gaya": 399,
  "abu": 400,
  "san@@": 401,
  "R": 402,
  "e-@@": 403,
  "dace": 404,
  "ya@@": 405,
  "all@@": 406,
  "ƙarfafa": 407,
  "ashi": 408,
  "b": 409,
  "ban": 410,
  "X@@": 411,
  "ant@@": 412,
  "rubuta": 413,
  "Kristi": 414,
  "arin": 415,
  "ing@@": 416,
  "20@@": 417,
  "yan@@": 418,
  "Ina": 419,
  "soma": 420,
  "Ko": 421,
  "gab@@": 422,
  "ib@@": 423,
  "om@@": 424,
  "E": 425,
  "ɓ@@": 426,
  "ura": 427,
  "ann@@": 428,
  "ru@@": 429,
  "kafa": 430,
  "aw@@": 431,
  "mas@@": 432,
  "Don": 433,
  "Ƙ@@": 434,
  "nufin": 435,
  "bisa": 436,
  "kana": 437,
  "magana": 438,
  "rana": 439,
  "mutanen": 440,
  "18@@": 441,
  "misali": 442,
  "ou@@": 443,
  "hankali": 444,
  "ok@@": 445,
  "–": 446,
  "aj@@": 447,
  "anta": 448,
  "far@@": 449,
  "ch@@": 450,
  "S": 451,
  "x@@": 452,
  "30": 453,
  "koya": 454,
  "2019": 455,
  "Menene": 456,
  "uka": 457,
  "as": 458,
  "_@@": 459,
  "ark@@": 460,
  "12@@": 461,
  "har@@": 462,
  "kowane": 463,
  "Sh@@": 464,
  "": 465,
  "ed": 466,
  "21": 467,
  "wa’azi": 468,
  "mata": 469,
  "<": 470,
  "baya": 471,
  "22": 472,
  "if@@": 473,
  "$": 474,
  "14@@": 475,
  "aminci": 476,
  "ah@@": 477,
  "DA": 478,
  "start=\"@@": 479,
  "ila": 480,
  "inda": 481,
  "a:": 482,
  "The": 483,
  "15@@": 484,
  "h": 485,
  "uwar": 486,
  "abubuwan": 487,
  "*": 488,
  "ia": 489,
  "[@@": 490,
  "fiye": 491,
  "am": 492,
  "akwai": 493,
  "musamman": 494,
  "ewa": 495,
  "In@@": 496,
  "kula": 497,
  "Domin": 498,
  "man@@": 499,
  "ot@@": 500,
  "in.": 501,
  "25": 502,
  "ub@@": 503,
  "Yohanna": 504,
  "asa": 505,
  "os@@": 506,
  "​": 507,
  "Ku": 508,
  "0": 509,
  "•": 510,
  "ed@@": 511,
  "mar@@": 512,
  "anci": 513,
  "and@@": 514,
  "SA@@": 515,
  "rayuwa": 516,
  "․": 517,
  "Sai": 518,
  "Ko@@": 519,
  "ho@@": 520,
  "ja": 521,
  "le@@": 522,
  "An@@": 523,
  "tsarin": 524,
  "MA@@": 525,
  "l": 526,
  "aik@@": 527,
  "ani": 528,
  "Hakika": 529,
  "samar": 530,
  "th@@": 531,
  "iri": 532,
  "KA@@": 533,
  "tafiya": 534,
  "Sun": 535,
  "arwa": 536,
  "ud@@": 537,
  "ap@@": 538,
  "ic": 539,
  "Sa’ad": 540,
  "i:": 541,
  "cika": 542,
  "ã": 543,
  "saboda": 544,
  "han@@": 545,
  "ansu": 546,
  "13@@": 547,
  "16@@": 548,
  "23": 549,
  "kas@@": 550,
  "babban": 551,
  "ent@@": 552,
  "ka@@": 553,
  "ɗan": 554,
  "200@@": 555,
  "Muna": 556,
  "el": 557,
  "ƙasar": 558,
  "sani": 559,
  "dai": 560,
  "%": 561,
  "C": 562,
  "ISO": 563,
  "ƙar@@": 564,
  "Ch@@": 565,
  "ƙauna": 566,
  "mak@@": 567,
  "Am@@": 568,
  "sake": 569,
  "ec@@": 570,
  "Zabura": 571,
  "ruwa": 572,
  "kada": 573,
  "tar@@": 574,
  "yar": 575,
  "kafin": 576,
  "le": 577,
  "uku": 578,
  "o,": 579,
  "arsa": 580,
  "Bayan": 581,
  "ist@@": 582,
  "u.": 583,
  "IN": 584,
  "anin": 585,
  "+": 586,
  "us": 587,
  "is": 588,
  "yawan": 589,
  "yanar": 590,
  "shekaru": 591,
  "hal@@": 592,
  "a'@@": 593,
  "n": 594,
  "sabon": 595,
  "gar@@": 596,
  "hidima": 597,
  "30@@": 598,
  "a’@@": 599,
  "25@@": 600,
  "sab@@": 601,
  "N": 602,
  "Shin": 603,
  "2018": 604,
  "take": 605,
  "babu": 606,
  "Yaya": 607,
  "ansa": 608,
  "Mene": 609,
  "op@@": 610,
  "Kirista": 611,
  "Mini": 612,
  "do@@": 613,
  "aya": 614,
  "28": 615,
  "\">": 616,
  "dabam": 617,
  "ij@@": 618,
  "Mun": 619,
  "rashin": 620,
  "ran@@": 621,
  "D": 622,
  "ada": 623,
  "17@@": 624,
  "ko@@": 625,
  "Kamar": 626,
  "Yi": 627,
  "Mar@@": 628,
  "00@@": 629,
  "karanta": 630,
  "ganin": 631,
  "CE": 632,
  "s,": 633,
  "zan": 634,
  "Mu": 635,
  "addu’a": 636,
  "war": 637,
  "od@@": 638,
  "tak@@": 639,
  "St@@": 640,
  "fara": 641,
  "an,": 642,
  "Mat@@": 643,
  "shiga": 644,
  "kam@@": 645,
  "inka": 646,
  "Shaiɗan": 647,
  "Yan@@": 648,
  "ƙi": 649,
  "x": 650,
  "faru": 651,
  "fahimci": 652,
  "gida": 653,
  "Ad@@": 654,
  "iya,": 655,
  "AR@@": 656,
  "kira": 657,
  "ayi": 658,
  "daya": 659,
  "tsakanin": 660,
  "duba": 661,
  "fa": 662,
  "Babu": 663,
  "sauran": 664,
  "ranar": 665,
  "tuna": 666,
  "aba": 667,
  "Shi": 668,
  "bin": 669,
  "atar": 670,
  "Shaidun": 671,
  "Kar@@": 672,
  "kan@@": 673,
  "Ma@@": 674,
  "kansa": 675,
  "TA@@": 676,
  "kawo": 677,
  "Wane": 678,
  "Baya": 679,
  "jirgin": 680,
  "tsarki": 681,
  "ci@@": 682,
  "of": 683,
  "iko": 684,
  "Dauda": 685,
  "g": 686,
  "Q@@": 687,
  "hanya": 688,
  "Abin": 689,
  "ang@@": 690,
  "Bitrus": 691,
  "Kayan": 692,
  "Daga": 693,
  "ruhaniya": 694,
  "cik@@": 695,
  "at": 696,
  "guda": 697,
  "(2@@": 698,
  "biy@@": 699,
  "uc@@": 700,
  "me": 701,
  "riƙa": 702,
  "iv@@": 703,
  "aƙ@@": 704,
  "T": 705,
  "koyi": 706,
  "AN@@": 707,
  ").": 708,
  "and": 709,
  "26": 710,
  "Ab@@": 711,
  "daidai": 712,
  "hak@@": 713,
  "dā": 714,
  "ũ@@": 715,
  "2.@@": 716,
  "00": 717,
  "for": 718,
  "tabbatar": 719,
  "of@@": 720,
  "sha": 721,
  "ki": 722,
  "ƙaunar": 723,
  "ne@@": 724,
  "Yin": 725,
  "aye": 726,
  "su,": 727,
  "ƙasa": 728,
  "kusa": 729,
  "or": 730,
  "Ts@@": 731,
  "shi,": 732,
  "uri": 733,
  "1.@@": 734,
  "una": 735,
  "YA@@": 736,
  "sam@@": 737,
  "wato": 738,
  "ish@@": 739,
  "IN@@": 740,
  "kun@@": 741,
  "akan": 742,
  "Ar@@": 743,
  "kashe": 744,
  "0.@@": 745,
  "Kalmar": 746,
  "gidan": 747,
  "su@@": 748,
  "Karanta": 749,
  "+@@": 750,
  "et": 751,
  "abi": 752,
  "BA@@": 753,
  "ex@@": 754,
  "biyayya": 755,
  "afa": 756,
  "ciniki": 757,
  "ation": 758,
  "taf@@": 759,
  "tunani": 760,
  "ashin": 761,
  "so@@": 762,
  "Kan@@": 763,
  "Alal": 764,
  "co@@": 765,
  "littafin": 766,
  "ika": 767,
  "aci": 768,
  "hana": 769,
  "lafiya": 770,
  "1-@@": 771,
  "bar@@": 772,
  "aure": 773,
  "õ@@": 774,
  "she": 775,
  "ass@@": 776,
  "29": 777,
  "Wasu": 778,
  "Matta": 779,
  "L": 780,
  "26@@": 781,
  "Man@@": 782,
  "art@@": 783,
  "24@@": 784,
  "wat@@": 785,
  "bo@@": 786,
  "taron": 787,
  "201@@": 788,
  "50": 789,
  "50@@": 790,
  "ikon": 791,
  "sun@@": 792,
  "27": 793,
  "ƙas@@": 794,
  "kw@@": 795,
  "gir@@": 796,
  "ƙara": 797,
  "Wata": 798,
  "tattauna": 799,
  "gaban": 800,
  "yanayin": 801,
  "28@@": 802,
  "kur@@": 803,
  "halin": 804,
  "saka": 805,
  "sau": 806,
  "tun": 807,
  "ance": 808,
  "ikilisiya": 809,
  "s.": 810,
  "arar": 811,
  "shin": 812,
  "neman": 813,
  "nazarin": 814,
  "software": 815,
  "hannu": 816,
  "anmu": 817,
  "ga@@": 818,
  "yarda": 819,
  "bayar": 820,
  "U": 821,
  "ion": 822,
  "taɓa": 823,
  "Yanzu": 824,
  "SH@@": 825,
  "arsu": 826,
  "qu@@": 827,
  "P": 828,
  "akin": 829,
  "Yadda": 830,
  "ane": 831,
  "shakka": 832,
  "yan’uwa": 833,
  "mm": 834,
  "tunanin": 835,
  "au@@": 836,
  "Wani": 837,
  "wa,": 838,
  "amb@@": 839,
  "Suka": 840,
  "sunan": 841,
  "manyan": 842,
  "kasancewa": 843,
  "cikakken": 844,
  "ow@@": 845,
  "yayin": 846,
  "damar": 847,
  "abokan": 848,
  "jar@@": 849,
  "jiki": 850,
  "wuya": 851,
  "“@@": 852,
  "gan@@": 853,
  "Ga": 854,
  "alin": 855,
  "q@@": 856,
  "duka": 857,
  "Mulkin": 858,
  "lura": 859,
  "shawara": 860,
  "Maris": 861,
  "kama": 862,
  "ih@@": 863,
  "KA": 864,
  "bayani": 865,
  "isa": 866,
  "31": 867,
  "Sha@@": 868,
  "juna": 869,
  "bay@@": 870,
  "inta": 871,
  "ali": 872,
  "je": 873,
  "ku,": 874,
  "kir@@": 875,
  "bu@@": 876,
  "Masu": 877,
  "daraja": 878,
  "ar,": 879,
  "Adam": 880,
  "zuciya": 881,
  "ɗauki": 882,
  "80@@": 883,
  "your": 884,
  "w": 885,
  "sad@@": 886,
  "W": 887,
  "ah": 888,
  "ɗa": 889,
  "bukata": 890,
  "ob@@": 891,
  "dogara": 892,
  "ukan": 893,
  "23@@": 894,
  "As@@": 895,
  "kansu": 896,
  "DA@@": 897,
  "gu@@": 898,
  "kake": 899,
  "Mal@@": 900,
  "Mafi": 901,
  "sanin": 902,
  "27@@": 903,
  "gama": 904,
  "mur@@": 905,
  "adi": 906,
  "zunubi": 907,
  "ruhu": 908,
  "wan": 909,
  "Musa": 910,
  "man": 911,
  "ancin": 912,
  "baƙin": 913,
  "maka": 914,
  "gani": 915,
  "tsar@@": 916,
  "O": 917,
  "faɗa": 918,
  "mini": 919,
  "hann@@": 920,
  "ɗi": 921,
  "K": 922,
  "mu@@": 923,
  "sanya": 924,
  "Mas@@": 925,
  "aikata": 926,
  "abinci": 927,
  "ers": 928,
  "age": 929,
  "adalci": 930,
  "�@@": 931,
  "ɗan@@": 932,
  "tan@@": 933,
  "60@@": 934,
  "WA@@": 935,
  "res@@": 936,
  "Isra’ila": 937,
  "iyawa": 938,
  "tun@@": 939,
  "Bay@@": 940,
  "awar": 941,
  "(3@@": 942,
  "anan": 943,
  "dole": 944,
  "gina": 945,
  "dan": 946,
  "29@@": 947,
  "go@@": 948,
  "p": 949,
  "had@@": 950,
  "dab@@": 951,
  "dar@@": 952,
  "ce:": 953,
  "Aika:": 954,
  "Kai": 955,
  "to@@": 956,
  "kuna": 957,
  "ip@@": 958,
  "jin@@": 959,
  "wa.": 960,
  "o.": 961,
  "taro": 962,
  "2017": 963,
  "fa@@": 964,
  "ung@@": 965,
  "ira": 966,
  "hikima": 967,
  "it": 968,
  "Yoh": 969,
  "gaske": 970,
  "pl@@": 971,
  "du@@": 972,
  "dama": 973,
  "att@@": 974,
  "3.@@": 975,
  "ayyukan": 976,
  "an.": 977,
  "40@@": 978,
  "Mulki": 979,
  "mutu": 980,
  "birnin": 981,
  "ƙarfi": 982,
  "av@@": 983,
  "unan": 984,
  "sak@@": 985,
  "ma'@@": 986,
  "amsa": 987,
  "ce@@": 988,
  "B": 989,
  "kowace": 990,
  "ard@@": 991,
  "min@@": 992,
  "tr@@": 993,
  "sa,": 994,
  "Co@@": 995,
  "alama": 996,
  "Ishaya": 997,
  "ad": 998,
  "33": 999,
  "arr@@": 1000,
  "tas@@": 1001,
  "ure": 1002,
  "kamfanin": 1003,
  "Dukkan": 1004,
  "watan": 1005,
  "Hakan": 1006,
  "r": 1007,
  "lam@@": 1008,
  "fur@@": 1009,
  "ge": 1010,
  "shirya": 1011,
  "was@@": 1012,
  "tabbata": 1013,
  "kun": 1014,
  "ƙarshe": 1015,
  "Sa@@": 1016,
  "yanayi": 1017,
  "ill@@": 1018,
  "taimake": 1019,
  "Bar": 1020,
  "fit@@": 1021,
  "Mat": 1022,
  "arka": 1023,
  "zaman": 1024,
  "maza": 1025,
  "bincika": 1026,
  "),": 1027,
  "armu": 1028,
  "ɗa@@": 1029,
  "daina": 1030,
  "40": 1031,
  "afi": 1032,
  "Kada": 1033,
  ".com": 1034,
  "ayen": 1035,
  "bangaskiya": 1036,
  "motsa": 1037,
  "Bari": 1038,
  "uwan": 1039,
  "San@@": 1040,
  "und@@": 1041,
  "tsara": 1042,
  "ine": 1043,
  "ayar": 1044,
  "32": 1045,
  "kullum": 1046,
  "'yan": 1047,
  "ayyuka": 1048,
  "ida": 1049,
  "ayy@@": 1050,
  "ye": 1051,
  "ph@@": 1052,
  "shaf@@": 1053,
  "gam@@": 1054,
  "nasara": 1055,
  "aika": 1056,
  "China": 1057,
  "ne,": 1058,
  "saur@@": 1059,
  "kyauta": 1060,
  "ima": 1061,
  "YA": 1062,
  "Akwai": 1063,
  "kuka": 1064,
  "amar": 1065,
  "yara": 1066,
  "uf@@": 1067,
  "add@@": 1068,
  "Isra’ilawa": 1069,
  "kayayyakin": 1070,
  "Sam@@": 1071,
  "daban-daban": 1072,
  "shi@@": 1073,
  "ayin": 1074,
  "ambata": 1075,
  "ƙarin": 1076,
  "fas@@": 1077,
  "Waɗanne": 1078,
  "ar.": 1079,
  "Fil@@": 1080,
  "og@@": 1081,
  "kara": 1082,
  "waje": 1083,
  "wadda": 1084,
  "mutuwa": 1085,
  "1)": 1086,
  "ai@@": 1087,
  "amin@@": 1088,
  "sar@@": 1089,
  "kwan@@": 1090,
  "bincike": 1091,
  "hada": 1092,
  "shaida": 1093,
  "owa": 1094,
  "haske": 1095,
  "akar": 1096,
  "kwatanta": 1097,
  "shine": 1098,
  "34": 1099,
  "ke@@": 1100,
  "fil@@": 1101,
  "ev@@": 1102,
  "canja": 1103,
  "goyon": 1104,
  "hali": 1105,
  "gid@@": 1106,
  "ba,": 1107,
  "abada": 1108,
  "maf@@": 1109,
  "35": 1110,
  "Far@@": 1111,
  "alam@@": 1112,
  "antar": 1113,
  "Kas@@": 1114,
  "amince": 1115,
  "ruwan": 1116,
  "shawarar": 1117,
  "se@@": 1118,
  "Android": 1119,
  "Ƙari": 1120,
  "kasar": 1121,
  "Mag@@": 1122,
  "1,": 1123,
  "gin@@": 1124,
  "shig@@": 1125,
  "ess@@": 1126,
  "zamanin": 1127,
  "baftisma": 1128,
  "ie@@": 1129,
  "a)": 1130,
  "Tsarin": 1131,
  ",000": 1132,
  "Riga": 1133,
  "anka": 1134,
  "Yan": 1135,
  "la’akari": 1136,
  "Luka": 1137,
  "NA": 1138,
  "Wanda": 1139,
  "sauƙi": 1140,
  "4.@@": 1141,
  "-0@@": 1142,
  "haka,": 1143,
  "37@@": 1144,
  "wal@@": 1145,
  "gyara": 1146,
  "ov@@": 1147,
  "mamaki": 1148,
  "way@@": 1149,
  "uw@@": 1150,
  "sabis": 1151,
  "Su": 1152,
  "zam@@": 1153,
  "Tar@@": 1154,
  "nake": 1155,
  "Kasa": 1156,
  "tawali’u": 1157,
  "no@@": 1158,
  "su.": 1159,
  "Ana": 1160,
  "ain@@": 1161,
  "ai,": 1162,
  "ɗin": 1163,
  "AB@@": 1164,
  "Ro@@": 1165,
  "afin": 1166,
  "ayya": 1167,
  "Japan": 1168,
  "pp@@": 1169,
  "mal@@": 1170,
  "mutumin": 1171,
  "wane": 1172,
  "ini": 1173,
  "godiya": 1174,
  "100@@": 1175,
  "tal@@": 1176,
  "kowa": 1177,
  "koyar": 1178,
  "wahala": 1179,
  "X": 1180,
  "caca": 1181,
  "ug@@": 1182,
  "wuri": 1183,
  "abok@@": 1184,
  "labarin": 1185,
  "IS@@": 1186,
  "2016": 1187,
  "Babban": 1188,
  "€": 1189,
  "'": 1190,
  "iyan": 1191,
  "unsa": 1192,
  "Is@@": 1193,
  "high": 1194,
  "tafi": 1195,
  "mam@@": 1196,
  "marar": 1197,
  "shir@@": 1198,
  "ham@@": 1199,
  "Pro@@": 1200,
  "kudi": 1201,
  "ate": 1202,
  "albarka": 1203,
  "mugunta": 1204,
  "V": 1205,
  "ion@@": 1206,
  "shugab@@": 1207,
  "haɗin": 1208,
  "1.": 1209,
  "sp@@": 1210,
  "zauna": 1211,
  "wuce": 1212,
  "ɗaukaka": 1213,
  "sakamakon": 1214,
  "MU@@": 1215,
  "marasa": 1216,
  "Romawa": 1217,
  "©": 1218,
  "hidimar": 1219,
  "39@@": 1220,
  "jam@@": 1221,
  "Har": 1222,
  "Mutane": 1223,
  "Ɗ@@": 1224,
  "ind@@": 1225,
  "Jirgin": 1226,
  "kanmu": 1227,
  "v": 1228,
  "shirin": 1229,
  "Ibrahim": 1230,
  "tall@@": 1231,
  "mad@@": 1232,
  "tu@@": 1233,
  "ast@@": 1234,
  "IT@@": 1235,
  "2)": 1236,
  "TA": 1237,
  "abokin": 1238,
  "ba@@": 1239,
  "Yar@@": 1240,
  "asu": 1241,
  "ẽ@@": 1242,
  "ir": 1243,
  "la@@": 1244,
  "batun": 1245,
  "ala": 1246,
  "36@@": 1247,
  "45": 1248,
  "auk@@": 1249,
  "bishara": 1250,
  "5.@@": 1251,
  "Manzanni": 1252,
  "c": 1253,
  "ā@@": 1254,
  "uta": 1255,
  "tsaye": 1256,
  "waya": 1257,
  "Suna": 1258,
  "haɗa": 1259,
  "pro@@": 1260,
  "biya": 1261,
  "6)": 1262,
  "Tak@@": 1263,
  "57@@": 1264,
  "Gu@@": 1265,
  "mus@@": 1266,
  "dam@@": 1267,
  "ƙoƙari": 1268,
  "halitta": 1269,
  "min": 1270,
  "H": 1271,
  "say@@": 1272,
  "Hoto": 1273,
  "Han@@": 1274,
  "karfe": 1275,
  "(4@@": 1276,
  "Jam@@": 1277,
  "hanyoyi": 1278,
  "ya,": 1279,
  "ach@@": 1280,
  "kuɗi": 1281,
  "inku": 1282,
  "37": 1283,
  "bã": 1284,
  "ers@@": 1285,
  "Lokacin": 1286,
  "ashe": 1287,
  "ect@@": 1288,
  "ju@@": 1289,
  "ƙarya": 1290,
  "Dar@@": 1291,
  "G": 1292,
  "Ayyukan": 1293,
  "are@@": 1294,
  "bada": 1295,
  "Turai": 1296,
  "Kam@@": 1297,
  "kaf@@": 1298,
  "gizo": 1299,
  "kaya": 1300,
  "Kana": 1301,
  "duk@@": 1302,
  "tabbaci": 1303,
  "ba.": 1304,
  "38@@": 1305,
  "Sun@@": 1306,
  "wur@@": 1307,
  "dalilin": 1308,
  "Mu@@": 1309,
  "annin": 1310,
  "88@@": 1311,
  "jerin": 1312,
  "iyoyin": 1313,
  "de@@": 1314,
  "matattu": 1315,
  "Ayuba": 1316,
  "Aik@@": 1317,
  "ta,": 1318,
  "fita": 1319,
  "il": 1320,
  "id": 1321,
  "bang@@": 1322,
  "iya.": 1323,
  "zunub@@": 1324,
  "ãn@@": 1325,
  "wasa": 1326,
  "Fushi": 1327,
  "accen": 1328,
  "Re@@": 1329,
  "be@@": 1330,
  "tawa": 1331,
  "Ha@@": 1332,
  "taimako": 1333,
  "Shir@@": 1334,
  "Duniya": 1335,
  "ack@@": 1336,
  "halaka": 1337,
  "Ibraniyawa": 1338,
  "ce,": 1339,
  "os": 1340,
  "4)": 1341,
  "acce": 1342,
  "38": 1343,
  "199@@": 1344,
  "one": 1345,
  "per@@": 1346,
  "eg@@": 1347,
  "2-@@": 1348,
  "WA": 1349,
  "9.@@": 1350,
  "99@@": 1351,
  "bur@@": 1352,
  "wa’azin": 1353,
  "ako": 1354,
  "Waɗannan": 1355,
  "35@@": 1356,
  "70@@": 1357,
  "ƙoƙar@@": 1358,
  "kusan": 1359,
  "onsa": 1360,
  "34@@": 1361,
  "Yahudawa": 1362,
  "samfurin": 1363,
  "da,": 1364,
  "AM@@": 1365,
  "manzo": 1366,
  "ban@@": 1367,
  "ɓata": 1368,
  "faɗi": 1369,
  "on,": 1370,
  "mut@@": 1371,
  "Bo@@": 1372,
  "Zai": 1373,
  "tikiti": 1374,
  "gudanar": 1375,
  "shan": 1376,
  "tar": 1377,
  "kaɗai": 1378,
  "zur@@": 1379,
  "cl@@": 1380,
  "Ex@@": 1381,
  "kasuwanci": 1382,
  "ore": 1383,
  "u-@@": 1384,
  "kud@@": 1385,
  "Con@@": 1386,
  "ong@@": 1387,
  "acin": 1388,
  "lantarki": 1389,
  "est@@": 1390,
  "i'@@": 1391,
  "Karfe": 1392,
  "online": 1393,
  "ai.": 1394,
  "atu": 1395,
  "es,": 1396,
  "Sanya": 1397,
  "farashin": 1398,
  "arta": 1399,
  "yo@@": 1400,
  "Zab": 1401,
  "misalin": 1402,
  "more": 1403,
  "wasan": 1404,
  "riga": 1405,
  "unci": 1406,
  "uni": 1407,
  "ĩ@@": 1408,
  "Gode": 1409,
  "Gida": 1410,
  "Ƙar@@": 1411,
  "Ir@@": 1412,
  "int@@": 1413,
  "we@@": 1414,
  "awan": 1415,
  "Ubangij@@": 1416,
  "muku": 1417,
  "shirye": 1418,
  "ori": 1419,
  "o-@@": 1420,
  "ter@@": 1421,
  "f": 1422,
  "koma": 1423,
  "by": 1424,
  "bari": 1425,
  "Lesbiyan": 1426,
  "kin": 1427,
  "ts": 1428,
  "ren@@": 1429,
  "urin": 1430,
  "mahaif@@": 1431,
  "Ku@@": 1432,
  "zane": 1433,
  "Tun": 1434,
  "ray@@": 1435,
  "rage": 1436,
  ".\"": 1437,
  "ƙwarai": 1438,
  "zaɓ@@": 1439,
  "2015": 1440,
  "anar": 1441,
  "Tare": 1442,
  "Aiki": 1443,
  "ayyuk@@": 1444,
  "ka,": 1445,
  ":00": 1446,
  "nufi": 1447,
  "jim@@": 1448,
  "mag@@": 1449,
  "Tsaro": 1450,
  "se": 1451,
  "Mak@@": 1452,
  "al'@@": 1453,
  "ainihin": 1454,
  "kwanaki": 1455,
  "Farawa": 1456,
  "ch": 1457,
  "e:": 1458,
  "uwan@@": 1459,
  "5-@@": 1460,
  "ma,": 1461,
  "ait@@": 1462,
  "7)": 1463,
  "New": 1464,
  "Ban": 1465,
  "shafin": 1466,
  "gwada": 1467,
  "Sati": 1468,
  "Game": 1469,
  "tsak@@": 1470,
  "Urushalima": 1471,
  "free": 1472,
  "umi": 1473,
  "iyaye": 1474,
  "7.@@": 1475,
  "taimakon": 1476,
  "bakin": 1477,
  "Hasken": 1478,
  "100": 1479,
  "buga": 1480,
  "3)": 1481,
  "Har@@": 1482,
  "she@@": 1483,
  "kal@@": 1484,
  "shiri": 1485,
  "ly": 1486,
  "daɗewa": 1487,
  "ur": 1488,
  "dak@@": 1489,
  "9)": 1490,
  "adin": 1491,
  "fin@@": 1492,
  "z": 1493,
  "8.@@": 1494,
  "AL@@": 1495,
  "dub@@": 1496,
  "zan@@": 1497,
  "zamani": 1498,
  "Marmaris": 1499,
  "nin": 1500,
  "2013": 1501,
  "sal@@": 1502,
  "tsawon": 1503,
  "anc@@": 1504,
  "fushi": 1505,
  "90@@": 1506,
  "iyali": 1507,
  "GA": 1508,
  "yanke": 1509,
  "a.@@": 1510,
  "ure@@": 1511,
  "jawo": 1512,
  "ƙyale": 1513,
  "dattawa": 1514,
  "ami": 1515,
  "shi.": 1516,
  "ull@@": 1517,
  "gargaɗi": 1518,
  "Sarki": 1519,
  "y,": 1520,
  "sayar": 1521,
  "koyarwa": 1522,
  "bayin": 1523,
  "tashi": 1524,
  "menene": 1525,
  "36": 1526,
  "2.": 1527,
  "5)": 1528,
  "UN@@": 1529,
  "bayanai": 1530,
  "nemi": 1531,
  "alheri": 1532,
  "anku": 1533,
  "kin@@": 1534,
  "can": 1535,
  "ƙarni": 1536,
  "ire@@": 1537,
  "$@@": 1538,
  "dangantaka": 1539,
  "ku.": 1540,
  "kāre": 1541,
  "kat@@": 1542,
  "awa,": 1543,
  "Wat@@": 1544,
  "fito": 1545,
  "aun@@": 1546,
  "gabatar": 1547,
  "ƙarfin": 1548,
  "hannun": 1549,
  "Hal@@": 1550,
  "aman": 1551,
  "ITA": 1552,
  "ƙarshen": 1553,
  "ɗauk@@": 1554,
  "gur@@": 1555,
  "Ind@@": 1556,
  "80": 1557,
  "wu@@": 1558,
  "matasa": 1559,
  "daɗin": 1560,
  "shekar@@": 1561,
  "Lalle": 1562,
  "cin@@": 1563,
  "mot@@": 1564,
  "Wataƙila": 1565,
  "CE@@": 1566,
  "dang@@": 1567,
  "3-@@": 1568,
  "2020": 1569,
  "Sp@@": 1570,
  "Pl@@": 1571,
  "Daya": 1572,
  "ek@@": 1573,
  "bangask@@": 1574,
  "Shig@@": 1575,
  "Misalai": 1576,
  "ra": 1577,
  "shen": 1578,
  "Home": 1579,
  "wataƙila": 1580,
  "(1)": 1581,
  "Al": 1582,
  ">@@": 1583,
  "(9@@": 1584,
  "manz@@": 1585,
  "aru": 1586,
  "Go@@": 1587,
  "wayar": 1588,
  "CO@@": 1589,
  "i?": 1590,
  "sanar": 1591,
  "biyan": 1592,
  "the": 1593,
  "tsoron": 1594,
  "?@@": 1595,
  "aim@@": 1596,
  "amfana": 1597,
  "6.@@": 1598,
  "con@@": 1599,
  "masana'antu": 1600,
  "Kor": 1601,
  "ale": 1602,
  "1:@@": 1603,
  "act@@": 1604,
  "cutar": 1605,
  "im": 1606,
  "jik@@": 1607,
  "Shafin": 1608,
  "F": 1609,
  "ice": 1610,
  "wad@@": 1611,
  "ci,": 1612,
  "anni": 1613,
  "lalle": 1614,
  "Forex": 1615,
  "tsanani": 1616,
  "yawancin": 1617,
  "kawar": 1618,
  "all": 1619,
  "ul": 1620,
  "um": 1621,
  "ili": 1622,
  "Can@@": 1623,
  "alkawari": 1624,
  "labarai": 1625,
  "Mini-bar": 1626,
  "Sa": 1627,
  "Ru’ya": 1628,
  "acen": 1629,
  "tur@@": 1630,
  "ian": 1631,
  "hanyoyin": 1632,
  "gud@@": 1633,
  "lokac@@": 1634,
  "maganar": 1635,
  "Jo@@": 1636,
  "zuciyar@@": 1637,
  "iyal@@": 1638,
  ")@@": 1639,
  "salama": 1640,
  "hoto": 1641,
  "Mis@@": 1642,
  "wadannan": 1643,
  "iska": 1644,
  "waj@@": 1645,
  "kwar@@": 1646,
  "Gab@@": 1647,
  "MA": 1648,
  "sur@@": 1649,
  "gwaji": 1650,
  "ona": 1651,
  "ter": 1652,
  "maimakon": 1653,
  "fassara": 1654,
  "tambayoyi": 1655,
  "sadarwa": 1656,
  "ame": 1657,
  "awa@@": 1658,
  "amf@@": 1659,
  "39": 1660,
  "ikilisiyar": 1661,
  "ilimi": 1662,
  "Kat@@": 1663,
  "rufe": 1664,
  "ware": 1665,
  "ef@@": 1666,
  "abb@@": 1667,
  "iki": 1668,
  "ask@@": 1669,
  "Cl@@": 1670,
  "ofin": 1671,
  "rayuwar": 1672,
  "zaɓi": 1673,
  "Mo@@": 1674,
  "umur@@": 1675,
  "na'ura": 1676,
  "gano": 1677,
  "Allahn@@": 1678,
  "kiyaye": 1679,
  "mãsu": 1680,
  "atan": 1681,
  "gane": 1682,
  "So@@": 1683,
  "ɗaukan": 1684,
  "2019@@": 1685,
  "nas@@": 1686,
  "yankin": 1687,
  "tim@@": 1688,
  "he": 1689,
  "zu@@": 1690,
  "Bar@@": 1691,
  "mugun": 1692,
  "ƙaun@@": 1693,
  "RA@@": 1694,
  "A.": 1695,
  "arwar": 1696,
  "ies": 1697,
  "gora": 1698,
  "rik@@": 1699,
  "UR@@": 1700,
  "Airline": 1701,
  "Br@@": 1702,
  "bukat@@": 1703,
  "ɗauke": 1704,
  "gaskata": 1705,
  "Gidan": 1706,
  "Da@@": 1707,
  "Kasuwanci": 1708,
  "riƙe": 1709,
  "ct@@": 1710,
  "@@@": 1711,
  "ji@@": 1712,
  "67@@": 1713,
  "Yahaya": 1714,
  "yayi": 1715,
  "sa.": 1716,
  "AN": 1717,
  "Sal@@": 1718,
  "ƙunshi": 1719,
  "sabuwar": 1720,
  "bir@@": 1721,
  "fasaha": 1722,
  "ƙa": 1723,
  "inji": 1724,
  "th": 1725,
  "Ne@@": 1726,
  "ɗe": 1727,
  "Kus@@": 1728,
  "kirki": 1729,
  "idar": 1730,
  "annab@@": 1731,
  "000@@": 1732,
  "zar@@": 1733,
  "Google": 1734,
  "Manzo": 1735,
  "ewar": 1736,
  "er,": 1737,
  "Irin": 1738,
  "yiwu": 1739,
  "watanni": 1740,
  "unta": 1741,
  "duniyar": 1742,
  "kwat@@": 1743,
  "majagaba": 1744,
  "Tuna": 1745,
  "inganta": 1746,
  "kus@@": 1747,
  "ell@@": 1748,
  "sauk@@": 1749,
  "a?": 1750,
  "aur@@": 1751,
  "hor@@": 1752,
  "Maimakon": 1753,
  "hall@@": 1754,
  "Iy@@": 1755,
  "Shu@@": 1756,
  "shafaffu": 1757,
  "takardar": 1758,
  "En@@": 1759,
  "stimuliavimas": 1760,
  "jimre": 1761,
  "nazari": 1762,
  "amfan@@": 1763,
  "ido": 1764,
  "Kamfanin": 1765,
  "tag@@": 1766,
  "raba": 1767,
  "gyar@@": 1768,
  "000": 1769,
  "66@@": 1770,
  "El@@": 1771,
  "sana'a": 1772,
  "kome": 1773,
  "yaƙi": 1774,
  "misal@@": 1775,
  "tsari": 1776,
  "fin": 1777,
  "Uku": 1778,
  "bal@@": 1779,
  "dun@@": 1780,
  "CIKIN": 1781,
  "dare": 1782,
  "Be@@": 1783,
  "ort": 1784,
  "maz@@": 1785,
  "2,": 1786,
  "sarauta": 1787,
  "KO@@": 1788,
  "daɗa": 1789,
  "60": 1790,
  "tsai": 1791,
  "iyya": 1792,
  "Nak@@": 1793,
  "wuta": 1794,
  "ong": 1795,
  "kuke": 1796,
  "mayar": 1797,
  "miƙa": 1798,
  "au": 1799,
  "watsa": 1800,
  "a-shi": 1801,
  "mutanensa": 1802,
  "laifi": 1803,
  "Com@@": 1804,
  "Cikin": 1805,
  "arziki": 1806,
  "Amurka": 1807,
  "kanka": 1808,
  "Tur@@": 1809,
  "Maldives": 1810,
  "IR@@": 1811,
  "ort@@": 1812,
  "8)": 1813,
  "matsaloli": 1814,
  "45@@": 1815,
  "Ra@@": 1816,
  "guje": 1817,
  "Mut@@": 1818,
  "kalmar": 1819,
  "69@@": 1820,
  "LED": 1821,
  "tsa@@": 1822,
  "Sad@@": 1823,
  "halitt@@": 1824,
  "ensa": 1825,
  "rag@@": 1826,
  "Kalmomin": 1827,
  "faruwa": 1828,
  "gaɗi": 1829,
  "jir@@": 1830,
  "Facebook": 1831,
  "kul@@": 1832,
  "Tr@@": 1833,
  "Adamu": 1834,
  "te@@": 1835,
  "bat@@": 1836,
  "umar@@": 1837,
  "mug@@": 1838,
  "2:@@": 1839,
  "kammala": 1840,
  "sauri": 1841,
  "48@@": 1842,
  "ent": 1843,
  "kalmomin": 1844,
  "fuskanta": 1845,
  "ing,": 1846,
  "oc@@": 1847,
  "iPhone": 1848,
  "zabi": 1849,
  "shigar": 1850,
  "din": 1851,
  "����@@": 1852,
  "in:": 1853,
  "has@@": 1854,
  "Ni": 1855,
  "girman": 1856,
  "ra’ayin": 1857,
  "Gid@@": 1858,
  "wurare": 1859,
  "Taim@@": 1860,
  "2014": 1861,
  "Hot@@": 1862,
  "Haruna": 1863,
  "liss@@": 1864,
  "ID@@": 1865,
  "ta.": 1866,
  "hankal@@": 1867,
  "hot@@": 1868,
  "Ma'@@": 1869,
  "ans@@": 1870,
  "bi@@": 1871,
  "Kor@@": 1872,
  "iye": 1873,
  "eb@@": 1874,
  "ƙud@@": 1875,
  "acc@@": 1876,
  "Sc@@": 1877,
  "AS@@": 1878,
  "iyo": 1879,
  "haƙuri": 1880,
  "42": 1881,
  "Su@@": 1882,
  "CH@@": 1883,
  "fuskantar": 1884,
  "SA": 1885,
  "bã@@": 1886,
  "almajiransa": 1887,
  "US@@": 1888,
  "be": 1889,
  "Or@@": 1890,
  "و": 1891,
  "Shiga": 1892,
  "com@@": 1893,
  "ISO@@": 1894,
  "day@@": 1895,
  "en,": 1896,
  "Sin": 1897,
  "ž@@": 1898,
  "Y": 1899,
  "ranka#@@": 1900,
  "(5@@": 1901,
  "Zan": 1902,
  "IK@@": 1903,
  "gode": 1904,
  "Amfani": 1905,
  "no": 1906,
  "Sar@@": 1907,
  "3.": 1908,
  "tara": 1909,
  "Almasihu": 1910,
  "albark@@": 1911,
  "&@@": 1912,
  "cinik@@": 1913,
  "haɗ@@": 1914,
  "Un@@": 1915,
  "faɗ@@": 1916,
  "gun@@": 1917,
  "alkawarin": 1918,
  "binciken": 1919,
  "48": 1920,
  "iyoyi": 1921,
  "Korinthiyawa": 1922,
  "ɗauka": 1923,
  "umb@@": 1924,
  "4-@@": 1925,
  "Wan@@": 1926,
  "fitar": 1927,
  "for@@": 1928,
  "Ɗan": 1929,
  "Hausa": 1930,
  "oy@@": 1931,
  "ucin": 1932,
  "Ba@@": 1933,
  "giz@@": 1934,
  "jagor@@": 1935,
  "jan@@": 1936,
  "hasken": 1937,
  "ا@@": 1938,
  "ack": 1939,
  "ƙoƙarin": 1940,
  "tuba": 1941,
  "damuwa": 1942,
  "gwajin": 1943,
  "fl@@": 1944,
  "mul@@": 1945,
  "Littafin": 1946,
  "Fir@@": 1947,
  "al-@@": 1948,
  "Biyu": 1949,
  "In": 1950,
  "LA@@": 1951,
  "tambaya": 1952,
  "Allah,": 1953,
  "aga": 1954,
  "YI": 1955,
  "es.": 1956,
  "magan@@": 1957,
  "41": 1958,
  "can@@": 1959,
  "44": 1960,
  "yiwuwa": 1961,
  "Nuna": 1962,
  "artar": 1963,
  "dand@@": 1964,
  "bayanin": 1965,
  "al’ummai": 1966,
  "ma’@@": 1967,
  "3:@@": 1968,
  "Sab@@": 1969,
  "cibiyar": 1970,
  "goma": 1971,
  "Mot@@": 1972,
  "kasuwan@@": 1973,
  "bab@@": 1974,
  "okin": 1975,
  "bug@@": 1976,
  "ity": 1977,
  "Dukan": 1978,
  "wa:": 1979,
  "Tas@@": 1980,
  "jaw@@": 1981,
  "sa’@@": 1982,
  "ci.": 1983,
  "uki": 1984,
  "imani": 1985,
  "umurnin": 1986,
  "Our": 1987,
  "cikinsu": 1988,
  "haifar": 1989,
  "daidaita": 1990,
  "mulki": 1991,
  "saman": 1992,
  "ics": 1993,
  "oll@@": 1994,
  "wadanda": 1995,
  "bayyan@@": 1996,
  "ushi": 1997,
  "KI": 1998,
  "ya’yan": 1999,
  "ide@@": 2000,
  "aji": 2001,
  "kar": 2002,
  "gafarta": 2003,
  "ƙarƙashin": 2004,
  "karkashin": 2005,
  "horo": 2006,
  "Hak@@": 2007,
  "nau'@@": 2008,
  "bambanta": 2009,
  "lalata": 2010,
  "At@@": 2011,
  "mataki": 2012,
  "mo@@": 2013,
  "Irmiya": 2014,
  "Sanin": 2015,
  "arki": 2016,
  "Dokar": 2017,
  "tsaro": 2018,
  "ation@@": 2019,
  "gudun": 2020,
  "%@@": 2021,
  "ari@@": 2022,
  "matsala": 2023,
  "daidait@@": 2024,
  "sakamako": 2025,
  "Bu@@": 2026,
  "keɓe": 2027,
  "dawo": 2028,
  "yanay@@": 2029,
  "sunã": 2030,
  "Windows": 2031,
  "BA": 2032,
  "www.@@": 2033,
  "To@@": 2034,
  "iyarmu": 2035,
  "Fu@@": 2036,
  "he@@": 2037,
  "Binciken": 2038,
  "begen": 2039,
  "aren": 2040,
  "=": 2041,
  "Bakin": 2042,
  "gizon": 2043,
  "/0@@": 2044,
  "900@@": 2045,
  "gwiwa": 2046,
  "cire": 2047,
  "itin": 2048,
  "attun": 2049,
  "Allah@@": 2050,
  "uwa,": 2051,
  "KI@@": 2052,
  "Shirin": 2053,
  "adam": 2054,
  "littattafai": 2055,
  "rab@@": 2056,
  "65@@": 2057,
  "afawa": 2058,
  "kaɗan": 2059,
  "iti": 2060,
  "anna@@": 2061,
  "rig@@": 2062,
  "tashin": 2063,
  "ver@@": 2064,
  "iyarsa": 2065,
  "EA": 2066,
  "…": 2067,
  "zuba": 2068,
  "kay@@": 2069,
  "sa'an": 2070,
  "jig@@": 2071,
  "jami'@@": 2072,
  "fuskanci": 2073,
  "bidiyo": 2074,
  "iyar@@": 2075,
  "wasanni": 2076,
  "43": 2077,
  "ace@@": 2078,
  "Free": 2079,
  "koyarwar": 2080,
  "Yayin": 2081,
  "HA@@": 2082,
  "dutse": 2083,
  "fi@@": 2084,
  "atarwa": 2085,
  "cim": 2086,
  "Qu@@": 2087,
  "arku": 2088,
  "sit@@": 2089,
  "ka.": 2090,
  "mota": 2091,
  "MU": 2092,
  "Sak@@": 2093,
  "'a": 2094,
  "sauki": 2095,
  "ky@@": 2096,
  "ire": 2097,
  "waɗansu": 2098,
  "ibi": 2099,
  "mace": 2100,
  "kõ@@": 2101,
  "omi": 2102,
  "kare": 2103,
  "m,": 2104,
  "oci": 2105,
  "shugaban": 2106,
  "samuwa": 2107,
  "Bayani": 2108,
  "ram@@": 2109,
  "sy@@": 2110,
  "tsoro": 2111,
  "ink@@": 2112,
  "labar@@": 2113,
  "Tun@@": 2114,
  "Waɗanda": 2115,
  "75@@": 2116,
  "AP@@": 2117,
  "WAN@@": 2118,
  "Afrilu": 2119,
  "halaye": 2120,
  "Janairu": 2121,
  "ocin": 2122,
  "auta": 2123,
  "biyar": 2124,
  "ie": 2125,
  "alla": 2126,
  "gask@@": 2127,
  "ve": 2128,
  "shar@@": 2129,
  "addini": 2130,
  "ƙasashe": 2131,
  "Sake": 2132,
  "Tal@@": 2133,
  "Gama": 2134,
  "ay": 2135,
  "al’@@": 2136,
  "aut@@": 2137,
  "Fabrairu": 2138,
  "samaniya": 2139,
  "video": 2140,
  "10.@@": 2141,
  "gaskiyar": 2142,
  "ƙan@@": 2143,
  "gudu": 2144,
  "Kw@@": 2145,
  "karatu": 2146,
  "miliyan": 2147,
  "ni,": 2148,
  "wace": 2149,
  "mab@@": 2150,
  "kim@@": 2151,
  "naɗa": 2152,
  "ra’ay@@": 2153,
  "up@@": 2154,
  "lal@@": 2155,
  "end@@": 2156,
  "ƙin": 2157,
  "ist": 2158,
  "tsan@@": 2159,
  "faranta": 2160,
  "kudin": 2161,
  "inj@@": 2162,
  "tsira": 2163,
  "tushen": 2164,
  "ashen": 2165,
  "hu@@": 2166,
  "bawan": 2167,
  "u:": 2168,
  "Kawai": 2169,
  "auna": 2170,
  "est": 2171,
  "fad@@": 2172,
  "dõmin": 2173,
  "Le@@": 2174,
  "ill": 2175,
  "ə@@": 2176,
  "roƙ@@": 2177,
  "rinj@@": 2178,
  "mi": 2179,
  "able": 2180,
  "io": 2181,
  "Mis": 2182,
  "gayy@@": 2183,
  "re": 2184,
  "Afisawa": 2185,
  "gor@@": 2186,
  "pe@@": 2187,
  "Timothawus": 2188,
  "Hotuna": 2189,
  "Te@@": 2190,
  "68@@": 2191,
  "ide": 2192,
  "babbar": 2193,
  "onmu": 2194,
  "ite": 2195,
  "talifin": 2196,
  "77@@": 2197,
  "Nuwamba": 2198,
  "gā@@": 2199,
  "Abu": 2200,
  "amin": 2201,
  "):": 2202,
  "ado": 2203,
  "bukatun": 2204,
  "ive": 2205,
  "ƙungiyar": 2206,
  "shak@@": 2207,
  "zafi": 2208,
  "Yanar": 2209,
  "ya.": 2210,
  "ene": 2211,
  "na@@": 2212,
  "Rom": 2213,
  "Cibiyar": 2214,
  "To": 2215,
  "bobin": 2216,
  "ensu": 2217,
  "Az@@": 2218,
  "Satumba": 2219,
  "ruhun": 2220,
  "arren": 2221,
  "Fit@@": 2222,
  "nam@@": 2223,
  "lõkacin": 2224,
  "ON": 2225,
  "da.": 2226,
  "oki": 2227,
  "Istanbul": 2228,
  "ãy@@": 2229,
  "Ban@@": 2230,
  "Bai": 2231,
  "buɗe": 2232,
  "bimbini": 2233,
  "47@@": 2234,
  "annabi": 2235,
  "Yaƙub": 2236,
  "ƙwazo": 2237,
  "nuni": 2238,
  "tambayar": 2239,
  "sauransu": 2240,
  "Haka": 2241,
  "Ray@@": 2242,
  "wakil@@": 2243,
  "Al-@@": 2244,
  "bude": 2245,
  "hi": 2246,
  "tace": 2247,
  "uran": 2248,
  "ariya": 2249,
  "ail@@": 2250,
  "ik": 2251,
  "1,@@": 2252,
  "mara": 2253,
  "fus@@": 2254,
  "ther@@": 2255,
  "aff@@": 2256,
  "Bugu": 2257,
  "lokatai": 2258,
  "kya@@": 2259,
  "itt@@": 2260,
  "ƙir@@": 2261,
  "1/@@": 2262,
  "ase": 2263,
  "Abubuwan": 2264,
  "sayarwa": 2265,
  "Had@@": 2266,
  "ƙarf@@": 2267,
  "rayuw@@": 2268,
  "rat@@": 2269,
  "Mad@@": 2270,
  "asar": 2271,
  "Af@@": 2272,
  "ical": 2273,
  "maj@@": 2274,
  "yp@@": 2275,
  "ear@@": 2276,
  "ofi": 2277,
  "sã@@": 2278,
  "ER@@": 2279,
  "saya": 2280,
  "hask@@": 2281,
  "emb@@": 2282,
  "Tarihi": 2283,
  "mutuwar": 2284,
  "anda": 2285,
  "aiki,": 2286,
  "jo@@": 2287,
  "aita": 2288,
  "kwana": 2289,
  "i)": 2290,
  "Bir@@": 2291,
  "She@@": 2292,
  "Ru@@": 2293,
  "Hanyar": 2294,
  "200": 2295,
  "sarki": 2296,
  "unt@@": 2297,
  "ukar": 2298,
  "waɗanne": 2299,
  "More": 2300,
  "iyak@@": 2301,
  "m.": 2302,
  "sarrafa": 2303,
  "He@@": 2304,
  "Lab@@": 2305,
  "karɓi": 2306,
  "utar": 2307,
  "LI@@": 2308,
  "Turanci": 2309,
  "99": 2310,
  "layi": 2311,
  "damu": 2312,
  "mutum@@": 2313,
  "canza": 2314,
  "fark@@": 2315,
  "University": 2316,
  "500": 2317,
  "ingancin": 2318,
  "bl@@": 2319,
  "si": 2320,
  "guji": 2321,
  "farkon": 2322,
  "Luk": 2323,
  "sau@@": 2324,
  "CE,": 2325,
  "bayan@@": 2326,
  "almajir@@": 2327,
  "go": 2328,
  "aro": 2329,
  "Nassosi": 2330,
  "Wace": 2331,
  "Disamba": 2332,
  "Kay@@": 2333,
  "SU@@": 2334,
  "ƙwar@@": 2335,
  "baut@@": 2336,
  "zaune": 2337,
  "KU@@": 2338,
  "Sy@@": 2339,
  "yan’uwanmu": 2340,
  "dat@@": 2341,
  "ne.": 2342,
  "Ayukan": 2343,
  "saƙon": 2344,
  "iji": 2345,
  "tsaya": 2346,
  "3,": 2347,
  "Products": 2348,
  "nagarta": 2349,
  "Bab@@": 2350,
  "Fas@@": 2351,
  "ayen@@": 2352,
  "kull@@": 2353,
  "wall@@": 2354,
  "hur@@": 2355,
  "awa.": 2356,
  "canje": 2357,
  "cut@@": 2358,
  "Markus": 2359,
  "Tim": 2360,
  "fir@@": 2361,
  "inin": 2362,
  "low": 2363,
  "Hu@@": 2364,
  "6-@@": 2365,
  "manta": 2366,
  "gark@@": 2367,
  "karfin": 2368,
  "matsa": 2369,
  "Nuhu": 2370,
  "46": 2371,
  "ziyar@@": 2372,
  "KUMA": 2373,
  "utu": 2374,
  "zab@@": 2375,
  "karɓ@@": 2376,
  "za'a": 2377,
  "halarci": 2378,
  "kasuwa": 2379,
  "bege": 2380,
  "rasa": 2381,
  "Kud@@": 2382,
  "9:@@": 2383,
  "kwanan": 2384,
  "filin": 2385,
  "ziyarci": 2386,
  ".,": 2387,
  "Maj@@": 2388,
  "Dole": 2389,
  "laf@@": 2390,
  "bayanan": 2391,
  "saukar": 2392,
  "ƙar": 2393,
  "07@@": 2394,
  "87@@": 2395,
  "4.": 2396,
  "yanki": 2397,
  "magance": 2398,
  "ary": 2399,
  "tarihi": 2400,
  "auren@@": 2401,
  "ibada": 2402,
  "kuɗin": 2403,
  "yl@@": 2404,
  "uku@@": 2405,
  "SHI@@": 2406,
  "kwal@@": 2407,
  "ceto": 2408,
  "11@@": 2409,
  "bayinsa": 2410,
  "iyakar": 2411,
  "waye": 2412,
  "dokar": 2413,
  "All@@": 2414,
  "ɗan’uwa": 2415,
  "faɗin": 2416,
  "juya": 2417,
  "Ibran": 2418,
  "jiragen": 2419,
  "lin@@": 2420,
  "makam@@": 2421,
  "Se@@": 2422,
  "fanel": 2423,
  "Kir@@": 2424,
  "kashi": 2425,
  "Litt@@": 2426,
  "jini": 2427,
  "zaka": 2428,
  "rukunin": 2429,
  "Of@@": 2430,
  "dogon": 2431,
  "garin": 2432,
  "ial": 2433,
  "Tabb@@": 2434,
  "nuf@@": 2435,
  "55": 2436,
  "huɗu": 2437,
  "Sur@@": 2438,
  "KAR@@": 2439,
  "od": 2440,
  "Oktoba": 2441,
  "ri": 2442,
  "Aka": 2443,
  "to,": 2444,
  "Co.,": 2445,
  "tsabta": 2446,
  "tsark@@": 2447,
  "aikat@@": 2448,
  "Mus@@": 2449,
  "i’@@": 2450,
  "aton": 2451,
  "iyayen@@": 2452,
  "90": 2453,
  "ungiyar": 2454,
  "Gaskiya": 2455,
  "·": 2456,
  "akwatin": 2457,
  "baƙ@@": 2458,
  "ian@@": 2459,
  "65": 2460,
  "Harkokin": 2461,
  "yo": 2462,
  "Gud@@": 2463,
  "...]": 2464,
  "Rub@@": 2465,
  "a’a": 2466,
  "Ph@@": 2467,
  "ium": 2468,
  "ya’yan@@": 2469,
  "ated": 2470,
  "yaushe": 2471,
  "dur=\"2.@@": 2472,
  "ric@@": 2473,
  "Ik@@": 2474,
  "Kuna": 2475,
  "hukun@@": 2476,
  "tsay@@": 2477,
  "Min@@": 2478,
  "iyyar": 2479,
  "Kafin": 2480,
  "Kirist@@": 2481,
  "duniya.": 2482,
  "wuraren": 2483,
  "abun": 2484,
  "ike": 2485,
  "Yuni": 2486,
  "uwa.": 2487,
  "[More": 2488,
  "makaranta": 2489,
  "NA@@": 2490,
  "Dub@@": 2491,
  "Sulemanu": 2492,
  "Ne": 2493,
  "Beach": 2494,
  "mako": 2495,
  "bututu": 2496,
  "dur=\"1.@@": 2497,
  "bakwai": 2498,
  "kom@@": 2499,
  "Bit": 2500,
  "Ma": 2501,
  "tarayya": 2502,
  ".com/@@": 2503,
  "dukkan": 2504,
  "NE@@": 2505,
  "saƙ@@": 2506,
  "sauransu.": 2507,
  "Hasumiyar": 2508,
  "shirye-@@": 2509,
  "-shi": 2510,
  "shawar@@": 2511,
  "ora": 2512,
  "Jamus": 2513,
  "launi": 2514,
  "kark@@": 2515,
  "br@@": 2516,
  "Shin@@": 2517,
  "taimaki": 2518,
  "ash": 2519,
  "5,": 2520,
  "kok@@": 2521,
  "Ya@@": 2522,
  "blog": 2523,
  "Th@@": 2524,
  "Kal@@": 2525,
  "fe@@": 2526,
  "cike": 2527,
  "sukan": 2528,
  "47": 2529,
  "zafin": 2530,
  "kak@@": 2531,
  "miz@@": 2532,
  "mall@@": 2533,
  "matarsa": 2534,
  "Online": 2535,
  "De@@": 2536,
  "Far": 2537,
  "EN@@": 2538,
  "SAR@@": 2539,
  "halayen": 2540,
  "gr@@": 2541,
  "kud": 2542,
  "zahiri": 2543,
  "tumaki": 2544,
  "dis@@": 2545,
  "Res@@": 2546,
  "Gir@@": 2547,
  "Ka@@": 2548,
  "dokok@@": 2549,
  "ilar": 2550,
  "ciwon": 2551,
  "!@@": 2552,
  "fahimtar": 2553,
  "ƙe": 2554,
  "5:@@": 2555,
  "wajibi": 2556,
  "ƙananan": 2557,
  "5.": 2558,
  "enmu": 2559,
  "a-shi,": 2560,
  "net@@": 2561,
  "amint@@": 2562,
  "Tim@@": 2563,
  "Sa'an": 2564,
  "Amirka": 2565,
  "gare@@": 2566,
  "hukunci": 2567,
  "matakin": 2568,
  "ajin": 2569,
  "mu,": 2570,
  "cr@@": 2571,
  "ON@@": 2572,
  "ens@@": 2573,
  "bonus": 2574,
  "adadin": 2575,
  "tambayi": 2576,
  "FA@@": 2577,
  "zuciyarmu": 2578,
  "a’i": 2579,
  "iyata": 2580,
  "rayuwarmu": 2581,
  "atawa": 2582,
  "SU": 2583,
  "Shar@@": 2584,
  "shafukan": 2585,
  "Pol@@": 2586,
  "rubutu": 2587,
  "Bitcoin": 2588,
  "do": 2589,
  "uma": 2590,
  "a!": 2591,
  "100%": 2592,
  "gaj@@": 2593,
  "annabta": 2594,
  "sc@@": 2595,
  "cet@@": 2596,
  "RO@@": 2597,
  "haif@@": 2598,
  "bin@@": 2599,
  "idan@@": 2600,
  "na'ur@@": 2601,
  "Ing@@": 2602,
  "High": 2603,
  "Kara": 2604,
  "For@@": 2605,
  "Ruhu": 2606,
  "Ilimin": 2607,
  "Duba": 2608,
  "yaren": 2609,
  "Mayu": 2610,
  "fata": 2611,
  "ord@@": 2612,
  "Labar@@": 2613,
  "08@@": 2614,
  "kyawun": 2615,
  "era": 2616,
  "in-@@": 2617,
  "tashar": 2618,
  "nag@@": 2619,
  "70": 2620,
  "eng@@": 2621,
  "kwanciyar": 2622,
  "tattaunawa": 2623,
  "muhim@@": 2624,
  "ihi": 2625,
  "sassa": 2626,
  "Cr@@": 2627,
  "usa": 2628,
  "ran": 2629,
  "ƙur@@": 2630,
  "lamba": 2631,
  "da’@@": 2632,
  "ƙai": 2633,
  "Ruwa": 2634,
  ".com@@": 2635,
  "o:": 2636,
  "(2)": 2637,
  "bashi": 2638,
  "raun@@": 2639,
  "uke": 2640,
  "cuta": 2641,
  "Matiyu": 2642,
  "pt@@": 2643,
  "Bayanai": 2644,
  "dalla": 2645,
  "mulkin": 2646,
  "haƙ@@": 2647,
  "Na'@@": 2648,
  "up": 2649,
  "zag@@": 2650,
  "55@@": 2651,
  "sif@@": 2652,
  "daɗi": 2653,
  "4,": 2654,
  "tamani": 2655,
  "zã": 2656,
  "49": 2657,
  "mene": 2658,
  "95": 2659,
  "Do@@": 2660,
  ".0@@": 2661,
  "jer@@": 2662,
  "jira": 2663,
  "yaransu": 2664,
  "tsare": 2665,
  "KE": 2666,
  "Nem@@": 2667,
  "zuciyar": 2668,
  "dan@@": 2669,
  "ms": 2670,
  "isan": 2671,
  "zuk@@": 2672,
  "shige": 2673,
  "ukun@@": 2674,
  "arrun": 2675,
  "Hann@@": 2676,
  "Samun": 2677,
  "fari": 2678,
  "11:@@": 2679,
  "aniya": 2680,
  "wutar": 2681,
  "ki@@": 2682,
  "ma’aurata": 2683,
  "dauki": 2684,
  "oli": 2685,
  "ajiye": 2686,
  "tallace-tallace": 2687,
  "zaɓa": 2688,
  "ƙung@@": 2689,
  "bak@@": 2690,
  "banza": 2691,
  "Je@@": 2692,
  "taimak@@": 2693,
  "Im@@": 2694,
  "doka": 2695,
  "asali": 2696,
  "mutan@@": 2697,
  "tattoo": 2698,
  "nufinsa": 2699,
  "ia,": 2700,
  "Sani": 2701,
  "ut": 2702,
  "Mahalic@@": 2703,
  "3,@@": 2704,
  "manuf@@": 2705,
  "saurari": 2706,
  "ps": 2707,
  "Jin": 2708,
  "imas#@@": 2709,
  "rid@@": 2710,
  "Karin": 2711,
  "wah@@": 2712,
  "umma": 2713,
  "Kur@@": 2714,
  "tunan@@": 2715,
  "dabar@@": 2716,
  "Tall@@": 2717,
  "amm@@": 2718,
  "tasiri": 2719,
  "Marmari": 2720,
  "Aika": 2721,
  "bikin": 2722,
  "shari’a": 2723,
  "gwamnat@@": 2724,
  "yawan@@": 2725,
  "2012": 2726,
  "mun@@": 2727,
  "tare#@@": 2728,
  "tube": 2729,
  "»": 2730,
  "'yan@@": 2731,
  "ɗan’@@": 2732,
  "odi": 2733,
  "S,": 2734,
  "osh@@": 2735,
  "ɓe": 2736,
  "tattalin": 2737,
  "kewaye": 2738,
  "ser@@": 2739,
  "sel@@": 2740,
  "Sarkin": 2741,
  "Car@@": 2742,
  "Yake": 2743,
  "Ap@@": 2744,
  "gidajen": 2745,
  "Babila": 2746,
  "(10@@": 2747,
  "tabbacin": 2748,
  "karin": 2749,
  "taba": 2750,
  "tat@@": 2751,
  "ore@@": 2752,
  "an-@@": 2753,
  "lamb@@": 2754,
  "land": 2755,
  "Shine": 2756,
  "ol": 2757,
  "aiko": 2758,
  "aiki.": 2759,
  "sababbin": 2760,
  "hadaya": 2761,
  "Was@@": 2762,
  "kwarewa": 2763,
  "FI": 2764,
  "aku": 2765,
  "marub@@": 2766,
  "Intan@@": 2767,
  "fahimta": 2768,
  "Yahuda": 2769,
  "koda:": 2770,
  "ow": 2771,
  "alamar": 2772,
  "karantawa": 2773,
  "OM@@": 2774,
  "ici": 2775,
  "tan": 2776,
  "arwa,": 2777,
  "ey@@": 2778,
  "lim@@": 2779,
  "quality": 2780,
  "Mur@@": 2781,
  "sk@@": 2782,
  "ajiya": 2783,
  "ade": 2784,
  "nauyi": 2785,
  "y.": 2786,
  "RE@@": 2787,
  "aɓ@@": 2788,
  "siff@@": 2789,
  "ayyar": 2790,
  "Ɗansa": 2791,
  "dom@@": 2792,
  "amar@@": 2793,
  "??@@": 2794,
  "Filib@@": 2795,
  "matsak@@": 2796,
  "matsay@@": 2797,
  "baƙi": 2798,
  "omin": 2799,
  "bamb@@": 2800,
  "500@@": 2801,
  "lik@@": 2802,
  "amfanin": 2803,
  "yaro": 2804,
  "Yusufu": 2805,
  "jama’a": 2806,
  "TO@@": 2807,
  "iyalin": 2808,
  "matar": 2809,
  "Roma": 2810,
  "mil@@": 2811,
  "kasashen": 2812,
  "cre@@": 2813,
  "dal@@": 2814,
  "£": 2815,
  "annabcin": 2816,
  "attu": 2817,
  "95@@": 2818,
  "alh@@": 2819,
  "keway@@": 2820,
  "gad@@": 2821,
  "God@@": 2822,
  "kall@@": 2823,
  "cinmu": 2824,
  "danna": 2825,
  "Car": 2826,
  "is,": 2827,
  "dalili": 2828,
  "allon": 2829,
  "10:@@": 2830,
  "shida": 2831,
  "--@@": 2832,
  "ular": 2833,
  "ihar": 2834,
  "kwamfuta": 2835,
  "annabci": 2836,
  "ƙa’idodin": 2837,
  "Tsar@@": 2838,
  "ating": 2839,
  "Mon@@": 2840,
  "ĩmã@@": 2841,
  "atomatik": 2842,
  "ƙun@@": 2843,
  "kalmomi": 2844,
  "urar": 2845,
  "adar": 2846,
  "WordPress": 2847,
  "s.@@": 2848,
  "~": 2849,
  "jari": 2850,
  "SHI": 2851,
  "but@@": 2852,
  "Nas@@": 2853,
  "shafe": 2854,
  "Iya": 2855,
  "gaf@@": 2856,
  "maƙ@@": 2857,
  "kiwon": 2858,
  "ƙari": 2859,
  "ɗalib@@": 2860,
  "97@@": 2861,
  "matsalar": 2862,
  "adu": 2863,
  "a,@@": 2864,
  "Iblis": 2865,
  "matsayi": 2866,
  "pr@@": 2867,
  "Maryamu": 2868,
  "Bang@@": 2869,
  "Tambayoyi": 2870,
  "Nan": 2871,
  "wallafa": 2872,
  "tuk@@": 2873,
  "Hana": 2874,
  "me@@": 2875,
  "kwanakin": 2876,
  "mabiyansa": 2877,
  "mm@@": 2878,
  "ight@@": 2879,
  "Ainihin": 2880,
  "shaid@@": 2881,
  "dur=\"3.@@": 2882,
  "bautar": 2883,
  "po@@": 2884,
  "kallon": 2885,
  "š@@": 2886,
  "Ay@@": 2887,
  "kiran": 2888,
  "CS@@": 2889,
  "sarautar": 2890,
  "shari@@": 2891,
  "furta": 2892,
  "22@@": 2893,
  "tafiyar": 2894,
  "tab@@": 2895,
  "rev@@": 2896,
  "kawa@@": 2897,
  "fat@@": 2898,
  "Nag@@": 2899,
  "umurni": 2900,
  "anu": 2901,
  "Iliya": 2902,
  "SAN@@": 2903,
  "akon": 2904,
  "ep@@": 2905,
  "sha'@@": 2906,
  "e)": 2907,
  "58@@": 2908,
  "ussa": 2909,
  "ifin": 2910,
  "Me@@": 2911,
  "ena": 2912,
  "Muka": 2913,
  "ick@@": 2914,
  "tanadin": 2915,
  "ard": 2916,
  "kwakwal@@": 2917,
  "log@@": 2918,
  "a'a": 2919,
  "Kur'ani": 2920,
  "2017@@": 2921,
  "tarihin": 2922,
  "ant": 2923,
  "It@@": 2924,
  "pan@@": 2925,
  "anti": 2926,
  "fah@@": 2927,
  "iyarsu": 2928,
  "makiy@@": 2929,
  "addu’@@": 2930,
  "ost@@": 2931,
  "Hanya": 2932,
  "kash@@": 2933,
  "Agusta": 2934,
  "on.": 2935,
  "Ak@@": 2936,
  "aiwatar": 2937,
  "Mini-@@": 2938,
  "fan@@": 2939,
  "Zama": 2940,
  "yab@@": 2941,
  "akk@@": 2942,
  "mala’iku": 2943,
  "land@@": 2944,
  "ia@@": 2945,
  "dokokin": 2946,
  "labari": 2947,
  "bas@@": 2948,
  "Col@@": 2949,
  "Sunan": 2950,
  "shelar": 2951,
  "magani": 2952,
  "Bisa": 2953,
  "ile": 2954,
  "Wa": 2955,
  "Yuli": 2956,
  "Waj@@": 2957,
  "sauke": 2958,
  "33@@": 2959,
  "kamfanoni": 2960,
  "GA@@": 2961,
  "hakkin": 2962,
  "dangantak@@": 2963,
  "gi": 2964,
  "Masar": 2965,
  "talak@@": 2966,
  "Yakubu": 2967,
  "ust@@": 2968,
  "Lit@@": 2969,
  "To,": 2970,
  "ific@@": 2971,
  "arwa.": 2972,
  "aid@@": 2973,
  "ks": 2974,
  "al’am@@": 2975,
  "FI@@": 2976,
  "NAN": 2977,
  "aikace-aikace": 2978,
  "Nakadashi": 2979,
  "ife": 2980,
  "pre@@": 2981,
  "annu": 2982,
  "shekarar": 2983,
  "ƙof@@": 2984,
  "gidaj@@": 2985,
  "abin@@": 2986,
  "ue": 2987,
  "el,": 2988,
  "zarafin": 2989,
  "yak@@": 2990,
  "Mataki": 2991,
  "hat@@": 2992,
  "D,": 2993,
  "tsab@@": 2994,
  "ES@@": 2995,
  "4:@@": 2996,
  "iw@@": 2997,
  "ɓoye": 2998,
  "(a.s)": 2999,
  "himman@@": 3000,
  "Nassi": 3001,
  "fe": 3002,
  "roba": 3003,
  "canj@@": 3004,
  "om": 3005,
  "fo@@": 3006,
  "tura": 3007,
  "kimiyya": 3008,
  "ma'aikata": 3009,
  "gwaj@@": 3010,
  "Fo@@": 3011,
  "Train": 3012,
  "12:@@": 3013,
  "suk@@": 3014,
  "karshen": 3015,
  "di": 3016,
  "}": 3017,
  "Sil@@": 3018,
  "DU@@": 3019,
  "Mutanen": 3020,
  "Na@@": 3021,
  "amp@@": 3022,
  "Technology": 3023,
  "6.": 3024,
  "saut@@": 3025,
  "gari": 3026,
  "Sait@@": 3027,
  "aic@@": 3028,
  "yakan": 3029,
  "198@@": 3030,
  "girmama": 3031,
  "iƙa": 3032,
  "ayan": 3033,
  "Isha": 3034,
  "hamayya": 3035,
  "isi": 3036,
  "shawarwari": 3037,
  "taur@@": 3038,
  "na'urar": 3039,
  "agg@@": 3040,
  "300@@": 3041,
  "yoyin": 3042,
  "unsu": 3043,
  "antawa": 3044,
  "wann@@": 3045,
  "aikatan": 3046,
  "aƙa": 3047,
  "zuc@@": 3048,
  "mala’@@": 3049,
  ";@@": 3050,
  "”@@": 3051,
  "harsuna": 3052,
  "samfur@@": 3053,
  "98@@": 3054,
  "ry": 3055,
  "Tuntuɓi": 3056,
  "gorar": 3057,
  "YO@@": 3058,
  "ance@@": 3059,
  "Fe@@": 3060,
  "Gre@@": 3061,
  "amman@@": 3062,
  "Naz@@": 3063,
  "Dan": 3064,
  "antin": 3065,
  "gargaɗin": 3066,
  "La@@": 3067,
  "chat": 3068,
  "Jami'ar": 3069,
  "barin": 3070,
  "kyaut@@": 3071,
  "Gr@@": 3072,
  "iah": 3073,
  "gine": 3074,
  "ra'@@": 3075,
  "CE/@@": 3076,
  "littattafan": 3077,
  "wasi@@": 3078,
  "alkawar@@": 3079,
  "nan:": 3080,
  "ikan": 3081,
  "Hasiya": 3082,
  "tsofaffi": 3083,
  "mon@@": 3084,
  "yi,": 3085,
  "YAN@@": 3086,
  "data": 3087,
  "jama'a": 3088,
  "kad@@": 3089,
  "ma.": 3090,
  "#fute": 3091,
  "shiryen": 3092,
  "waƙa": 3093,
  "zir@@": 3094,
  "buƙatar": 3095,
  "ech@@": 3096,
  "ƙasashen": 3097,
  "rufi": 3098,
  "46@@": 3099,
  "Fl@@": 3100,
  "ions": 3101,
  "sunansa": 3102,
  "32@@": 3103,
  "ere": 3104,
  "CRI": 3105,
  "masana'ant@@": 3106,
  "Ltd.": 3107,
  "sirri": 3108,
  "haɗari": 3109,
  "Fin@@": 3110,
  "Tuntuɓi": 3111,
  "Ai@@": 3112,
  "ain": 3113,
  "Met@@": 3114,
  "CA@@": 3115,
  "Hukumar": 3116,
  "Daid@@": 3117,
  "Ke@@": 3118,
  "dut@@": 3119,
  "kaina": 3120,
  "Gwa@@": 3121,
  "aici": 3122,
  "Shari’a": 3123,
  "Mata": 3124,
  "(1@@": 3125,
  "Ubangiji,": 3126,
  "murna": 3127,
  "Hakazalika": 3128,
  "him@@": 3129,
  "mu.": 3130,
  "unawa": 3131,
  "X-@@": 3132,
  "sha@@": 3133,
  "8-@@": 3134,
  "Nazarin": 3135,
  "7/@@": 3136,
  "dalilai": 3137,
  "tatto@@": 3138,
  "A-@@": 3139,
  "hidim@@": 3140,
  "Yak@@": 3141,
  "Magana": 3142,
  "Mik@@": 3143,
  "ceci": 3144,
  "Ju@@": 3145,
  "les": 3146,
  "OR@@": 3147,
  "bayarwa": 3148,
  "fayil": 3149,
  "bud@@": 3150,
  "haifi": 3151,
  "malam@@": 3152,
  "ds": 3153,
  "kokarin": 3154,
  "Talla": 3155,
  "Ky@@": 3156,
  "taƙ@@": 3157,
  "@": 3158,
  "mo": 3159,
  "tattara": 3160,
  "Kya@@": 3161,
  "Rasha": 3162,
  "ma’anar": 3163,
  "kalam@@": 3164,
  "Farashin": 3165,
  "alaka": 3166,
  "illa": 3167,
  "Hol@@": 3168,
  "dacewa": 3169,
  "Wurin": 3170,
  "matsalolin": 3171,
  "sura": 3172,
  "aha": 3173,
  "dabbobi": 3174,
  "（@@": 3175,
  "Musamman": 3176,
  "ass": 3177,
  "tabbat@@": 3178,
  "far": 3179,
  "cancanci": 3180,
  "tallafa": 3181,
  "haƙĩ@@": 3182,
  "sanyin": 3183,
  "talifi": 3184,
  "oni": 3185,
  "zal@@": 3186,
  "maƙwab@@": 3187,
  "bincik@@": 3188,
  "i!": 3189,
  "ator": 3190,
  "Manz@@": 3191,
  "・@@": 3192,
  "sat@@": 3193,
  "jejen@@": 3194,
  "Bl@@": 3195,
  "*@@": 3196,
  "kyautata": 3197,
  "tambaye": 3198,
  "=@@": 3199,
  "kyautar": 3200,
  "kuskure": 3201,
  "mazaun@@": 3202,
  "s:": 3203,
  "rarraba": 3204,
  "Kaya": 3205,
  "mallaka": 3206,
  "yanz@@": 3207,
  "Shim@@": 3208,
  "siyasa": 3209,
  "j": 3210,
  "Um@@": 3211,
  "Fa@@": 3212,
  "https://www.@@": 3213,
  "54": 3214,
  "halicci": 3215,
  "atun": 3216,
  "teku": 3217,
  "karshe": 3218,
  "maki": 3219,
  "udu": 3220,
  "un,": 3221,
  "A’a": 3222,
  "tsananta": 3223,
  "wayoyin": 3224,
  "Yã": 3225,
  "us,": 3226,
  "addinin": 3227,
  "51": 3228,
  "misalai": 3229,
  "sarai": 3230,
  "SE@@": 3231,
  "won": 3232,
  "las@@": 3233,
  "ZA@@": 3234,
  "ix@@": 3235,
  "ofishin": 3236,
  "Mashaid@@": 3237,
  "ogi": 3238,
  "(M@@": 3239,
  "sar": 3240,
  "hoton": 3241,
  "MAI": 3242,
  "darajar": 3243,
  "de": 3244,
  "Machine": 3245,
  "yay@@": 3246,
  "dalibai": 3247,
  "zaman@@": 3248,
  "Gizo": 3249,
  "barci": 3250,
  "bid@@": 3251,
  "2018@@": 3252,
  "Barin": 3253,
  "hik@@": 3254,
  "hoto@@": 3255,
  "‘@@": 3256,
  "tsufa": 3257,
  "yan’uwan@@": 3258,
  "coun@@": 3259,
  "ƙaunaci": 3260,
  "dauke": 3261,
  "kā@@": 3262,
  "sarkin": 3263,
  "KYAUTA": 3264,
  "ãwa": 3265,
  "ciyar": 3266,
  "Hosting": 3267,
  "Mark@@": 3268,
  "GPS": 3269,
  "Kaw@@": 3270,
  "Shinsaibashi": 3271,
  "ick": 3272,
  "gy@@": 3273,
  "fansa": 3274,
  "Pr@@": 3275,
  "City": 3276,
  "al'ada": 3277,
  "fili": 3278,
  "ni@@": 3279,
  "sas@@": 3280,
  "tsor@@": 3281,
  "str@@": 3282,
  "Kun@@": 3283,
  "Shaidu": 3284,
  "yon": 3285,
  "kalaman": 3286,
  "musul@@": 3287,
  "gin": 3288,
  "Nish@@": 3289,
  "kau@@": 3290,
  "nawa": 3291,
  "\",": 3292,
  "Kasuwancin": 3293,
  "Duk@@": 3294,
  "Shekar@@": 3295,
  "mumm@@": 3296,
  "300": 3297,
  "cha@@": 3298,
  "kariya": 3299,
  "ma'aikata,": 3300,
  "hotuna": 3301,
  "Dodo": 3302,
  "Ubansa": 3303,
  "nass@@": 3304,
  "assan": 3305,
  "maye": 3306,
  "49@@": 3307,
  "Ital@@": 3308,
  "ya’ya": 3309,
  "umin": 3310,
  "utan": 3311,
  "alkaw@@": 3312,
  "kayayyak@@": 3313,
  "?\"": 3314,
  "Tsak@@": 3315,
  "Girman": 3316,
  "katin": 3317,
  "kasuwar": 3318,
  "J": 3319,
  "San": 3320,
  "ƙarfe": 3321,
  "yal@@": 3322,
  "Samu@@": 3323,
  "asaka": 3324,
  "Amsa": 3325,
  "karfi": 3326,
  "Ajiye": 3327,
  "matashi": 3328,
  "arkin": 3329,
  "sawa": 3330,
  "tambayoyin": 3331,
  "dukiya": 3332,
  "uka@@": 3333,
  "Ham@@": 3334,
  "Shi@@": 3335,
  "ب@@": 3336,
  "par@@": 3337,
  "Girma": 3338,
  "karya": 3339,
  "Jer@@": 3340,
  "Bel@@": 3341,
  "Dis@@": 3342,
  "rund@@": 3343,
  "Timotawus": 3344,
  "tã@@": 3345,
  "alisar": 3346,
  "cryptocurrency": 3347,
  "USD": 3348,
  "Dat@@": 3349,
  "Ann@@": 3350,
  "gwamnati": 3351,
  "inganci": 3352,
  "ber@@": 3353,
  "nauyin": 3354,
  "enc@@": 3355,
  "fãce": 3356,
  "yarwa": 3357,
  "ni.": 3358,
  "Hy@@": 3359,
  "Afis": 3360,
  "hawa": 3361,
  "ton": 3362,
  "sojo@@": 3363,
  "tsakiyar": 3364,
  "kwaikway@@": 3365,
  "��@@": 3366,
  "Amur@@": 3367,
  "taimakawa": 3368,
  "Led": 3369,
  "kof@@": 3370,
  "ment": 3371,
  "alher@@": 3372,
  "(Kalam)": 3373,
  "jitu": 3374,
  "nat@@": 3375,
  "2,@@": 3376,
  "low@@": 3377,
  "net": 3378,
  "asib@@": 3379,
  "…@@": 3380,
  "bai@@": 3381,
  "Mutum": 3382,
  "▪": 3383,
  "Fitowa": 3384,
  "Ci": 3385,
  "Sau@@": 3386,
  "buk@@": 3387,
  "Huvafen": 3388,
  "International": 3389,
  "fayiloli": 3390,
  "gum@@": 3391,
  "ax@@": 3392,
  "ubar": 3393,
  "muhimmancin": 3394,
  "yan’uwan": 3395,
  "Kwan@@": 3396,
  "kenan": 3397,
  "download": 3398,
  "Buk@@": 3399,
  "Sha": 3400,
  "yaba": 3401,
  "kwayoyin": 3402,
  "Dab@@": 3403,
  "sin@@": 3404,
  "acewa": 3405,
  "ab": 3406,
  "ilu": 3407,
  "cib@@": 3408,
  "lad@@": 3409,
  "FX": 3410,
  "ates": 3411,
  "6:@@": 3412,
  "ɓangare": 3413,
  "(7@@": 3414,
  "Dak@@": 3415,
  "Bethel": 3416,
  "rubutun": 3417,
  "Gudanar": 3418,
  "wai": 3419,
  "ece": 3420,
  "Saul": 3421,
  "dur=\"4.@@": 3422,
  "So": 3423,
  "kanku": 3424,
  "kamfan@@": 3425,
  "sark@@": 3426,
  "fal@@": 3427,
  "makarant@@": 3428,
  "Hir@@": 3429,
  "ƙalub@@": 3430,
  "Top": 3431,
  "is.": 3432,
  "un.": 3433,
  "arda": 3434,
  "Wann@@": 3435,
  "�": 3436,
  "ĩ": 3437,
  "ras@@": 3438,
  "inter@@": 3439,
  "lambar": 3440,
  "kab@@": 3441,
  "\".": 3442,
  "tub@@": 3443,
  "2020@@": 3444,
  "Shin,": 3445,
  "addu’o’@@": 3446,
  "A.Z": 3447,
  "gwan@@": 3448,
  "ū@@": 3449,
  "Ge@@": 3450,
  "SS@@": 3451,
  "Tan@@": 3452,
  "Pet@@": 3453,
  "tum@@": 3454,
  "Ayyuka": 3455,
  "Nemo": 3456,
  "Kula": 3457,
  "Mul@@": 3458,
  "SHAFI": 3459,
  "KO": 3460,
  "WAƘOƘI": 3461,
  "taka": 3462,
  "amu": 3463,
  "ript@@": 3464,
  "mahimmanci": 3465,
  "auren": 3466,
  "nisa": 3467,
  "al'am@@": 3468,
  "nan,": 3469,
  "Dai": 3470,
  "Bro@@": 3471,
  "shim@@": 3472,
  "Ƙungiyar": 3473,
  "auci": 3474,
  "asusun": 3475,
  "Lokaci": 3476,
  "share": 3477,
  "Microsoft": 3478,
  "ma’ana": 3479,
  "yar’uwa": 3480,
  "uba": 3481,
  "cinsu": 3482,
  "dubu": 3483,
  "odin": 3484,
  "ƙy@@": 3485,
  "Yo@@": 3486,
  "sabõda": 3487,
  "sauƙ@@": 3488,
  "ence": 3489,
  "6,": 3490,
  "8,": 3491,
  "haday@@": 3492,
  "ly@@": 3493,
  "**@@": 3494,
  "ilim@@": 3495,
  "kafofin": 3496,
  "samfurori": 3497,
  "karɓa": 3498,
  "ƙaura": 3499,
  "shu@@": 3500,
  "52": 3501,
  "air@@": 3502,
  ">>": 3503,
  "cututt@@": 3504,
  "dire@@": 3505,
  "Bikin": 3506,
  "s)": 3507,
  "9/@@": 3508,
  "Bas@@": 3509,
  "sha’awar": 3510,
  "saba": 3511,
  "ech": 3512,
  "maida": 3513,
  "Ciki": 3514,
  "...@@": 3515,
  "News": 3516,
  "a-ku": 3517,
  "rubut@@": 3518,
  "tsarkake": 3519,
  "ayyade": 3520,
  "mu’u@@": 3521,
  "samo": 3522,
  "imar": 3523,
  "rubuce": 3524,
  "SI@@": 3525,
  "bil@@": 3526,
  "US": 3527,
  "Alkaw@@": 3528,
  "ƙary@@": 3529,
  "MP@@": 3530,
  "Bayanin": 3531,
  "Mah@@": 3532,
  "e.@@": 3533,
  "sararin": 3534,
  "ɗaukar": 3535,
  "canc@@": 3536,
  "Au@@": 3537,
  "Ac@@": 3538,
  "dattijo": 3539,
  "riya": 3540,
  "mujall@@": 3541,
  "ital": 3542,
  "A.@@": 3543,
  "Manufacturer": 3544,
  "sashe": 3545,
  "Tra@@": 3546,
  "matu@@": 3547,
  "fu@@": 3548,
  "Air@@": 3549,
  "Club": 3550,
  "BMW": 3551,
  "iyaka": 3552,
  "Nigeria": 3553,
  "Kad@@": 3554,
  "ZA": 3555,
  "iyon": 3556,
  "cewa,": 3557,
  "ransa": 3558,
  "ast": 3559,
  "duwat@@": 3560,
  "Galatiyawa": 3561,
  "huj@@": 3562,
  "Pet": 3563,
  "fama": 3564,
  "cinsa": 3565,
  "]@@": 3566,
  "line": 3567,
  "unar": 3568,
  "na’@@": 3569,
  "(19@@": 3570,
  "Jagor@@": 3571,
  "al’umma": 3572,
  "kanta": 3573,
  "3D": 3574,
  "adda": 3575,
  "hu": 3576,
  "tsabar": 3577,
  "Daniyel": 3578,
  "bobi": 3579,
  "Haske": 3580,
  "tabb@@": 3581,
  "56": 3582,
  "ireshin": 3583,
  "86@@": 3584,
  "Kalmomi": 3585,
  "0-@@": 3586,
  "ous": 3587,
  "Mun@@": 3588,
  "cece": 3589,
  "zum@@": 3590,
  "Sakamakon": 3591,
  "umm@@": 3592,
  "albarkace": 3593,
  "LE@@": 3594,
  "IP@@": 3595,
  "hadayar": 3596,
  "Daniel": 3597,
  "itace": 3598,
  "ins": 3599,
  "madadin": 3600,
  "al,": 3601,
  "Dok@@": 3602,
  "Yau": 3603,
  "Mar": 3604,
  "en.": 3605,
  "gata": 3606,
  "zabura": 3607,
  "ajizai": 3608,
  "ip": 3609,
  "rawa": 3610,
  "kyakkyawan": 3611,
  "kowanne": 3612,
  "dur=\"0.@@": 3613,
  "Hikimar": 3614,
  "CRI@@": 3615,
  "Travel": 3616,
  "Tana": 3617,
  "hadin": 3618,
  "jun@@": 3619,
  "da-@@": 3620,
  "darasi": 3621,
  "rayu": 3622,
  "website": 3623,
  "ith": 3624,
  "Lam@@": 3625,
  "BO@@": 3626,
  "Bur@@": 3627,
  "ulla": 3628,
  "TI@@": 3629,
  "matakan": 3630,
  "��������@@": 3631,
  "jit@@": 3632,
  "rayuwarsu": 3633,
  "Sau": 3634,
  "ith@@": 3635,
  "**": 3636,
  "bag@@": 3637,
  "UM@@": 3638,
  "Cikakken": 3639,
  "lafiyar": 3640,
  "Unlimited": 3641,
  "ũ": 3642,
  "gef@@": 3643,
  "150@@": 3644,
  "Gar@@": 3645,
  "HO@@": 3646,
  "Bay": 3647,
  "saki": 3648,
  "Kash@@": 3649,
  "batutuwa": 3650,
  "uwarsa": 3651,
  "matsal@@": 3652,
  "aukar": 3653,
  "sha’awa": 3654,
  "Yah@@": 3655,
  "sim@@": 3656,
  "0/@@": 3657,
  "ayoyi": 3658,
  "aikace-aik@@": 3659,
  "ciwo": 3660,
  "ruh@@": 3661,
  "hij@@": 3662,
  "Dutsen": 3663,
  "Gil@@": 3664,
  "Rashin": 3665,
  "as#@@": 3666,
  "Mic@@": 3667,
  "orin": 3668,
  "Gal@@": 3669,
  "sauƙin": 3670,
  "sul@@": 3671,
  "Wadannan": 3672,
  "2010": 3673,
  "ro": 3674,
  "fasahar": 3675,
  "GO": 3676,
  "(40@@": 3677,
  "mutã@@": 3678,
  "ɓa": 3679,
  "sammai": 3680,
  "maig@@": 3681,
  "ar:": 3682,
  "yau,": 3683,
  "site": 3684,
  "matakai": 3685,
  "manufa": 3686,
  "": 3687,
  "Higash@@": 3688,
  "haikali": 3689,
  "tunawa": 3690,
  "Abub@@": 3691,
  "gil@@": 3692,
  "<@@": 3693,
  "Al’@@": 3694,
  "Jun@@": 3695,
  "NE": 3696,
  "alb@@": 3697,
  "ys@@": 3698,
  "ets": 3699,
  "PC": 3700,
  "gudumma@@": 3701,
  "jink@@": 3702,
  "sashen": 3703,
  "Tag@@": 3704,
  "bukaci": 3705,
  "Shida": 3706,
  "gen": 3707,
  "'ya'yan": 3708,
  "Musul@@": 3709,
  "kuk@@": 3710,
  "Halaye": 3711,
  "Allah.": 3712,
  "adal@@": 3713,
  "cikak@@": 3714,
  "ken": 3715,
  "9001": 3716,
  ":⁠": 3717,
  "***": 3718,
  "ƙaunarsa": 3719,
  "85@@": 3720,
  "ziyara": 3721,
  "lu@@": 3722,
  "6/@@": 3723,
  "Hid@@": 3724,
  "iya@@": 3725,
  "digiri": 3726,
  "Are@@": 3727,
  "jefa": 3728,
  "sand@@": 3729,
  "(S@@": 3730,
  "ukum@@": 3731,
  "al’amura": 3732,
  "tash@@": 3733,
  "250@@": 3734,
  "Aikin": 3735,
  "ity,": 3736,
  "attaf@@": 3737,
  "cu@@": 3738,
  "al’ummar": 3739,
  "sanyi": 3740,
  "foda": 3741,
  "21@@": 3742,
  "CP@@": 3743,
  "Gol@@": 3744,
  "fassarar": 3745,
  "Faransa": 3746,
  "bisharar": 3747,
  "Taur@@": 3748,
  "bambanci": 3749,
  "kananan": 3750,
  "lokaci.": 3751,
  "takardun": 3752,
  "akuna": 3753,
  "rukun@@": 3754,
  ",,": 3755,
  "Ah@@": 3756,
  "ü@@": 3757,
  "ilimin": 3758,
  "sauraron": 3759,
  "ren": 3760,
  "Kasa@@": 3761,
  "sufur@@": 3762,
  "ƙaramin": 3763,
  "version": 3764,
  "Ɗan’uwa": 3765,
  "Aikace-aik@@": 3766,
  "kãfir@@": 3767,
  "nau'i": 3768,
  "Sa’@@": 3769,
  "nisha@@": 3770,
  "murya": 3771,
  "nanata": 3772,
  "Lin@@": 3773,
  "dukanmu": 3774,
  "ory": 3775,
  "koyaushe": 3776,
  "���@@": 3777,
  "almajiran": 3778,
  "Yawancin": 3779,
  "zaz@@": 3780,
  "ā": 3781,
  "Uba": 3782,
  "2011": 3783,
  "Ke": 3784,
  "Yahu@@": 3785,
  "tit@@": 3786,
  "fahimi": 3787,
  "sune": 3788,
  "Ranar": 3789,
  "takarda": 3790,
  "cikin@@": 3791,
  "yaud@@": 3792,
  "dauk@@": 3793,
  "ing.": 3794,
  "58": 3795,
  "）": 3796,
  "Ant@@": 3797,
  "sl@@": 3798,
  "Wai": 3799,
  "sayi": 3800,
  "Gaba": 3801,
  "gl@@": 3802,
  "►": 3803,
  "dubawa": 3804,
  "harshe": 3805,
  "je@@": 3806,
  "gwad@@": 3807,
  "kadan": 3808,
  "shah@@": 3809,
  "Lo@@": 3810,
  "INA": 3811,
  "gwa@@": 3812,
  "ish": 3813,
  "ikin": 3814,
  "post@@": 3815,
  "Falsafa": 3816,
  "°": 3817,
  "abokai": 3818,
  "launin": 3819,
  "gwaje": 3820,
  "TE@@": 3821,
  "iyalinsa": 3822,
  "Mos@@": 3823,
  "bitcoin": 3824,
  "way": 3825,
  "IL@@": 3826,
  "http://@@": 3827,
  "(6@@": 3828,
  "ek": 3829,
  "CI": 3830,
  "Hack": 3831,
  "Sira": 3832,
  "amsar": 3833,
  "mijinta": 3834,
  "AC@@": 3835,
  "gun": 3836,
  "ra’ayi": 3837,
  "gefen": 3838,
  "Isra'il@@": 3839,
  "75": 3840,
  "tsayayya": 3841,
  "ato": 3842,
  "sha'awa": 3843,
  "7-@@": 3844,
  "Web@@": 3845,
  "Ziyar@@": 3846,
  "ace,": 3847,
  "Hali": 3848,
  "ijin": 3849,
  "yi.": 3850,
  "LITTA@@": 3851,
  "Sanya@@": 3852,
  "ized": 3853,
  "anci,": 3854,
  "iga": 3855,
  "dangane": 3856,
  "i-shi": 3857,
  "ib": 3858,
  "unka": 3859,
  "arkar": 3860,
  "SAUKI": 3861,
  "masana'antu,": 3862,
  "PC@@": 3863,
  "rol@@": 3864,
  "kari": 3865,
  "Sauke": 3866,
  "Yun@@": 3867,
  "littafi": 3868,
  "cewa:": 3869,
  "des@@": 3870,
  "le,": 3871,
  "HI@@": 3872,
  "12.@@": 3873,
  "zana": 3874,
  "zasu": 3875,
  "maganin": 3876,
  "-00@@": 3877,
  "1\">": 3878,
  "shuka": 3879,
  "same": 3880,
  "siy@@": 3881,
  "600": 3882,
  "Casino": 3883,
  "CE,ISO": 3884,
  "Makar@@": 3885,
  "Your": 3886,
  "suwa": 3887,
  "cac@@": 3888,
  "ak": 3889,
  "Fikihu": 3890,
  "tsammanin": 3891,
  "Dal@@": 3892,
  "zuriyar": 3893,
  "KE@@": 3894,
  "batsa": 3895,
  "Maim@@": 3896,
  "tsawo": 3897,
  "cho@@": 3898,
  "sall@@": 3899,
  "S-@@": 3900,
  "ƙa,": 3901,
  "maɓallin": 3902,
  "kunan": 3903,
  "عرفان": 3904,
  "Ɗaya": 3905,
  "UNA": 3906,
  "maɓall@@": 3907,
  "Bish@@": 3908,
  "dadin": 3909,
  "11.@@": 3910,
  "injin@@": 3911,
  "bawa": 3912,
  "Kowane": 3913,
  "sha’@@": 3914,
  "امام": 3915,
  "IT": 3916,
  "Kira": 3917,
  "Kalmarsa": 3918,
  "bayyane": 3919,
  "laun@@": 3920,
  "iman@@": 3921,
  "Ƙasar": 3922,
  "2/@@": 3923,
  "wak@@": 3924,
  "himma": 3925,
  "roƙi": 3926,
  "1:": 3927,
  "tsohon": 3928,
  "Hdisi": 3929,
  "CD@@": 3930,
  "zanen": 3931,
  "ox@@": 3932,
  "cikakk@@": 3933,
  "itar": 3934,
  "al’ajabi": 3935,
  "Ƙaun@@": 3936,
  "rahoton": 3937,
  "gajiya": 3938,
  "mod@@": 3939,
  "abil@@": 3940,
  "Irfani": 3941,
  "(12@@": 3942,
  "TV": 3943,
  "May": 3944,
  "yancin": 3945,
  "takwas": 3946,
  "Ray": 3947,
  "RI@@": 3948,
  "های": 3949,
  "maim@@": 3950,
  "tushe": 3951,
  "Host@@": 3952,
  "ub": 3953,
  "66": 3954,
  "ode": 3955,
  "birni": 3956,
  "{@@": 3957,
  "Laser": 3958,
  "Fara": 3959,
  "پیامبران": 3960,
  "119": 3961,
  "nasa": 3962,
  "tra@@": 3963,
  "ɗay@@": 3964,
  "Saki": 3965,
  "magab@@": 3966,
  "ingant@@": 3967,
  "Lokuta": 3968,
  "tt@@": 3969,
  "Canja": 3970,
  "Sho@@": 3971,
  "st": 3972,
  "Philosophy": 3973,
  "utun": 3974,
  "mobile": 3975,
  "ikilis@@": 3976,
  "jimrewa": 3977,
  "er.": 3978,
  "Golf": 3979,
  "kifi": 3980,
  "Download": 3981,
  "Zabi": 3982,
  "kunya": 3983,
  "banki": 3984,
  "اسلامی": 3985,
  "Black": 3986,
  "ikawa": 3987,
  "gon@@": 3988,
  "yun@@": 3989,
  "مبانی": 3990,
  "alai": 3991,
  "jikin": 3992,
  "Rob@@": 3993,
  "اخلاق": 3994,
  "https://@@": 3995,
  "daɗe": 3996,
  "HU@@": 3997,
  "ishin": 3998,
  "amincewa": 3999,
  "ر@@": 4000,
  "cen": 4001,
  "ap": 4002,
  "Lambar": 4003,
  "karatun": 4004,
  "شیعه": 4005,
  "Irinta": 4006,
  "Sabuwar": 4007,
  "Awowi": 4008,
  "اندیشه": 4009,
  "kwamfy@@": 4010,
  "فقیه": 4011,
  "قرآنی": 4012,
  "مفاهیم": 4013,
  "(ره)": 4014,
  "Wah@@": 4015,
  "ikilisiyoyi": 4016,
  "labaran": 4017,
  "خمینی": 4018,
  "Bayani:@@": 4019,
  "حکومت": 4020,
  "01": 4021,
  "ولایت": 4022,
  "Wuta": 4023,
  "wayoyi": 4024,
  "Arabic": 4025,
  "ƙa’id@@": 4026,
  "Zuc@@": 4027,
  "U.@@": 4028,
  "oh@@": 4029,
  "AR": 4030,
  "tambay@@": 4031,
  "allai": 4032,
  "Ltd": 4033,
  "tausayi": 4034,
  "kinsa": 4035,
  "Samf@@": 4036,
  "motar": 4037,
  "zarafi": 4038,
  "(14@@": 4039,
  "Kall@@": 4040,
  "No@@": 4041,
  "shekarun": 4042,
  "aran": 4043,
  "Sama’ila": 4044,
  "akai": 4045,
  "44@@": 4046,
  "Sat@@": 4047,
  "53": 4048,
  "2000@@": 4049,
  "makonni": 4050,
  "ge@@": 4051,
  "3/@@": 4052,
  "(8@@": 4053,
  "addin@@": 4054,
  "haikalin": 4055,
  "laif@@": 4056,
  "Lissafi": 4057,
  "unmu": 4058,
  "zamaninmu": 4059,
  "achi": 4060,
  "PVC": 4061,
  "imel": 4062,
  "likita": 4063,
  "Barka": 4064,
  "jan": 4065,
  "onka": 4066,
  "ufi": 4067,
  "Char@@": 4068,
  "coci": 4069,
  "63": 4070,
  "Air": 4071,
  "2000": 4072,
  "una,": 4073,
  "(0@@": 4074,
  "haihuwa": 4075,
  "Jos@@": 4076,
  "02": 4077,
  "nem@@": 4078,
  "Gano": 4079,
  "hukuncin": 4080,
  "ha": 4081,
  "ɓang@@": 4082,
  "ula": 4083,
  "minti": 4084,
  "jiran": 4085,
  "Ib@@": 4086,
  "Tatta@@": 4087,
  "batu": 4088,
  "ayoyin": 4089,
  "sen": 4090,
  "yad@@": 4091,
  "dad@@": 4092,
  "km": 4093,
  "ict@@": 4094,
  "fuskar": 4095,
  "Gw@@": 4096,
  "We@@": 4097,
  "onsu": 4098,
  "Kasuwan@@": 4099,
  "gw@@": 4100,
  "Ubanmu": 4101,
  "Il": 4102,
  "che@@": 4103,
  "yabo": 4104,
  "Korintiyawa": 4105,
  "ƙare": 4106,
  "oti": 4107,
  "gaggawa": 4108,
  "Farko": 4109,
  "Grammar": 4110,
  "kwamfut@@": 4111,
  "Joshua": 4112,
  "15:@@": 4113,
  "Amso@@": 4114,
  "Mod@@": 4115,
  "form@@": 4116,
  "inst@@": 4117,
  "Afirka": 4118,
  "owar": 4119,
  "lashe": 4120,
  "aje": 4121,
  "YU@@": 4122,
  "CI@@": 4123,
  "TAR@@": 4124,
  "Aud@@": 4125,
  "Copyright": 4126,
  "Shaf@@": 4127,
  "TAN@@": 4128,
  "Light": 4129,
  "Add@@": 4130,
  "Bi@@": 4131,
  "ɓar@@": 4132,
  "annabce": 4133,
  "unic@@": 4134,
  "hakkok@@": 4135,
  "sanda": 4136,
  "ɗabi’a": 4137,
  "Wannask@@": 4138,
  "masha@@": 4139,
  "wakiltar": 4140,
  "zinariya": 4141,
  "anya": 4142,
  "van@@": 4143,
  "iyoy@@": 4144,
  "uwansa": 4145,
  "Cent@@": 4146,
  "Ram@@": 4147,
  "yank@@": 4148,
  "bet@@": 4149,
  "ancen": 4150,
  "Wasanni": 4151,
  "makarantar": 4152,
  "allo@@": 4153,
  "ity@@": 4154,
  "shag@@": 4155,
  "Juna": 4156,
  "Bit@@": 4157,
  "miyagun": 4158,
  "antak@@": 4159,
  "rike": 4160,
  "watsi": 4161,
  "zin@@": 4162,
  "Gam@@": 4163,
  "firistoci": 4164,
  "ƙirar": 4165,
  "FU@@": 4166,
  "Abd@@": 4167,
  "Red@@": 4168,
  "Logic": 4169,
  "art": 4170,
  "Bal@@": 4171,
  "fayil@@": 4172,
  "GB": 4173,
  "motsi": 4174,
  "sarr@@": 4175,
  "app@@": 4176,
  "aikinsa": 4177,
  "rah@@": 4178,
  "dr@@": 4179,
  "TU@@": 4180,
  "manyan@@": 4181,
  "iddig@@": 4182,
  "14:@@": 4183,
  "Bin@@": 4184,
  "GAS@@": 4185,
  "Soneva": 4186,
  "oo@@": 4187,
  "Z": 4188,
  "Pal@@": 4189,
  "ata,": 4190,
  "Mer@@": 4191,
  "ibr@@": 4192,
  "tuf@@": 4193,
  "SM@@": 4194,
  "2008": 4195,
  "Yam@@": 4196,
  "DVD": 4197,
  "ric": 4198,
  "Ibrananci": 4199,
  "als": 4200,
  "Ran@@": 4201,
  "fim": 4202,
  "CNC": 4203,
  "Law@@": 4204,
  "mas": 4205,
  "kyakkya@@": 4206,
  "abincin": 4207,
  "System": 4208,
  "Sif@@": 4209,
  "sha’aw@@": 4210,
  "5/@@": 4211,
  "Hauwa’u": 4212,
  "Tafiya": 4213,
  "one,": 4214,
  "duhu": 4215,
  "old": 4216,
  "Know": 4217,
  "dangantakarmu": 4218,
  "blog@@": 4219,
  "horar": 4220,
  "Mult@@": 4221,
  "nasu": 4222,
  "mã@@": 4223,
  "19:@@": 4224,
  "59@@": 4225,
  "via": 4226,
  "Takaddun": 4227,
  "namiji": 4228,
  "Farin": 4229,
  "Fus@@": 4230,
  "Hor@@": 4231,
  "AF@@": 4232,
  "shafuffuka": 4233,
  "Fit": 4234,
  "koda": 4235,
  "saf@@": 4236,
  "ust": 4237,
  "out@@": 4238,
  "Ali": 4239,
  "×": 4240,
  "Abu@@": 4241,
  "ƙwa@@": 4242,
  "ath@@": 4243,
  "rabu": 4244,
  "Taf@@": 4245,
  "lay@@": 4246,
  "judgments": 4247,
  "tawaye": 4248,
  "Bid@@": 4249,
  "ers,": 4250,
  "K.Z": 4251,
  "kyau.": 4252,
  "Americ@@": 4253,
  "hakki": 4254,
  "matak@@": 4255,
  "Inter@@": 4256,
  "Hotunan": 4257,
  "17:@@": 4258,
  "kwatancin": 4259,
  "komai": 4260,
  "yin@@": 4261,
  "Abok@@": 4262,
  "Maz@@": 4263,
  "Hannun": 4264,
  "Siy@@": 4265,
  "ots@@": 4266,
  "div@@": 4267,
  "haih@@": 4268,
  "Dubai": 4269,
  "ings": 4270,
  "hari": 4271,
  "suj@@": 4272,
  "Dut@@": 4273,
  "ƙaunat@@": 4274,
  "biɗan": 4275,
  "hidimarsa": 4276,
  "KU": 4277,
  "bit@@": 4278,
  "addinai": 4279,
  "anel": 4280,
  "fatan": 4281,
  "ITA-@@": 4282,
  "adana": 4283,
  "hani": 4284,
  "Lafiya": 4285,
  "kaw@@": 4286,
  "ƙunsa": 4287,
  "jima'i": 4288,
  "All": 4289,
  "64": 4290,
  "7:@@": 4291,
  "DI@@": 4292,
  "ting": 4293,
  "wirar": 4294,
  "saurin": 4295,
  "lab@@": 4296,
  "wa-@@": 4297,
  "e?": 4298,
  "canji": 4299,
  "rayuwarsa": 4300,
  "lov@@": 4301,
  "ey": 4302,
  "saurar@@": 4303,
  "—⁠": 4304,
  "Daw@@": 4305,
  "omat@@": 4306,
  "ago": 4307,
  "ell": 4308,
  "mallakar": 4309,
  "um,": 4310,
  "Rig@@": 4311,
  "Ƙauna": 4312,
  "ö@@": 4313,
  "aicin": 4314,
  "nesa": 4315,
  "61": 4316,
  "tilasta": 4317,
  "ats": 4318,
  "Austral@@": 4319,
  "Jim@@": 4320,
  "haɓaka": 4321,
  "mart@@": 4322,
  "aljanna": 4323,
  "li": 4324,
  "cewar": 4325,
  "hotunan": 4326,
  "onin": 4327,
  "Watch": 4328,
  "fitarwa": 4329,
  "ace.": 4330,
  "inci": 4331,
  "layin": 4332,
  "Labarai": 4333,
  "Rik@@": 4334,
  "musayar": 4335,
  "Tsohon": 4336,
  "Italiya": 4337,
  "nau@@": 4338,
  "naka": 4339,
  "post": 4340,
  "Sabon": 4341,
  "Sauran": 4342,
  "king@@": 4343,
  "Isra@@": 4344,
  "amfani.": 4345,
  "ƙaf@@": 4346,
  "olin": 4347,
  "By": 4348,
  "aboki": 4349,
  "LL@@": 4350,
  "basira": 4351,
  "oyin": 4352,
  "Hakanan": 4353,
  "Kul@@": 4354,
  "shela": 4355,
  "yanci": 4356,
  "afiya": 4357,
  "Gyara": 4358,
  "13:@@": 4359,
  "sanyaya": 4360,
  "Med@@": 4361,
  "Square": 4362,
  "zãl@@": 4363,
  "rajista": 4364,
  "Av@@": 4365,
  "alhẽ@@": 4366,
  "arz@@": 4367,
  "ubang@@": 4368,
  "Kubawar": 4369,
  "nun@@": 4370,
  "S.": 4371,
  "tsoh@@": 4372,
  "Red": 4373,
  "bukatan": 4374,
  "kamfanonin": 4375,
  "ua": 4376,
  "NI@@": 4377,
  "..@@": 4378,
  "Sarakuna": 4379,
  "abub@@": 4380,
  "kayayyaki": 4381,
  "kyau,": 4382,
  "yaƙin": 4383,
  "ons": 4384,
  "ifi": 4385,
  "kwa": 4386,
  "los@@": 4387,
  "litt@@": 4388,
  "IYA": 4389,
  "8:@@": 4390,
  "sakin": 4391,
  "Zak@@": 4392,
  "el.": 4393,
  "Ta@@": 4394,
  "kujer@@": 4395,
  "Majami’ar": 4396,
  "abar": 4397,
  "ray": 4398,
  "warware": 4399,
  "may@@": 4400,
  "Birtan@@": 4401,
  "gi@@": 4402,
  "matata": 4403,
  "2012/0@@": 4404,
  "wut@@": 4405,
  "Lant@@": 4406,
  "rare": 4407,
  "lokaci,": 4408,
  "Wa’azi": 4409,
  "Kudu": 4410,
  "197@@": 4411,
  "tsun@@": 4412,
  "400@@": 4413,
  "madawwami": 4414,
  "Saur@@": 4415,
  "ɗari": 4416,
  "Sama": 4417,
  "ladabi": 4418,
  "magung@@": 4419,
  "baw@@": 4420,
  "a.\"": 4421,
  "Nad@@": 4422,
  "Abinci": 4423,
  "na'urorin": 4424,
  "addamar": 4425,
  "BI@@": 4426,
  "matal@@": 4427,
  "ishi": 4428,
  "shiry@@": 4429,
  "shafi:": 4430,
  "hira": 4431,
  "warkar": 4432,
  "our@@": 4433,
  "89@@": 4434,
  "Yoga": 4435,
  "ƙo@@": 4436,
  "sin": 4437,
  "tsammani": 4438,
  "sig@@": 4439,
  "Lar@@": 4440,
  "koyar@@": 4441,
  "Kina": 4442,
  "Sam": 4443,
  "D.@@": 4444,
  "Saf@@": 4445,
  "ISO/@@": 4446,
  "ummuka": 4447,
  "Dang@@": 4448,
  "ta’aziyya": 4449,
  "001": 4450,
  "kowann@@": 4451,
  "iyarka": 4452,
  "ãli": 4453,
  "Bincike": 4454,
  "Kwanan": 4455,
  "yan’uwansa": 4456,
  "Cre@@": 4457,
  "1914": 4458,
  "albarkar": 4459,
  "farawa": 4460,
  "aice": 4461,
  "Faran@@": 4462,
  "ko’ina": 4463,
  "16:@@": 4464,
  "auri": 4465,
  "Factory": 4466,
  "ihu": 4467,
  "que": 4468,
  "pm": 4469,
  "kwa@@": 4470,
  "م@@": 4471,
  "oyi": 4472,
  "ors": 4473,
  "Mil@@": 4474,
  "baz@@": 4475,
  "John": 4476,
  "Shawar@@": 4477,
  "Ter@@": 4478,
  "18:@@": 4479,
  "sa'@@": 4480,
  "ich@@": 4481,
  "Ra": 4482,
  "tawagar": 4483,
  "keban@@": 4484,
  "azaba": 4485,
  "wo": 4486,
  "Bak@@": 4487,
  "hy@@": 4488,
  "ano@@": 4489,
  "ı@@": 4490,
  "kaddamar": 4491,
  "Inda": 4492,
  "qual@@": 4493,
  "USB": 4494,
  "Ubangijin@@": 4495,
  "gwi@@": 4496,
  "haɗu": 4497,
  "A:": 4498,
  "Church": 4499,
  "kwam@@": 4500,
  "Helenanci": 4501,
  "CIN": 4502,
  "Ji": 4503,
  "jarrab@@": 4504,
  "79@@": 4505,
  "tam@@": 4506,
  "god@@": 4507,
  "ml": 4508,
  "kazalika": 4509,
  "firist": 4510,
  "National": 4511,
  "Wanene": 4512,
  "atsu@@": 4513,
  "wahalar": 4514,
  "hidimarmu": 4515,
  "zak@@": 4516,
  "yawa,": 4517,
  "rend": 4518,
  "bus@@": 4519,
  "la'akari": 4520,
  "(Ra@@": 4521,
  "KAI": 4522,
  "Matsal@@": 4523,
  "Scanner": 4524,
  "Yanayin": 4525,
  "é@@": 4526,
  "karfafa": 4527,
  "Annab@@": 4528,
  "Dam@@": 4529,
  "gaske,": 4530,
  "kunna": 4531,
  "World": 4532,
  "õ": 4533,
  "iyay@@": 4534,
  "Ƙid@@": 4535,
  "shiryawa": 4536,
  "€@@": 4537,
  "On@@": 4538,
  "MAN@@": 4539,
  "buƙ@@": 4540,
  "62": 4541,
  "lant@@": 4542,
  "ARI": 4543,
  "ple@@": 4544,
  "dar": 4545,
  "mita": 4546,
  "IC@@": 4547,
  "I-@@": 4548,
  "udi": 4549,
  "wark@@": 4550,
  "ilan": 4551,
  "ional": 4552,
  "la": 4553,
  "iOS": 4554,
  "ering": 4555,
  "59": 4556,
  "400": 4557,
  "EN": 4558,
  "9001:@@": 4559,
  "ple": 4560,
  "dro@@": 4561,
  "94@@": 4562,
  "KYAU@@": 4563,
  "abbar": 4564,
  "nan@@": 4565,
  "'s": 4566,
  "Par@@": 4567,
  "a;": 4568,
  "Cor@@": 4569,
  "tufafi": 4570,
  "Kot@@": 4571,
  "04": 4572,
  "BE@@": 4573,
  "Danna": 4574,
  "C,": 4575,
  "ye-@@": 4576,
  "iwa": 4577,
  "manya": 4578,
  "kuta": 4579,
  "..": 4580,
  "ashi,": 4581,
  "music": 4582,
  "OMO": 4583,
  "board": 4584,
  "tebur": 4585,
  "120@@": 4586,
  "®": 4587,
  "LO@@": 4588,
  "TO": 4589,
  "Bat@@": 4590,
  "Software": 4591,
  "aiman": 4592,
  "arrab@@": 4593,
  "press": 4594,
  "annan": 4595,
  "20:@@": 4596,
  "ude": 4597,
  "2\">": 4598,
  "casino": 4599,
  "Gan@@": 4600,
  "urr@@": 4601,
  "ada,": 4602,
  "sah@@": 4603,
  "esa": 4604,
  "XL": 4605,
  "Jar@@": 4606,
  "ifa": 4607,
  "anarwa": 4608,
  "aul@@": 4609,
  "o'i": 4610,
  "GI@@": 4611,
  "57": 4612,
  "part@@": 4613,
  "Nau@@": 4614,
  "Fur@@": 4615,
  "á@@": 4616,
  "let": 4617,
  "daw@@": 4618,
  "block": 4619,
  "app": 4620,
  "ƙ": 4621,
  "arraba": 4622,
  "Kaf@@": 4623,
  "sir@@": 4624,
  "rain@@": 4625,
  "Tattoo": 4626,
  "enn@@": 4627,
  "10-@@": 4628,
  "daid@@": 4629,
  "64@@": 4630,
  "ier": 4631,
  "men@@": 4632,
  "MAR@@": 4633,
  "dalil@@": 4634,
  "gal@@": 4635,
  "nak@@": 4636,
  "Hab@@": 4637,
  "Series": 4638,
  "Paris": 4639,
  "barka": 4640,
  "Akai": 4641,
  "Ish@@": 4642,
  "BAN@@": 4643,
  "LM@@": 4644,
  "Hakat@@": 4645,
  "a-ku,": 4646,
  "sos@@": 4647,
  "shafaff@@": 4648,
  "Shi,": 4649,
  "gang@@": 4650,
  "Box": 4651,
  "tatt@@": 4652,
  "ual": 4653,
  "xx@@": 4654,
  "ine@@": 4655,
  "Best": 4656,
  "*,": 4657,
  "ashi@@": 4658,
  "Net@@": 4659,
  "Ramin": 4660,
  "1\"": 4661,
  "08": 4662,
  "til@@": 4663,
  "dam": 4664,
  "HD": 4665,
  "aha@@": 4666,
  "ella": 4667,
  "ink": 4668,
  "mer@@": 4669,
  "mac@@": 4670,
  "(3)": 4671,
  "Swed@@": 4672,
  "Din": 4673,
  "Post@@": 4674,
  "hack": 4675,
  "2\"": 4676,
  "et,": 4677,
  "ƙera": 4678,
  "ines": 4679,
  "dur=\"5.@@": 4680,
  "Amman": 4681,
  "__@@": 4682,
  "aya@@": 4683,
  "9,": 4684,
  "afe": 4685,
  "Ash@@": 4686,
  "Center": 4687,
  "irar": 4688,
  "Gal": 4689,
  "manufacturer": 4690,
  "2009": 4691,
  "over@@": 4692,
  "gan": 4693,
  "mis@@": 4694,
  "SO@@": 4695,
  "Dun@@": 4696,
  "alib@@": 4697,
  "bul@@": 4698,
  "Bis@@": 4699,
  "GAN@@": 4700,
  "iPh@@": 4701,
  "22:@@": 4702,
  "USA": 4703,
  "Kon@@": 4704,
  "KUKA": 4705,
  "kow@@": 4706,
  "uff@@": 4707,
  "famfo": 4708,
  "salon": 4709,
  "janna": 4710,
  "the@@": 4711,
  "D-@@": 4712,
  "tef": 4713,
  "yst@@": 4714,
  "TT@@": 4715,
  "ulu": 4716,
  "bun@@": 4717,
  "Minist@@": 4718,
  "mij@@": 4719,
  "Bug@@": 4720,
  "jima": 4721,
  "rel@@": 4722,
  "FREE": 4723,
  "Kim@@": 4724,
  "č@@": 4725,
  "ilt@@": 4726,
  "Sim@@": 4727,
  "ery": 4728,
  "iP@@": 4729,
  "FO@@": 4730,
  "ion,": 4731,
  "4/@@": 4732,
  "��": 4733,
  "ai-@@": 4734,
  "Di@@": 4735,
  "Gunki": 4736,
  "GU@@": 4737,
  "Server": 4738,
  "Aj@@": 4739,
  "21:@@": 4740,
  "Koh": 4741,
  "facebook": 4742,
  "Neh@@": 4743,
  "alan": 4744,
  "Next:": 4745,
  "Mobile": 4746,
  "ov": 4747,
  "Pan@@": 4748,
  "cy@@": 4749,
  "Dan@@": 4750,
  "GAM@@": 4751,
  "Apple": 4752,
  "3\"": 4753,
  "fre@@": 4754,
  "120": 4755,
  "Nam@@": 4756,
  "asha": 4757,
  "AT@@": 4758,
  "pe": 4759,
  "daban": 4760,
  "Ed@@": 4761,
  "halic@@": 4762,
  "D.": 4763,
  "AI@@": 4764,
  "TC": 4765,
  "ra'ayin": 4766,
  "600@@": 4767,
  "ot": 4768,
  "mail": 4769,
  "Facebook@@": 4770,
  "ce.": 4771,
  "haya": 4772,
  "Gin@@": 4773,
  "shaw@@": 4774,
  ",00": 4775,
  "But@@": 4776,
  "zh@@": 4777,
  "API": 4778,
  "150": 4779,
  "Del@@": 4780,
  "App@@": 4781,
  "karf@@": 4782,
  "Ur@@": 4783,
  "HGH": 4784,
  "Gun@@": 4785,
  "hank@@": 4786,
  "dur=\"@@": 4787,
  "Lev@@": 4788,
  "Cin@@": 4789,
  "9-@@": 4790,
  "7.": 4791,
  "ed,": 4792,
  "(13@@": 4793,
  "Yaƙ@@": 4794,
  "sakam@@": 4795,
  "Ras@@": 4796,
  "ej@@": 4797,
  "fahim@@": 4798,
  "as,": 4799,
  "raga": 4800,
  "o’@@": 4801,
  "Yu@@": 4802,
  "Ser@@": 4803,
  "12/@@": 4804,
  "anne": 4805,
  "Aut@@": 4806,
  "ISO,": 4807,
  "BU@@": 4808,
  "than": 4809,
  "Tambay@@": 4810,
  "Kowa": 4811,
  "arkokin": 4812,
  "Samsung": 4813,
  "ang": 4814,
  "Tu@@": 4815,
  "a\"": 4816,
  "Yarjejeniya": 4817,
  "code": 4818,
  "hour@@": 4819,
  "Service": 4820,
  "em": 4821,
  "GO@@": 4822,
  "English": 4823,
  "mastur@@": 4824,
  "taus@@": 4825,
  "live": 4826,
  "Em@@": 4827,
  "t.": 4828,
  "Kaz@@": 4829,
  "cod@@": 4830,
  "KAN@@": 4831,
  "co": 4832,
  "lin": 4833,
  "ancewa": 4834,
  "rajist@@": 4835,
  "Tower": 4836,
  "Dr@@": 4837,
  "ihin": 4838,
  "17/@@": 4839,
  "rub@@": 4840,
  "ME@@": 4841,
  "Data": 4842,
  "Video": 4843,
  ".)": 4844,
  "fash@@": 4845,
  "(24)": 4846,
  "hang@@": 4847,
  "CD": 4848,
  "ilis@@": 4849,
  "Mac@@": 4850,
  "on-@@": 4851,
  "red@@": 4852,
  "der@@": 4853,
  "06": 4854,
  "ZU@@": 4855,
  "8.": 4856,
  "7,": 4857,
  "an:": 4858,
  "fet@@": 4859,
  "ily": 4860,
  "agon": 4861,
  "Son": 4862,
  "ww@@": 4863,
  "op": 4864,
  "fr@@": 4865,
  "MCD-@@": 4866,
  "03": 4867,
  "zu": 4868,
  "anci@@": 4869,
  "wn": 4870,
  "\\@@": 4871,
  "ate@@": 4872,
  "ar-@@": 4873,
  "fã@@": 4874,
  "fiber": 4875,
  "Sin@@": 4876,
  "oma": 4877,
  "ð@@": 4878,
  "Dom@@": 4879,
  "bish@@": 4880,
  "sub@@": 4881,
  "Shenzhen": 4882,
  "isar": 4883,
  "phone": 4884,
  "you": 4885,
  "med": 4886,
  "68": 4887,
  "mar": 4888,
  "Por@@": 4889,
  "Tel@@": 4890,
  "hum@@": 4891,
  "Reg@@": 4892,
  "high-@@": 4893,
  "oya": 4894,
  "poly@@": 4895,
  "mg": 4896,
  "Vi@@": 4897,
  "A,": 4898,
  "car@@": 4899,
  "MINI": 4900,
  "’uwa": 4901,
  "Zaɓ@@": 4902,
  "Radio": 4903,
  "littattaf@@": 4904,
  "%s@@": 4905,
  "My": 4906,
  "jur@@": 4907,
  "Sul@@": 4908,
  "met@@": 4909,
  "ids": 4910,
  "DO@@": 4911,
  "our": 4912,
  "daraj@@": 4913,
  "der": 4914,
  "Sk@@": 4915,
  "akkya@@": 4916,
  "Sto@@": 4917,
  "EUR@@": 4918,
  "Tw@@": 4919,
  "oth@@": 4920,
  "tattoos@@": 4921,
  "96": 4922,
  "don@@": 4923,
  "num@@": 4924,
  "audio": 4925,
  ".00": 4926,
  "05": 4927,
  "Stud@@": 4928,
  "sauran@@": 4929,
  "Hel@@": 4930,
  "Phone": 4931,
  "→": 4932,
  "House": 4933,
  "ER": 4934,
  "10,": 4935,
  "hanyo@@": 4936,
  "blockchain": 4937,
  "oll": 4938,
  "IS": 4939,
  "Share": 4940,
  "alm@@": 4941,
  "aca": 4942,
  "size": 4943,
  "price": 4944,
  "olog@@": 4945,
  "obi": 4946,
  "Jeho@@": 4947,
  "oda": 4948,
  "ste@@": 4949,
  "Int@@": 4950,
  "IP": 4951,
  "’a": 4952,
  "72": 4953,
  "Ga@@": 4954,
  "real": 4955,
  "i,@@": 4956,
  "Tit@@": 4957,
  "School": 4958,
  "69": 4959,
  "AU@@": 4960,
  "Moscow": 4961,
  "Ste@@": 4962,
  "GB@@": 4963,
  "New@@": 4964,
  "ho": 4965,
  "ukumar": 4966,
  "Blog": 4967,
  "org@@": 4968,
  "York": 4969,
  "book@@": 4970,
  "Wal@@": 4971,
  "Tool": 4972,
  "MI@@": 4973,
  "ƙoƙ@@": 4974,
  "beg@@": 4975,
  "Dog@@": 4976,
  "Anal@@": 4977,
  "Iv@@": 4978,
  "Rec@@": 4979,
  "ape": 4980,
  "Fi": 4981,
  "wid@@": 4982,
  "plugin": 4983,
  "king": 4984,
  "Lat@@": 4985,
  "App": 4986,
  "Turk@@": 4987,
  "MO@@": 4988,
  "Metal": 4989,
  "ster@@": 4990,
  "hol@@": 4991,
  "ome": 4992,
  "COVID-19": 4993,
  "akwat@@": 4994,
  "Twitter": 4995,
  "Per@@": 4996,
  "'ya@@": 4997,
  "UF@@": 4998,
  "Chin@@": 4999,
  "Port@@": 5000,
  "Ukraine": 5001,
  "mit@@": 5002,
  "Ben@@": 5003,
  "anen": 5004,
  "vi@@": 5005,
  "`@@": 5006,
  "fer@@": 5007,
  "yiw@@": 5008,
  "mb@@": 5009,
  "DC": 5010,
  "​​@@": 5011,
  "(16@@": 5012,
  ",000@@": 5013,
  "ations": 5014,
  "8/@@": 5015,
  "Pric@@": 5016,
  "Cart@@": 5017,
  "e!": 5018,
  "MO": 5019,
  "ic,": 5020,
  "9.": 5021,
  "kalm@@": 5022,
  "naz@@": 5023,
  "Rev@@": 5024,
  "OS": 5025,
  "Wak@@": 5026,
  "Sw@@": 5027,
  "74@@": 5028,
  "13-@@": 5029,
  "Smart": 5030,
  "miyag@@": 5031,
  "800": 5032,
  "L,": 5033,
  "Fran@@": 5034,
  "det@@": 5035,
  "Test@@": 5036,
  "inch": 5037,
  "uchi": 5038,
  "Arab@@": 5039,
  "located": 5040,
  "ا": 5041,
  "Pro": 5042,
  "kã@@": 5043,
  "DE@@": 5044,
  "CC@@": 5045,
  "act": 5046,
  "ija#@@": 5047,
  "model": 5048,
  "Trading": 5049,
  "name": 5050,
  "LT@@": 5051,
  "Mac": 5052,
  "Il@@": 5053,
  "Coin@@": 5054,
  "Val@@": 5055,
  "Laun@@": 5056,
  "ator@@": 5057,
  "I.": 5058,
  "Solar": 5059,
  "Ang@@": 5060,
  "Day": 5061,
  "%s": 5062,
  "ƙal@@": 5063,
  "é": 5064,
  "09": 5065,
  "kil@@": 5066,
  "M.": 5067,
  "Sec@@": 5068,
  "Cod@@": 5069,
  "0.0@@": 5070,
  "(G@@": 5071,
  "Jin@@": 5072,
  "mem@@": 5073,
  "10/@@": 5074,
  "SHAF@@": 5075,
  "Muhammad": 5076,
  "cm": 5077,
  "#": 5078,
  "yi@@": 5079,
  "anai": 5080,
  "K.": 5081,
  "ense": 5082,
  "Gen@@": 5083,
  "one@@": 5084,
  "-2": 5085,
  "78": 5086,
  "Transp@@": 5087,
  "Nassos@@": 5088,
  "Ce@@": 5089,
  "mots@@": 5090,
  "e.com": 5091,
  "57)": 5092,
  "David": 5093,
  "Tab@@": 5094,
  "haɓ@@": 5095,
  "os,": 5096,
  "AD@@": 5097,
  "ger": 5098,
  "gas": 5099,
  "jet": 5100,
  "addun": 5101,
  "Company": 5102,
  "Tube": 5103,
  "YouTube": 5104,
  "her@@": 5105,
  "Power": 5106,
  "Ez@@": 5107,
  "°C": 5108,
  "：@@": 5109,
  "dig@@": 5110,
  "Post": 5111,
  "250": 5112,
  "Read": 5113,
  "cho": 5114,
  "!!": 5115,
  "Fre@@": 5116,
  "e#@@": 5117,
  "cryptocurren@@": 5118,
  "83": 5119,
  "The@@": 5120,
  "S.@@": 5121,
  "jack@@": 5122,
  "or,": 5123,
  "hours": 5124,
  "dur@@": 5125,
  "China,": 5126,
  "ule": 5127,
  "am,": 5128,
  "Ul@@": 5129,
  "Mr@@": 5130,
  "q": 5131,
  "PM": 5132,
  "Les@@": 5133,
  "seconds": 5134,
  "Stre@@": 5135,
  "Play": 5136,
  "Tam@@": 5137,
  "wahal@@": 5138,
  "Black@@": 5139,
  "t,": 5140,
  "Music": 5141,
  "inn@@": 5142,
  "search": 5143,
  "Not@@": 5144,
  "ber": 5145,
  "67": 5146,
  "84@@": 5147,
  "ity.": 5148,
  "top@@": 5149,
  "Er@@": 5150,
  "Tel": 5151,
  "yn@@": 5152,
  "mail@@": 5153,
  "*****": 5154,
  "ID": 5155,
  "col@@": 5156,
  "PE@@": 5157,
  "Jan": 5158,
  "carbon": 5159,
  "factory": 5160,
  "fut@@": 5161,
  "78@@": 5162,
  "Street": 5163,
  "ca@@": 5164,
  "54@@": 5165,
  "Fuku@@": 5166,
  "ia.": 5167,
  "к@@": 5168,
  "ee": 5169,
  "masana'@@": 5170,
  "ix": 5171,
  "Rom@@": 5172,
  "ico": 5173,
  "iku": 5174,
  "management": 5175,
  "mm,": 5176,
  "JAP@@": 5177,
  "Instagram": 5178,
  "Ber@@": 5179,
  "kod@@": 5180,
  "ial@@": 5181,
  "urg@@": 5182,
  "nit@@": 5183,
  "key@@": 5184,
  "AD": 5185,
  "ation,": 5186,
  "3*": 5187,
  "Player": 5188,
  "EA@@": 5189,
  "19,": 5190,
  "ito": 5191,
  "Hik@@": 5192,
  "Pat@@": 5193,
  "ت@@": 5194,
  "Goog@@": 5195,
  "sk": 5196,
  "Cal@@": 5197,
  "���": 5198,
  "te": 5199,
  "player": 5200,
  "ley": 5201,
  "130@@": 5202,
  "som@@": 5203,
  "top": 5204,
  "99.@@": 5205,
  "aluminum": 5206,
  "usun": 5207,
  "ä@@": 5208,
  "kac@@": 5209,
  "11/@@": 5210,
  "LE": 5211,
  "DE": 5212,
  "Baby": 5213,
  "idd@@": 5214,
  "(5)": 5215,
  "Super": 5216,
  "Maki": 5217,
  "atsu": 5218,
  "ل@@": 5219,
  "Blu@@": 5220,
  "Ruth": 5221,
  "halit@@": 5222,
  "Hot": 5223,
  "●": 5224,
  "73": 5225,
  "Ag@@": 5226,
  "1x@@": 5227,
  "any@@": 5228,
  "key": 5229,
  "Park": 5230,
  "Ja@@": 5231,
  "6\"": 5232,
  "omo": 5233,
  "kg": 5234,
  "org": 5235,
  "XX@@": 5236,
  "Jet": 5237,
  "Private": 5238,
  "Bible": 5239,
  "Ezekiel": 5240,
  "SS": 5241,
  "BB@@": 5242,
  "eng": 5243,
  "iTunes": 5244,
  "(18)": 5245,
  "14.@@": 5246,
  "mor@@": 5247,
  "autar": 5248,
  "yau@@": 5249,
  "Hus@@": 5250,
  "ded": 5251,
  "w.@@": 5252,
  "Li@@": 5253,
  "Q": 5254,
  "y:": 5255,
  "Wondershare": 5256,
  "Max": 5257,
  ".org": 5258,
  "Business": 5259,
  "20-@@": 5260,
  "2:": 5261,
  "(17@@": 5262,
  "07": 5263,
  "Medical": 5264,
  "tw@@": 5265,
  "Bet@@": 5266,
  "CM@@": 5267,
  "Coun@@": 5268,
  "Short@@": 5269,
  "Amos": 5270,
  "30,": 5271,
  "garga@@": 5272,
  "lit@@": 5273,
  "Univers@@": 5274,
  "hel@@": 5275,
  "eh@@": 5276,
  "loss@@": 5277,
  "(201@@": 5278,
  "86": 5279,
  "92": 5280,
  "per": 5281,
  "ع@@": 5282,
  "а@@": 5283,
  "di@@": 5284,
  "nar": 5285,
  "bon@@": 5286,
  "rubu@@": 5287,
  "13,": 5288,
  "High@@": 5289,
  "anno@@": 5290,
  "TC@@": 5291,
  "Previous:": 5292,
  "91": 5293,
  "1000@@": 5294,
  "PA@@": 5295,
  "sm@@": 5296,
  "iro": 5297,
  "%.": 5298,
  "rang@@": 5299,
  "sil@@": 5300,
  "g,": 5301,
  "Ningbo": 5302,
  "Mor@@": 5303,
  "Play@@": 5304,
  "Ain@@": 5305,
  "Bonus": 5306,
  "dalib@@": 5307,
  "Jon@@": 5308,
  "kwamf@@": 5309,
  "read@@": 5310,
  "shin@@": 5311,
  "Dr.": 5312,
  "uck@@": 5313,
  "GUN@@": 5314,
  "rad@@": 5315,
  "Management": 5316,
  "Live": 5317,
  "Mill@@": 5318,
  "Ev@@": 5319,
  "PE": 5320,
  "Ig@@": 5321,
  "Cloud": 5322,
  "Habakkuk": 5323,
  "iyu": 5324,
  "Gask@@": 5325,
  "1]": 5326,
  "vers@@": 5327,
  "HOTE@@": 5328,
  "1000": 5329,
  "WHSR": 5330,
  "What@@": 5331,
  "Elisha": 5332,
  "if": 5333,
  "16,": 5334,
  "Amazon": 5335,
  "Krist@@": 5336,
  "th,": 5337,
  "Sm@@": 5338,
  "12,": 5339,
  "Prin@@": 5340,
  "12-@@": 5341,
  "burg": 5342,
  "rib@@": 5343,
  "(4)": 5344,
  "About": 5345,
  "Andro@@": 5346,
  "10.": 5347,
  "ی@@": 5348,
  "umma@@": 5349,
  "uhu": 5350,
  "ail": 5351,
  "Hezek@@": 5352,
  "tik@@": 5353,
  "din@@": 5354,
  "M.@@": 5355,
  "11,": 5356,
  "ange": 5357,
  "fif@@": 5358,
  "hab": 5359,
  "hai": 5360,
  "softwar@@": 5361,
  "00-@@": 5362,
  "証@@": 5363,
  "xx": 5364,
  "bac@@": 5365,
  "oph@@": 5366,
  "White": 5367,
  "oke": 5368,
  "ster": 5369,
  "i’a": 5370,
  "Thailand": 5371,
  "Kit@@": 5372,
  "Translation": 5373,
  "Ayy@@": 5374,
  "20,": 5375,
  "Nic@@": 5376,
  "ati": 5377,
  "ep": 5378,
  "utt@@": 5379,
  "play": 5380,
  "ō@@": 5381,
  "Him@@": 5382,
  "GE@@": 5383,
  "d,": 5384,
  "[...]": 5385,
  "iang": 5386,
  "16.@@": 5387,
  "abbin": 5388,
  "Ub@@": 5389,
  "lot@@": 5390,
  "stre@@": 5391,
  "Vir@@": 5392,
  "ana'@@": 5393,
  "Shang@@": 5394,
  "CoV@@": 5395,
  "Kyo@@": 5396,
  "anal@@": 5397,
  "goog@@": 5398,
  "Imam": 5399,
  "Turkey": 5400,
  "Fal@@": 5401,
  "ST@@": 5402,
  "safe": 5403,
  "umin@@": 5404,
  "Cik@@": 5405,
  "����": 5406,
  "Blog@@": 5407,
  "97": 5408,
  "iwon": 5409,
  "(1,@@": 5410,
  "km)": 5411,
  "Ukrain@@": 5412,
  "imm@@": 5413,
  "2018.": 5414,
  "A)": 5415,
  "zz@@": 5416,
  "M-@@": 5417,
  "oo": 5418,
  "lat@@": 5419,
  "Fat@@": 5420,
  "Nor@@": 5421,
  "–@@": 5422,
  "Cy@@": 5423,
  "Penn@@": 5424,
  "hotel": 5425,
  "url@@": 5426,
  "VA@@": 5427,
  "(K@@": 5428,
  "diam@@": 5429,
  "fall@@": 5430,
  "79": 5431,
  "iPad": 5432,
  "og": 5433,
  "Point": 5434,
  "110": 5435,
  "1.0@@": 5436,
  "ufa": 5437,
  "zhou": 5438,
  "Aluminum": 5439,
  "ml@@": 5440,
  "Fiber": 5441,
  "Giz@@": 5442,
  "batut@@": 5443,
  "onlin@@": 5444,
  "ano": 5445,
  "14,": 5446,
  "dit@@": 5447,
  "Group": 5448,
  "Bluetooth": 5449,
  "Ji@@": 5450,
  "SAU@@": 5451,
  "ou": 5452,
  "fusk@@": 5453,
  "o'@@": 5454,
  "cess": 5455,
  "Good": 5456,
  "85": 5457,
  "℃": 5458,
  "GN@@": 5459,
  "Ox@@": 5460,
  "PDF": 5461,
  "23:@@": 5462,
  "OH@@": 5463,
  "Society": 5464,
  "Mr.": 5465,
  "Hon@@": 5466,
  "Sand@@": 5467,
  "ɗab@@": 5468,
  "ta’az@@": 5469,
  "4,000": 5470,
  "c.": 5471,
  "15.@@": 5472,
  "hand@@": 5473,
  "War@@": 5474,
  "info@@": 5475,
  "madaww@@": 5476,
  "NO@@": 5477,
  "ziy@@": 5478,
  "ifor@@": 5479,
  "Carbon": 5480,
  "Pre@@": 5481,
  "iber@@": 5482,
  "Wash@@": 5483,
  "Son@@": 5484,
  "9\"": 5485,
  "TUR@@": 5486,
  "JE@@": 5487,
  "yt@@": 5488,
  "bit": 5489,
  "Engine@@": 5490,
  "ts,": 5491,
  "Metatrader": 5492,
  "gen@@": 5493,
  "4\"": 5494,
  "rav@@": 5495,
  "84": 5496,
  "Out@@": 5497,
  "PH@@": 5498,
  "Ɓ@@": 5499,
  "Exchange": 5500,
  "London": 5501,
  "onni": 5502,
  "alle": 5503,
  "130": 5504,
  "agen": 5505,
  "ãl@@": 5506,
  "ton@@": 5507,
  "04:@@": 5508,
  "SP@@": 5509,
  "Esp@@": 5510,
  "CR@@": 5511,
  "Media": 5512,
  "Last": 5513,
  "Sofia": 5514,
  "V,": 5515,
  "Tok@@": 5516,
  "wel@@": 5517,
  "RU@@": 5518,
  "Avi@@": 5519,
  "88": 5520,
  "明@@": 5521,
  "Design": 5522,
  "May@@": 5523,
  "abo@@": 5524,
  "eva": 5525,
  "alon@@": 5526,
  "Quality": 5527,
  "·@@": 5528,
  "5000@@": 5529,
  "Internet": 5530,
  "ens": 5531,
  "Ho@@": 5532,
  "15,": 5533,
  "Host": 5534,
  "SARS-CoV@@": 5535,
  "My@@": 5536,
  "man,": 5537,
  "jef@@": 5538,
  "56@@": 5539,
  "cam": 5540,
  "17,": 5541,
  "IL": 5542,
  "43@@": 5543,
  "Bik@@": 5544,
  "HD@@": 5545,
  "Bul@@": 5546,
  "24:@@": 5547,
  "arin@@": 5548,
  "more@@": 5549,
  "Review": 5550,
  "OEM": 5551,
  "Digital": 5552,
  "inc@@": 5553,
  "II": 5554,
  "ement@@": 5555,
  "PS@@": 5556,
  "ube": 5557,
  "Aust@@": 5558,
  "(6)": 5559,
  "anti-@@": 5560,
  "Pay@@": 5561,
  "id,": 5562,
  "23,": 5563,
  "ader": 5564,
  "1xBet": 5565,
  "ed.@@": 5566,
  "h.": 5567,
  "F,": 5568,
  "0)": 5569,
  "otrop@@": 5570,
  "Dist@@": 5571,
  "addu@@": 5572,
  "too": 5573,
  "aud@@": 5574,
  "Electr@@": 5575,
  "Benz": 5576,
  "work@@": 5577,
  "E-@@": 5578,
  "ifi@@": 5579,
  "Chat": 5580,
  "ser": 5581,
  "button": 5582,
  "76@@": 5583,
  "ex": 5584,
  "bo": 5585,
  "4,@@": 5586,
  "Jav@@": 5587,
  "page:": 5588,
  "İ@@": 5589,
  "ن@@": 5590,
  "18,": 5591,
  "s-@@": 5592,
  "Flight": 5593,
  "õda": 5594,
  "(B@@": 5595,
  "pat@@": 5596,
  "(15@@": 5597,
  "y-@@": 5598,
  "Link": 5599,
  "qar@@": 5600,
  "71": 5601,
  "email": 5602,
  "hard@@": 5603,
  "Brazil": 5604,
  "Wad@@": 5605,
  "Ide@@": 5606,
  "get": 5607,
  "Loc@@": 5608,
  "lor@@": 5609,
  "OB@@": 5610,
  "110@@": 5611,
  "Lu@@": 5612,
  "forex": 5613,
  "shi,@@": 5614,
  "Tor@@": 5615,
  "ME": 5616,
  "i’u": 5617,
  "mone": 5618,
  "uch@@": 5619,
  "ins@@": 5620,
  "ron": 5621,
  "x,": 5622,
  "(8)": 5623,
  "24,": 5624,
  "Aw@@": 5625,
  "Cas@@": 5626,
  "n,": 5627,
  "○": 5628,
  "50%": 5629,
  "25,": 5630,
  "daban-@@": 5631,
  "tatta@@": 5632,
  "azi": 5633,
  "Academ@@": 5634,
  "Spr@@": 5635,
  "Mater@@": 5636,
  "wo@@": 5637,
  "PR@@": 5638,
  "53@@": 5639,
  "internet": 5640,
  "ş@@": 5641,
  "ert": 5642,
  "ɗai": 5643,
  "ones": 5644,
  "MB": 5645,
  "13.@@": 5646,
  "fani": 5647,
  "aron": 5648,
  "5\"": 5649,
  "al.": 5650,
  "76": 5651,
  "TCD@@": 5652,
  "Hosting@@": 5653,
  "FSX": 5654,
  "96@@": 5655,
  ".”": 5656,
  "Wannakitesurf.com": 5657,
  "a'i": 5658,
  "gay": 5659,
  "ica": 5660,
  "day": 5661,
  "urf.com": 5662,
  "Sakam@@": 5663,
  "و@@": 5664,
  "Office": 5665,
  "Tub@@": 5666,
  "AL": 5667,
  "Site@@": 5668,
  "11-@@": 5669,
  "Sof@@": 5670,
  "ult": 5671,
  "dangant@@": 5672,
  "Nat@@": 5673,
  "days": 5674,
  "09@@": 5675,
  "Fore@@": 5676,
  "dur=\"6.@@": 5677,
  "30%": 5678,
  "so,": 5679,
  "19.@@": 5680,
  "Amster@@": 5681,
  "raw": 5682,
  "Gurga@@": 5683,
  "Armageddon": 5684,
  "Chang@@": 5685,
  "k,": 5686,
  "Isra'@@": 5687,
  "box": 5688,
  "ç@@": 5689,
  "(C@@": 5690,
  "﻿": 5691,
  "λ@@": 5692,
  "smart@@": 5693,
  "Key": 5694,
  "ock@@": 5695,
  "Ukrainian": 5696,
  "Web": 5697,
  "Sel@@": 5698,
  "ester": 5699,
  "ô@@": 5700,
  "mir@@": 5701,
  "CSGO@@": 5702,
  "Generator": 5703,
  "month": 5704,
  "brow@@": 5705,
  "Card": 5706,
  "Bus@@": 5707,
  "Str@@": 5708,
  "Code": 5709,
  "-3@@": 5710,
  "Saint": 5711,
  "Po@@": 5712,
  "Bank": 5713,
  "NG@@": 5714,
  "its": 5715,
  "Hell@@": 5716,
  "va": 5717,
  "Lim@@": 5718,
  "--": 5719,
  "Baku": 5720,
  "Model": 5721,
  "Lag@@": 5722,
  "m)": 5723,
  "06:@@": 5724,
  "DR@@": 5725,
  "Name": 5726,
  "Nin@@": 5727,
  "Lok@@": 5728,
  "surface": 5729,
  "pric@@": 5730,
  "latest": 5731,
  "i.@@": 5732,
  "js,": 5733,
  "ɓall@@": 5734,
  "Cho@@": 5735,
  "Micro@@": 5736,
  "ú@@": 5737,
  "ys": 5738,
  "05@@": 5739,
  "Switzer@@": 5740,
  "〒@@": 5741,
  "Ž@@": 5742,
  "í@@": 5743,
  "­@@": 5744,
  "©@@": 5745,
  "\\": 5746,
  "е@@": 5747,
  "س@@": 5748,
  "ẽ": 5749,
  "증@@": 5750,
  "â@@": 5751,
  "د@@": 5752,
  "인@@": 5753,
  "Ã@@": 5754,
  "❤@@": 5755,
  "}@@": 5756,
  "»@@": 5757,
  "м@@": 5758,
  "±": 5759,
  "о@@": 5760,
  "฿": 5761,
  "ğ@@": 5762,
  "м": 5763,
  "ی": 5764,
  "и@@": 5765,
  "ν@@": 5766,
  "ó@@": 5767,
  "ن": 5768,
  "т@@": 5769,
  "←": 5770,
  "ط": 5771,
  "ف@@": 5772,
  "è@@": 5773,
  "ت": 5774,
  "公@@": 5775,
  "د": 5776,
  "ش@@": 5777,
  "י@@": 5778,
  "κ@@": 5779,
  "л@@": 5780,
  "£@@": 5781,
  "н@@": 5782,
  "【@@": 5783,
  "¡@@": 5784,
  "™": 5785,
  "ə": 5786,
  "×@@": 5787,
  "⁠": 5788,
  "Č@@": 5789,
  "ī@@": 5790,
  "«": 5791,
  "ι@@": 5792,
  "å@@": 5793,
  "里@@": 5794,
  "ح@@": 5795,
  "Ş@@": 5796,
  "с@@": 5797,
  "｜": 5798,
  "à@@": 5799,
  "@@": 5800,
  "Ü@@": 5801,
  "ʹ@@": 5802,
  "≥@@": 5803,
  "♪": 5804,
  "、@@": 5805,
  "ق@@": 5806,
  "ı": 5807,
  "）@@": 5808,
  "~@@": 5809,
  "°@@": 5810,
  "█@@": 5811,
  "ه@@": 5812,
  "р@@": 5813,
  "ב@@": 5814,
  "ō": 5815,
  "ר@@": 5816,
  "ע@@": 5817,
  "μ@@": 5818,
  "ي": 5819,
  "|": 5820,
  "م": 5821,
  "¦@@": 5822,
  "한@@": 5823,
  "◆": 5824,
  "어": 5825,
  "국@@": 5826,
  "ת": 5827,
  "ο@@": 5828,
  "й": 5829,
  "Ε@@": 5830,
  "ñ@@": 5831,
  "η@@": 5832,
  "ε@@": 5833,
  "^@@": 5834,
  "מ@@": 5835,
  "а": 5836,
  "ه": 5837,
  "ي@@": 5838,
  "ά": 5839,
  "‏@@": 5840,
  "Ö@@": 5841,
  "日@@": 5842,
  "ק@@": 5843,
  "ê@@": 5844,
  "ṃ": 5845,
  "℃@@": 5846,
  "】@@": 5847,
  "Ç@@": 5848,
  "": 5849,
  "：": 5850,
  "б@@": 5851,
  "`": 5852,
  "А@@": 5853,
  "›": 5854,
  "ج@@": 5855,
  "酒@@": 5856,
  "«@@": 5857,
  "≤@@": 5858,
  "Т@@": 5859,
  "ک@@": 5860,
  "ч@@": 5861,
  "α@@": 5862,
  "Φ@@": 5863,
  "ŋ@@": 5864,
  "َ@@": 5865,
  "®@@": 5866,
  "ɔ@@": 5867,
  "ر": 5868,
  "️@@": 5869,
  "´@@": 5870,
  "​@@": 5871,
  "—@@": 5872,
  "‍@@": 5873,
  "ط@@": 5874,
  "△": 5875,
  "¥@@": 5876,
  "á": 5877,
  "Ş": 5878,
  "★@@": 5879,
  "ك@@": 5880,
  "市": 5881,
  "г@@": 5882,
  "ו@@": 5883,
  "í": 5884,
  "¢@@": 5885,
  "χ@@": 5886,
  "】": 5887,
  "北@@": 5888,
  "ô": 5889,
  "️": 5890,
  "Р@@": 5891,
  "＞@@": 5892,
  "α": 5893,
  "М@@": 5894,
  "ʼ@@": 5895,
  "": 5896,
  "{": 5897,
  "â": 5898,
  "С@@": 5899,
  "й@@": 5900,
  "ý@@": 5901,
  "本@@": 5902,
  "э@@": 5903,
  "台@@": 5904,
  "═@@": 5905,
  "⭐@@": 5906,
  "ー@@": 5907,
  "π@@": 5908,
  "у@@": 5909,
  "﻿@@": 5910,
  "ṭ@@": 5911,
  "Š@@": 5912,
  "中@@": 5913,
  "書@@": 5914,
  "🙂": 5915,
  "ρ@@": 5916,
  "•@@": 5917,
  "店": 5918,
  "ص@@": 5919,
  "Ă@@": 5920,
  "，@@": 5921,
  "ş": 5922,
  "†@@": 5923,
  "ɔ": 5924,
  "Á@@": 5925,
  "æ@@": 5926,
  "ř@@": 5927,
  "μ": 5928,
  "■": 5929,
  "Ə@@": 5930,
  "^": 5931,
  "ě@@": 5932,
  "ب": 5933,
  "†": 5934,
  "語": 5935,
  "ά@@": 5936,
  "‬": 5937,
  "è": 5938,
  "خ@@": 5939,
  "‎@@": 5940,
  "σ@@": 5941,
  "「@@": 5942,
  "★": 5943,
  "τ@@": 5944,
  "Ā": 5945,
  "Å@@": 5946,
  "💖@@": 5947,
  "ɛ@@": 5948,
  "≤": 5949,
  "ق": 5950,
  "º@@": 5951,
  "ί@@": 5952,
  "ś@@": 5953,
  "里": 5954,
  "」": 5955,
  "▓@@": 5956,
  "体@@": 5957,
  "ز@@": 5958,
  "ل": 5959,
  "‪@@": 5960,
  "О@@": 5961,
  "ṇ@@": 5962,
  "ë@@": 5963,
  "ן": 5964,
  "░@@": 5965,
  "❤": 5966,
  "简@@": 5967,
  "文": 5968,
  "｜@@": 5969,
  "−@@": 5970,
  "Ð@@": 5971,
  "ī": 5972,
  "¢": 5973,
  "⇩": 5974,
  "ª": 5975,
  "尼@@": 5976,
  "ọ@@": 5977,
  "□": 5978,
  "√": 5979,
  "ḍ@@": 5980,
  "§": 5981,
  "╰@@": 5982,
  "п@@": 5983,
  "山@@": 5984,
  "認@@": 5985,
  "д@@": 5986,
  "👩@@": 5987,
  "@@": 5988,
  "ü": 5989,
  "♦": 5990,
  "î@@": 5991,
  "Σ@@": 5992,
  "●@@": 5993,
  "リ@@": 5994,
  "ł@@": 5995,
  "É@@": 5996,
  "н": 5997,
  "Ô@@": 5998,
  "إ@@": 5999,
  "К@@": 6000,
  "ē@@": 6001,
  "ṣ@@": 6002,
  "": 6003,
  "時@@": 6004,
  "亚": 6005,
  "û@@": 6006,
  "ø@@": 6007,
  "܂@@": 6008,
  "ˈ@@": 6009,
  "利@@": 6010,
  "ш@@": 6011,
  "西@@": 6012,
  "ィ@@": 6013,
  "х@@": 6014,
  "з@@": 6015,
  "„@@": 6016,
  "§@@": 6017,
  "間": 6018,
  "П@@": 6019,
  "▲": 6020,
  "Ĩ@@": 6021,
  "ь@@": 6022,
  "ό@@": 6023,
  "✔": 6024,
  "ф@@": 6025,
  "ū": 6026,
  "Ā@@": 6027,
  "ï@@": 6028,
  "и": 6029,
  "ُ@@": 6030,
  "Κ@@": 6031,
  "Ō@@": 6032,
  "･@@": 6033,
  "■@@": 6034,
  "א@@": 6035,
  "💋@@": 6036,
  "ι": 6037,
  "β@@": 6038,
  "‌@@": 6039,
  "δ@@": 6040,
  "в": 6041,
  "¡": 6042,
  "店@@": 6043,
  "פ@@": 6044,
  "ṃ@@": 6045,
  "ל@@": 6046,
  "ο": 6047,
  "": 6048,
  "Х@@": 6049,
  "γ@@": 6050,
  "・": 6051,
  "ç": 6052,
  "ـ@@": 6053,
  "ス@@": 6054,
  "я": 6055,
  "ṅ@@": 6056,
  "″": 6057,
  "椋@@": 6058,
  "т": 6059,
  "‌": 6060,
  "в@@": 6061,
  "ω@@": 6062,
  "型@@": 6063,
  "غ@@": 6064,
  "鳥": 6065,
  "명@@": 6066,
  "ă@@": 6067,
  "Б@@": 6068,
  "釜@@": 6069,
  "／@@": 6070,
  "州": 6071,
  "Ƃ@@": 6072,
  "と@@": 6073,
  "Ａ@@": 6074,
  "℉": 6075,
  "ï": 6076,
  "™@@": 6077,
  "ý": 6078,
  "＞": 6079,
  "≥": 6080,
  "ث@@": 6081,
  "Τ@@": 6082,
  "✓": 6083,
  "р": 6084,
  "〜@@": 6085,
  "ɗ": 6086,
  "↩": 6087,
  "ì@@": 6088,
  "": 6089,
  "е": 6090,
  "²@@": 6091,
  "广@@": 6092,
  "²": 6093,
  "î": 6094,
  "白@@": 6095,
  "ト@@": 6096,
  "上@@": 6097,
  "海": 6098,
  "ヌ@@": 6099,
  "マ@@": 6100,
  "이@@": 6101,
  "👍": 6102,
  "ル@@": 6103,
  "έ@@": 6104,
  "㎡@@": 6105,
  "Ξ@@": 6106,
  "→@@": 6107,
  "ь": 6108,
  "à": 6109,
  "㎡": 6110,
  "。": 6111,
  "¤@@": 6112,
  "ذ@@": 6113,
  "［@@": 6114,
  "ʹ": 6115,
  "ć@@": 6116,
  "Я@@": 6117,
  "İ": 6118,
  "˚@@": 6119,
  "ς": 6120,
  "̃@@": 6121,
  "拉@@": 6122,
  "ס@@": 6123,
  "ḥ": 6124,
  "ض@@": 6125,
  "า@@": 6126,
  "－": 6127,
  "├": 6128,
  "ク@@": 6129,
  "³": 6130,
  "◇@@": 6131,
  "ē": 6132,
  "テ@@": 6133,
  "þ@@": 6134,
  "月": 6135,
  "›@@": 6136,
  "Λ@@": 6137,
  "נ@@": 6138,
  "津@@": 6139,
  "س": 6140,
  "Н@@": 6141,
  "Π@@": 6142,
  "ú": 6143,
  "і@@": 6144,
  "ヴ@@": 6145,
  "́@@": 6146,
  "］": 6147,
  "箱@@": 6148,
  "Þ@@": 6149,
  "ש@@": 6150,
  "پ@@": 6151,
  "岳@@": 6152,
  "ع": 6153,
  "Г@@": 6154,
  "☆": 6155,
  "広@@": 6156,
  "Ч": 6157,
  "イ@@": 6158,
  "Д@@": 6159,
  "北": 6160,
  "大@@": 6161,
  "？": 6162,
  "邮@@": 6163,
  "Ƙ": 6164,
  "ö": 6165,
  "آ@@": 6166,
  "́@@": 6167,
  "ă": 6168,
  "‎": 6169,
  "臺@@": 6170,
  "أ@@": 6171,
  "레@@": 6172,
  "➥": 6173,
  "〒": 6174,
  "ɛ": 6175,
  "베@@": 6176,
  "🎀": 6177,
  "ε": 6178,
  "사@@": 6179,
  "ṛ@@": 6180,
  "у": 6181,
  "墨@@": 6182,
  "š": 6183,
  "😉": 6184,
  "～@@": 6185,
  "ה": 6186,
  "Ä@@": 6187,
  "ホ@@": 6188,
  "ł": 6189,
  "♀@@": 6190,
  "đ@@": 6191,
  "し@@": 6192,
  "№@@": 6193,
  "φ@@": 6194,
  "规@@": 6195,
  "ラ@@": 6196,
  "代@@": 6197,
  "Ó@@": 6198,
  "ć": 6199,
  "ル": 6200,
  "Ｄ@@": 6201,
  "王@@": 6202,
  "ж@@": 6203,
  "Ш@@": 6204,
  "󥹾@@": 6205,
  "ى": 6206,
  "￼@@": 6207,
  "ה@@": 6208,
  "机": 6209,
  "خ": 6210,
  "฿@@": 6211,
  "ン@@": 6212,
  "с": 6213,
  "╯@@": 6214,
  "安@@": 6215,
  "饤@@": 6216,
  "¥": 6217,
  "Ĥ@@": 6218,
  "호@@": 6219,
  "Υ@@": 6220,
  "Γ@@": 6221,
  "": 6222,
  "↓": 6223,
  "팔@@": 6224,
  "이": 6225,
  "Ø": 6226,
  "ガ": 6227,
  "ե@@": 6228,
  "Ω@@": 6229,
  "谷@@": 6230,
  "ヶ@@": 6231,
  "♥": 6232,
  "@@": 6233,
  "Ú@@": 6234,
  "💋": 6235,
  "타@@": 6236,
  "Л@@": 6237,
  "ט@@": 6238,
  "ħ@@": 6239,
  "は@@": 6240,
  "山": 6241,
  "か@@": 6242,
  "Ω": 6243,
  "ޤ@@": 6244,
  "ᵃ@@": 6245,
  "京": 6246,
  "根@@": 6247,
  "米": 6248,
  "桼@@": 6249,
  "르@@": 6250,
  "″@@": 6251,
  "ó": 6252,
  "О": 6253,
  "광@@": 6254,
  "˹@@": 6255,
  "گ@@": 6256,
  "É": 6257,
  "َ": 6258,
  "蔵@@": 6259,
  "子": 6260,
  "Ø@@": 6261,
  "礁": 6262,
  "妙@@": 6263,
  "草@@": 6264,
  "ν": 6265,
  "ß@@": 6266,
  "島": 6267,
  "╮@@": 6268,
  "υ@@": 6269,
  "ë": 6270,
  "の@@": 6271,
  "ò": 6272,
  "텔": 6273,
  "Ч@@": 6274,
  "Ý@@": 6275,
  "ύ@@": 6276,
  "義@@": 6277,
  "о": 6278,
  "ŋ": 6279,
  "◇": 6280,
  "御@@": 6281,
  "↑": 6282,
  "ニ@@": 6283,
  "ẹ": 6284,
  "安": 6285,
  "商@@": 6286,
  "燧@@": 6287,
  "신@@": 6288,
  "": 6289,
  "ش": 6290,
  "ა@@": 6291,
  "ḷ@@": 6292,
  "モ@@": 6293,
  "星@@": 6294,
  "č": 6295,
  "－@@": 6296,
  "ą@@": 6297,
  "시@@": 6298,
  "ْ@@": 6299,
  "ظ@@": 6300,
  "〜": 6301,
  "스@@": 6302,
  "ِ@@": 6303,
  "は": 6304,
  "都": 6305,
  "모": 6306,
  "￥@@": 6307,
  "서": 6308,
  "ɩ@@": 6309,
  "¨": 6310,
  "尔@@": 6311,
  "아@@": 6312,
  "̂@@": 6313,
  "旅": 6314,
  "증": 6315,
  "二@@": 6316,
  "ア@@": 6317,
  "л": 6318,
  "Ο@@": 6319,
  "市@@": 6320,
  "ف": 6321,
  "ḥ@@": 6322,
  "Ȥ@@": 6323,
  "号": 6324,
  "島@@": 6325,
  "加": 6326,
  "å": 6327,
  "斯@@": 6328,
  "」@@": 6329,
  "デ@@": 6330,
  "環@@": 6331,
  "라@@": 6332,
  "û": 6333,
  "廣@@": 6334,
  "я@@": 6335,
  "～": 6336,
  "ɂ@@": 6337,
  "ţ@@": 6338,
  "º": 6339,
  "±@@": 6340,
  "👭@@": 6341,
  "나@@": 6342,
  "ä": 6343,
  "ƴ@@": 6344,
  "ד@@": 6345,
  "马@@": 6346,
  "番@@": 6347,
  "˙@@": 6348,
  "서@@": 6349,
  "ン": 6350,
  "ϊ@@": 6351,
  "▼": 6352,
  "η": 6353,
  "国": 6354,
  "✓@@": 6355,
  "모@@": 6356,
  "年@@": 6357,
  "東@@": 6358,
  "定@@": 6359,
  "つ@@": 6360,
  "ы@@": 6361,
  "일@@": 6362,
  "电@@": 6363,
  "Ọ@@": 6364,
  "绉@@": 6365,
  "三@@": 6366,
  "に@@": 6367,
  "ラ": 6368,
  "保@@": 6369,
  "ナ": 6370,
  "알@@": 6371,
  "ʌ@@": 6372,
  "저@@": 6373,
  "˽@@": 6374,
  "名@@": 6375,
  "😀": 6376,
  "ʤ@@": 6377,
  "あ@@": 6378,
  "ª@@": 6379,
  "우": 6380,
  "ّ@@": 6381,
  "野": 6382,
  "Μ@@": 6383,
  "№": 6384,
  "ẹ@@": 6385,
  "℉@@": 6386,
  "地@@": 6387,
  "ร@@": 6388,
  "カ@@": 6389,
  "＝": 6390,
  "ト": 6391,
  "格": 6392,
  "度": 6393,
  "̄@@": 6394,
  "ः": 6395,
  "』": 6396,
  "＜@@": 6397,
  "送": 6398,
  "网@@": 6399,
  "料": 6400,
  "『@@": 6401,
  "平@@": 6402,
  "◆@@": 6403,
  "К": 6404,
  "ļ@@": 6405,
  "功@@": 6406,
  "ύ": 6407,
  "💖": 6408,
  "ʃ@@": 6409,
  "海@@": 6410,
  "⇒": 6411,
  "仕@@": 6412,
  "카@@": 6413,
  "사": 6414,
  "ù": 6415,
  "▸": 6416,
  "Σ": 6417,
  "だ@@": 6418,
  "ة": 6419,
  "줿@@": 6420,
  "ζ@@": 6421,
  "加@@": 6422,
  "È@@": 6423,
  "タ@@": 6424,
  "🌹@@": 6425,
  "ツ@@": 6426,
  "Ƥ@@": 6427,
  "Æ@@": 6428,
  "格@@": 6429,
  "һ@@": 6430,
  "г": 6431,
  "@@": 6432,
  "ů@@": 6433,
  "よ@@": 6434,
  "′": 6435,
  "ւ@@": 6436,
  "旅@@": 6437,
  "У@@": 6438,
  "И@@": 6439,
  "̀@@": 6440,
  "美@@": 6441,
  "ֳ@@": 6442,
  "子@@": 6443,
  "국": 6444,
  "ة@@": 6445,
  "،": 6446,
  "і": 6447,
  "ή": 6448,
  "다@@": 6449,
  "르": 6450,
  "全@@": 6451,
  "新": 6452,
  "ա@@": 6453,
  "김@@": 6454,
  "ئ@@": 6455,
  "바@@": 6456,
  "₹@@": 6457,
  "્@@": 6458,
  "⭐": 6459,
  "＆@@": 6460,
  "Ą@@": 6461,
  "🎤@@": 6462,
  "手@@": 6463,
  "０@@": 6464,
  "ò@@": 6465,
  "品@@": 6466,
  "南@@": 6467,
  "▾": 6468,
  "Α@@": 6469,
  "Ν@@": 6470,
  "ʂ@@": 6471,
  "田": 6472,
  "沙@@": 6473,
  "│": 6474,
  "キ@@": 6475,
  "►@@": 6476,
  "い@@": 6477,
  "％": 6478,
  "３@@": 6479,
  "Ŋ@@": 6480,
  "‑@@": 6481,
  "Е": 6482,
  "女@@": 6483,
  "１@@": 6484,
  "京@@": 6485,
  "─@@": 6486,
  "ک": 6487,
  "ย": 6488,
  "田@@": 6489,
  "ข@@": 6490,
  "彩@@": 6491,
  "岛@@": 6492,
  "岛": 6493,
  "在@@": 6494,
  "쿠@@": 6495,
  "罗": 6496,
  "圣@@": 6497,
  "징": 6498,
  "Â": 6499,
  "͡@@": 6500,
  "Â@@": 6501,
  "ジ@@": 6502,
  "滋@@": 6503,
  "ს@@": 6504,
  "ક@@": 6505,
  "ま@@": 6506,
  "株@@": 6507,
  "尺@@": 6508,
  "様@@": 6509,
  "高@@": 6510,
  "ȡ@@": 6511,
  "区": 6512,
  "장@@": 6513,
  "관@@": 6514,
  "，": 6515,
  "ц@@": 6516,
  "ය": 6517,
  "³@@": 6518,
  "Ф@@": 6519,
  "ğ": 6520,
  "寸": 6521,
  "¯": 6522,
  "武@@": 6523,
  "链": 6524,
  "­": 6525,
  "ー": 6526,
  "路@@": 6527,
  "文@@": 6528,
  "②": 6529,
  "獅@@": 6530,
  "΍@@": 6531,
  "ブ": 6532,
  "장": 6533,
  "к": 6534,
  "橋@@": 6535,
  "¸@@": 6536,
  "": 6537,
  "말@@": 6538,
  "Ȃ@@": 6539,
  "ર@@": 6540,
  "率": 6541,
  "ા@@": 6542,
  "い": 6543,
  "Ê@@": 6544,
  "县@@": 6545,
  "ю@@": 6546,
  "⁄": 6547,
  "타": 6548,
  "ê": 6549,
  "道@@": 6550,
  "斯": 6551,
  "리@@": 6552,
  "法@@": 6553,
  "−": 6554,
  "샤@@": 6555,
  "̫@@": 6556,
  "ム": 6557,
  "纸@@": 6558,
  "練@@": 6559,
  "⌘@@": 6560,
  "巴@@": 6561,
  "ù@@": 6562,
  "부@@": 6563,
  "라": 6564,
  "夜@@": 6565,
  "フ@@": 6566,
  "ל": 6567,
  "̍@@": 6568,
  "ầ@@": 6569,
  "🧚@@": 6570,
  "裁@@": 6571,
  "ත@@": 6572,
  "⠀@@": 6573,
  "": 6574,
  "Ô": 6575,
  "સ@@": 6576,
  "／": 6577,
  "ツ": 6578,
  "酒": 6579,
  "➜": 6580,
  "‒@@": 6581,
  "Ϊ@@": 6582,
  "😘@@": 6583,
  "🙁": 6584,
  "❀@@": 6585,
  "ę@@": 6586,
  "ث": 6587,
  "ａ@@": 6588,
  "µ@@": 6589,
  "馬": 6590,
  "형@@": 6591,
  "パ@@": 6592,
  "☆@@": 6593,
  "̓@@": 6594,
  "刀": 6595,
  "시": 6596,
  "하@@": 6597,
  "🔥@@": 6598,
  "Β@@": 6599,
  "ɩ": 6600,
  "기@@": 6601,
  "場@@": 6602,
  "度@@": 6603,
  "り@@": 6604,
  "ح": 6605,
  "ض": 6606,
  "．@@": 6607,
  "÷": 6608,
  "段": 6609,
  "̄": 6610,
  "ɑ@@": 6611,
  "す@@": 6612,
  "주@@": 6613,
  "ˤ@@": 6614,
  "ポ@@": 6615,
  "※@@": 6616,
  "뤵@@": 6617,
  "♣": 6618,
  "ƥ@@": 6619,
  "Ц@@": 6620,
  "지": 6621,
  "자@@": 6622,
  "検@@": 6623,
  "ť@@": 6624,
  "󥹥@@": 6625,
  "ナ@@": 6626,
  "〇": 6627,
  "ර@@": 6628,
  "룸": 6629,
  "Η@@": 6630,
  "툴@@": 6631,
  "重": 6632,
  "≈@@": 6633,
  "８@@": 6634,
  "י": 6635,
  "轴@@": 6636,
  "ɽ@@": 6637,
  "リ": 6638,
  "ْ": 6639,
  "承": 6640,
  "＋": 6641,
  "ロ@@": 6642,
  "式": 6643,
  "愛@@": 6644,
  "ɲ@@": 6645,
  "¾@@": 6646,
  "Ñ@@": 6647,
  "ゥ@@": 6648,
  "布@@": 6649,
  "ٍ": 6650,
  "ѕ@@": 6651,
  "Ж": 6652,
  "💜@@": 6653,
  "ワ": 6654,
  "̕@@": 6655,
  "": 6656,
  "バ@@": 6657,
  "έ": 6658,
  "🎀@@": 6659,
  "馆": 6660,
  "복@@": 6661,
  "寺@@": 6662,
  "리": 6663,
  "Û@@": 6664,
  "🌷@@": 6665,
  "Ә@@": 6666,
  "ʻ@@": 6667,
  "본@@": 6668,
  "키": 6669,
  "ク": 6670,
  "首@@": 6671,
  "Χ@@": 6672,
  "賀": 6673,
  "さ@@": 6674,
  "Ι": 6675,
  "П": 6676,
  "ʼ": 6677,
  "Ý": 6678,
  "金@@": 6679,
  "რ@@": 6680,
  "̔@@": 6681,
  "❖": 6682,
  "Ū@@": 6683,
  "지@@": 6684,
  "♂@@": 6685,
  "💝@@": 6686,
  "": 6687,
  "ი": 6688,
  "円": 6689,
  "ĥ@@": 6690,
  "В@@": 6691,
  "気@@": 6692,
  "니": 6693,
  "‐": 6694,
  "레": 6695,
  "☞": 6696,
  "ʊ@@": 6697,
  "고@@": 6698,
  "合@@": 6699,
  "ר": 6700,
  "Е@@": 6701,
  "½": 6702,
  "ż@@": 6703,
  "Я": 6704,
  "蓬@@": 6705,
  "및": 6706,
  "œ@@": 6707,
  "ģ@@": 6708,
  "д": 6709,
  "∞": 6710,
  "Ы": 6711,
  "ʿ@@": 6712,
  "세@@": 6713,
  "̌@@": 6714,
  "마@@": 6715,
  "‐@@": 6716,
  "스": 6717,
  "濂@@": 6718,
  "杩@@": 6719,
  "关@@": 6720,
  "花@@": 6721,
  "안": 6722,
  "直@@": 6723,
  "Δ@@": 6724,
  "Ŕ": 6725,
  "轴": 6726,
  "成@@": 6727,
  "ƒ@@": 6728,
  "́": 6729,
  "💰@@": 6730,
  "에@@": 6731,
  "ì": 6732,
  "ǰ@@": 6733,
  "야": 6734,
  "̌": 6735,
  "ג@@": 6736,
  "란@@": 6737,
  "夫@@": 6738,
  "̎@@": 6739,
  "分@@": 6740,
  "日": 6741,
  "⋆": 6742,
  "華@@": 6743,
  "袋": 6744,
  "ブ@@": 6745,
  "５@@": 6746,
  "ʽ@@": 6747,
  "💓@@": 6748,
  "ա": 6749,
  "纳@@": 6750,
  "假@@": 6751,
  "오@@": 6752,
  "ז": 6753,
  "푸@@": 6754,
  "්@@": 6755,
  "Ҫ@@": 6756,
  "く@@": 6757,
  "🤖": 6758,
  "👑@@": 6759,
  "品": 6760,
  "ɾ@@": 6761,
  "站@@": 6762,
  "や@@": 6763,
  "曲": 6764,
  "票@@": 6765,
  "Ⅲ": 6766,
  "Ι@@": 6767,
  "Ǥ@@": 6768,
  "级@@": 6769,
  "ો@@": 6770,
  "圆@@": 6771,
  "˵@@": 6772,
  "英@@": 6773,
  "･": 6774,
  "ء@@": 6775,
  "ว@@": 6776,
  "牛@@": 6777,
  "ṁ@@": 6778,
  "り": 6779,
  "დ@@": 6780,
  "Š": 6781,
  "̒@@": 6782,
  "Ա@@": 6783,
  "@@": 6784,
  "Ϥ@@": 6785,
  "ُ": 6786,
  "プ@@": 6787,
  "た@@": 6788,
  "@@": 6789,
  "金": 6790,
  "ע": 6791,
  "վ@@": 6792,
  "당@@": 6793,
  "ʾ@@": 6794,
  "索": 6795,
  "舞@@": 6796,
  "ñ": 6797,
  "牌@@": 6798,
  "ž": 6799,
  "Ο": 6800,
  "ɖ@@": 6801,
  "号@@": 6802,
  "🔥": 6803,
  "ʋ@@": 6804,
  "양@@": 6805,
  "メ@@": 6806,
  "🏼@@": 6807,
  "Ŀ@@": 6808,
  "¬": 6809,
  "尔": 6810,
  "桑@@": 6811,
  "宿@@": 6812,
  "้@@": 6813,
  "▀@@": 6814,
  "①": 6815,
  "ո@@": 6816,
  "哥": 6817,
  "청@@": 6818,
  "두": 6819,
  "４@@": 6820,
  "♡": 6821,
  "ʳ@@": 6822,
  "ء": 6823,
  "吉@@": 6824,
  "証": 6825,
  "锴@@": 6826,
  "苏@@": 6827,
  "크@@": 6828,
  "바": 6829,
  "Đ@@": 6830,
  "‧": 6831,
  "。@@": 6832,
  "✅": 6833,
  "Դ@@": 6834,
  "케@@": 6835,
  "环@@": 6836,
  "𝐄@@": 6837,
  "芭@@": 6838,
  "⚡@@": 6839,
  "ų": 6840,
  "노": 6841,
  "ी@@": 6842,
  "ת@@": 6843,
  "ư@@": 6844,
  "ア": 6845,
  "💗@@": 6846,
  "✨@@": 6847,
  "Ì@@": 6848,
  "、": 6849,
  "「": 6850,
  "׷@@": 6851,
  "": 6852,
  "🎈@@": 6853,
  "": 6854,
  "速@@": 6855,
  "☀@@": 6856,
  "🌼@@": 6857,
  "一@@": 6858,
  "床": 6859,
  "重@@": 6860,
  "量": 6861,
  "工": 6862,
  "列": 6863,
  "أ": 6864,
  "牡@@": 6865,
  "ビ@@": 6866,
  "💗": 6867,
  "✅@@": 6868,
  "址@@": 6869,
  "ェ@@": 6870,
  "소@@": 6871,
  "图@@": 6872,
  "": 6873,
  "ҹ@@": 6874,
  "ɐ@@": 6875,
  "்": 6876,
  "寅@@": 6877,
  "γ": 6878,
  "А": 6879,
  "층": 6880,
  "@@": 6881,
  "星": 6882,
  "ҵ@@": 6883,
  "수@@": 6884,
  "😂@@": 6885,
  "츠": 6886,
  "》": 6887,
  "《@@": 6888,
  "킷": 6889,
  "재@@": 6890,
  "트@@": 6891,
  "ׁ": 6892,
  "ָ@@": 6893,
  "░": 6894,
  "미@@": 6895,
  "ụ": 6896,
  "악": 6897,
  "": 6898,
  "አ@@": 6899,
  "そ@@": 6900,
  "₂": 6901,
  "外@@": 6902,
  "び@@": 6903,
  "þ": 6904,
  "🥇": 6905,
  "선@@": 6906,
  "": 6907,
  "む@@": 6908,
  "く": 6909,
  "🇦": 6910,
  "莱@@": 6911,
  "С": 6912,
  "２": 6913,
  "井@@": 6914,
  "샹@@": 6915,
  "认@@": 6916,
  "※": 6917,
  "ṉ@@": 6918,
  "메@@": 6919,
  "廊": 6920,
  "ǥ@@": 6921,
  "￦@@": 6922,
  "イ": 6923,
  "赤@@": 6924,
  "ו": 6925,
  "@@": 6926,
  "チ@@": 6927,
  "б": 6928,
  "└": 6929,
  "町": 6930,
  "Ր@@": 6931,
  "秒": 6932,
  "ы": 6933,
  "能": 6934,
  "形": 6935,
  "坦": 6936,
  "诺@@": 6937,
  "Ｋ@@": 6938,
  "브": 6939,
  "성@@": 6940,
  "基@@": 6941,
  "厚@@": 6942,
  "阿@@": 6943,
  "特@@": 6944,
  "月@@": 6945,
  "免@@": 6946,
  "Ｍ@@": 6947,
  "無@@": 6948,
  "⑥": 6949,
  "て": 6950,
  "덕": 6951,
  "І@@": 6952,
  "鲁": 6953,
  "ǒ": 6954,
  "의": 6955,
  "러@@": 6956,
  "게": 6957,
  "钩@@": 6958,
  "브@@": 6959,
  "Ｉ@@": 6960,
  "의@@": 6961,
  "奥@@": 6962,
  "🙏@@": 6963,
  "页": 6964,
  "🤲@@": 6965,
  "形@@": 6966,
  "芙@@": 6967,
  "ǎ@@": 6968,
  "天@@": 6969,
  "ׂ@@": 6970,
  "Ȓ@@": 6971,
  "Б": 6972,
  "💯": 6973,
  "¹@@": 6974,
  "🚀": 6975,
  "备@@": 6976,
  "̅": 6977,
  "ނ@@": 6978,
  "茻@@": 6979,
  "ݍ@@": 6980,
  "🤚": 6981,
  "આ@@": 6982,
  "ે@@": 6983,
  "چ@@": 6984,
  "Ƴ@@": 6985,
  "香@@": 6986,
  "木@@": 6987,
  "ټ@@": 6988,
  "嘉@@": 6989,
  "중@@": 6990,
  "ǎ": 6991,
  "֘@@": 6992,
  "݂@@": 6993,
  "こ@@": 6994,
  "ņ@@": 6995,
  "Ƶ@@": 6996,
  "▽": 6997,
  "ォ@@": 6998,
  "ߋ@@": 6999,
  "ס": 7000,
  "🌿@@": 7001,
  "̧@@": 7002,
  "구@@": 7003,
  "ꞌ@@": 7004,
  "采@@": 7005,
  "ַ@@": 7006,
  "ń@@": 7007,
  "񍐂@@": 7008,
  "˞@@": 7009,
  "達@@": 7010,
  "シ@@": 7011,
  "ʉ": 7012,
  "明": 7013,
  "ľ@@": 7014,
  "意@@": 7015,
  "貸@@": 7016,
  "切": 7017,
  "量@@": 7018,
  "泉@@": 7019,
  "‡": 7020,
  "ڂ@@": 7021,
  "̪@@": 7022,
  "޲@@": 7023,
  "八@@": 7024,
  "̑@@": 7025,
  "✔@@": 7026,
  "壇": 7027,
  "橋": 7028,
  "ր@@": 7029,
  "ě": 7030,
  "司": 7031,
  "Ａ": 7032,
  "❝@@": 7033,
  "元@@": 7034,
  "̶@@": 7035,
  "͂@@": 7036,
  "🇸@@": 7037,
  "大": 7038,
  "͐@@": 7039,
  "最@@": 7040,
  "ั@@": 7041,
  "Ȫ@@": 7042,
  "յ@@": 7043,
  "👩": 7044,
  "々": 7045,
  "原@@": 7046,
  "면": 7047,
  "本": 7048,
  "ま": 7049,
  "작@@": 7050,
  "期@@": 7051,
  "ȶ@@": 7052,
  "ї": 7053,
  "场": 7054,
  "≈": 7055,
  "坂@@": 7056,
  "щ@@": 7057,
  "그@@": 7058,
  "岸": 7059,
  "演@@": 7060,
  "ම@@": 7061,
  "니@@": 7062,
  "空@@": 7063,
  "れ@@": 7064,
  "아": 7065,
  "ٌ": 7066,
  "戒@@": 7067,
  "Í": 7068,
  "‰@@": 7069,
  "ț@@": 7070,
  "光@@": 7071,
  "賀@@": 7072,
  "用": 7073,
  "̱@@": 7074,
  "井": 7075,
  "宝@@": 7076,
  "真@@": 7077,
  "ケ@@": 7078,
  "坦@@": 7079,
  "폴@@": 7080,
  "Ф": 7081,
  "第@@": 7082,
  "午@@": 7083,
  "ǝ@@": 7084,
  "본": 7085,
  "╯": 7086,
  "ʰ@@": 7087,
  "ᵒ@@": 7088,
  "ᵍ@@": 7089,
  "♥@@": 7090,
  "🤣@@": 7091,
  "ǝ": 7092,
  "@@": 7093,
  "후@@": 7094,
  "伊@@": 7095,
  "용@@": 7096,
  "À@@": 7097,
  "̉@@": 7098,
  "ˉ": 7099,
  "管": 7100,
  "以@@": 7101,
  "ȱ@@": 7102,
  "ժ@@": 7103,
  "ˣ@@": 7104,
  "伯": 7105,
  "五@@": 7106,
  "河@@": 7107,
  "겁": 7108,
  "ð": 7109,
  "ҡ@@": 7110,
  "न@@": 7111,
  "≫": 7112,
  "≪@@": 7113,
  "າ@@": 7114,
  "書": 7115,
  "胸": 7116,
  "け": 7117,
  "ọ": 7118,
  "냉@@": 7119,
  "称@@": 7120,
  "Í@@": 7121,
  "ら@@": 7122,
  "ක@@": 7123,
  "п": 7124,
  "╮": 7125,
  "が@@": 7126,
  "温@@": 7127,
  "ુ@@": 7128,
  "観@@": 7129,
  "ב": 7130,
  "ى@@": 7131,
  "۽@@": 7132,
  "ӻ@@": 7133,
  "과": 7134,
  "熊": 7135,
  "צ@@": 7136,
  "🐭": 7137,
  "진": 7138,
  "ᵏ@@": 7139,
  "ば@@": 7140,
  "总@@": 7141,
  "ŏ@@": 7142,
  "塞@@": 7143,
  "浦@@": 7144,
  "룸@@": 7145,
  "우@@": 7146,
  "ϡ@@": 7147,
  "혜": 7148,
  "径": 7149,
  "Ł@@": 7150,
  "֤@@": 7151,
  "ミ@@": 7152,
  "ა": 7153,
  "洞@@": 7154,
  "원": 7155,
  "キ": 7156,
  "த@@": 7157,
  "@@": 7158,
  "证": 7159,
  "主@@": 7160,
  "΄@@": 7161,
  "ج": 7162,
  "̊@@": 7163,
  "爺@@": 7164,
  "🇳@@": 7165,
  "湖@@": 7166,
  "گ": 7167,
  "가": 7168,
  "索@@": 7169,
  "👯@@": 7170,
  "◊@@": 7171,
  "初@@": 7172,
  "―": 7173,
  "ɥ@@": 7174,
  "家@@": 7175,
  "ල@@": 7176,
  "证@@": 7177,
  "ං@@": 7178,
  "④": 7179,
  "😍@@": 7180,
  "机@@": 7181,
  "ն": 7182,
  "ん": 7183,
  "ǁ@@": 7184,
  "🎊@@": 7185,
  "소": 7186,
  "🌞@@": 7187,
  "科@@": 7188,
  "Ӥ@@": 7189,
  "˥@@": 7190,
  "▲@@": 7191,
  "ස@@": 7192,
  "ͨ@@": 7193,
  "💕@@": 7194,
  "เ@@": 7195,
  "Ż@@": 7196,
  "🇹": 7197,
  "ノ@@": 7198,
  "𝙠@@": 7199,
  "ｉ@@": 7200,
  "出@@": 7201,
  "③": 7202,
  "青@@": 7203,
  "ハ@@": 7204,
  "‡@@": 7205,
  "ˡ@@": 7206,
  "达@@": 7207,
  "🇮@@": 7208,
  "Ɏ@@": 7209,
  "世@@": 7210,
  "ч": 7211,
  "̖@@": 7212,
  "球@@": 7213,
  "界": 7214,
  "œ": 7215,
  "ŭ@@": 7216,
  "码": 7217,
  "＃": 7218,
  "￭": 7219,
  "Ⅱ@@": 7220,
  "ග@@": 7221,
  "系@@": 7222,
  "쥯@@": 7223,
  "Î@@": 7224,
  "": 7225,
  "心": 7226,
  "▼@@": 7227,
  "Ǎ@@": 7228,
  "🥺@@": 7229,
  "💡": 7230,
  "寓": 7231,
  "达": 7232,
  "サ@@": 7233,
  "ӡ@@": 7234,
  "と": 7235,
  "韓@@": 7236,
  "边": 7237,
  "ƃ@@": 7238,
  "接@@": 7239,
  "Մ@@": 7240,
  "ე@@": 7241,
  "ბ@@": 7242,
  "װ@@": 7243,
  "@@": 7244,
  "影@@": 7245,
  "븐@@": 7246,
  "🏽": 7247,
  "👉@@": 7248,
  "ɤ@@": 7249,
  "ِ": 7250,
  "🌟": 7251,
  "ש": 7252,
  "˼@@": 7253,
  "鞍@@": 7254,
  "З@@": 7255,
  "ද@@": 7256,
  "პ@@": 7257,
  "纳": 7258,
  "Ƹ@@": 7259,
  "💞@@": 7260,
  "ベ@@": 7261,
  "ʒ@@": 7262,
  "ન": 7263,
  "🧸@@": 7264,
  "レ": 7265,
  "分": 7266,
  "Ẹ@@": 7267,
  "👑": 7268,
  "た": 7269,
  "": 7270,
  "터": 7271,
  "ノ": 7272,
  "ʑ@@": 7273,
  "神@@": 7274,
  "ક": 7275,
  "邱@@": 7276,
  "耕@@": 7277,
  "다": 7278,
  "底@@": 7279,
  "↓@@": 7280,
  "鞋": 7281,
  "Ƿ@@": 7282,
  "Ƌ@@": 7283,
  "ǡ@@": 7284,
  "猩@@": 7285,
  "派@@": 7286,
  "號": 7287,
  "Ն@@": 7288,
  "褦@@": 7289,
  "🙋@@": 7290,
  "對": 7291,
  "🏻": 7292,
  "ǧ@@": 7293,
  "슌@@": 7294,
  "心@@": 7295,
  "ị@@": 7296,
  "ǵ@@": 7297,
  "¿@@": 7298,
  "΂@@": 7299,
  "Ｈ@@": 7300,
  "签@@": 7301,
  "‛@@": 7302,
  "લ@@": 7303,
  "ত@@": 7304,
  "临@@": 7305,
  "沂@@": 7306,
  "ս": 7307,
  "者": 7308,
  "🥰": 7309,
  "筆@@": 7310,
  "Տ@@": 7311,
  "○@@": 7312,
  "♂": 7313,
  "ય@@": 7314,
  "鎖@@": 7315,
  "Ի@@": 7316,
  "餐@@": 7317,
  "Ս@@": 7318,
  "ক@@": 7319,
  "ʮ@@": 7320,
  "編@@": 7321,
  "ો": 7322,
  "′@@": 7323,
  "Ｎ": 7324,
  "온@@": 7325,
  "영@@": 7326,
  "表": 7327,
  "천": 7328,
  "６@@": 7329,
  "박@@": 7330,
  "ǔ@@": 7331,
  "Ե@@": 7332,
  "΄": 7333,
  "鼻": 7334,
  "瀹@@": 7335,
  "于": 7336,
  "🇦@@": 7337,
  "食@@": 7338,
  "事": 7339,
  "斩@@": 7340,
  "着": 7341,
  "ₐ@@": 7342,
  "ễ@@": 7343,
  "ƌ@@": 7344,
  "ȷ@@": 7345,
  "ტ@@": 7346,
  "Ѕ@@": 7347,
  "百@@": 7348,
  "ด@@": 7349,
  "⬇@@": 7350,
  "ッ@@": 7351,
  "以": 7352,
  "̵": 7353,
  "Ѫ@@": 7354,
  "🅱@@": 7355,
  "编@@": 7356,
  "辑@@": 7357,
  "ҧ@@": 7358,
  "个@@": 7359,
  "็@@": 7360,
  "觪@@": 7361,
  "🤗": 7362,
  "֕@@": 7363,
  "─": 7364,
  "😃@@": 7365,
  "ٹ@@": 7366,
  "ؽ@@": 7367,
  "静@@": 7368,
  "⁰": 7369,
  "Ș@@": 7370,
  "제@@": 7371,
  "【": 7372,
  "ภ@@": 7373,
  "₦": 7374,
  "Ĩ": 7375,
  "ม@@": 7376,
  "🍫@@": 7377,
  "🌾": 7378,
  "Ɩ": 7379,
  "🌻@@": 7380,
  "⁰@@": 7381,
  "験@@": 7382,
  "อ@@": 7383,
  "ξ@@": 7384,
  "ย@@": 7385,
  "二": 7386,
  "่@@": 7387,
  "ง@@": 7388,
  "Ɋ@@": 7389,
  "ǣ@@": 7390,
  "ダ@@": 7391,
  "卓@@": 7392,
  "試@@": 7393,
  "ැ@@": 7394,
  "Ĺ@@": 7395,
  "叉@@": 7396,
  "🇵": 7397,
  "̈@@": 7398,
  "ɍ@@": 7399,
  "薏@@": 7400,
  "친@@": 7401,
  "苡": 7402,
  "✞@@": 7403,
  "ৣ@@": 7404,
  "В": 7405,
  "指@@": 7406,
  "庵": 7407,
  "ঔ@@": 7408,
  "Կ@@": 7409,
  "％@@": 7410,
  "盎@@": 7411,
  "؛": 7412,
  "Ü": 7413,
  "@@": 7414,
  "@@": 7415,
  "初": 7416,
  "‫@@": 7417,
  "于@@": 7418,
  "證@@": 7419,
  "ϋ@@": 7420,
  "き": 7421,
  "ḩ@@": 7422,
  "@@": 7423,
  "𝙣@@": 7424,
  "①@@": 7425,
  "◊": 7426,
  "𝙖@@": 7427,
  "𝙞@@": 7428,
  "谷": 7429,
  "▪@@": 7430,
  "Θ@@": 7431,
  "ド": 7432,
  "組": 7433,
  "´": 7434,
  "壯@@": 7435,
  "火": 7436,
  "打@@": 7437,
  "斩": 7438,
  "甲@@": 7439,
  "ؕ@@": 7440,
  "眼@@": 7441,
  "ｰ@@": 7442,
  "享": 7443,
  "ジ": 7444,
  "笹@@": 7445,
  "忠@@": 7446,
  "四@@": 7447,
  "叉": 7448,
  "ẖ@@": 7449,
  "尹@@": 7450,
  "人@@": 7451,
  "村@@": 7452,
  "🤷@@": 7453,
  "ּ@@": 7454,
  "色@@": 7455,
  "厦@@": 7456,
  "门": 7457,
  "Н": 7458,
  "🏻@@": 7459,
  "🏽@@": 7460,
  "✿": 7461,
  "인": 7462,
  "Ė": 7463,
  "🏾@@": 7464,
  "説@@": 7465,
  "હ@@": 7466,
  "ૌ@@": 7467,
  "ן@@": 7468,
  "ご": 7469,
  "可@@": 7470,
  "倫@@": 7471,
  "坡": 7472,
  "う": 7473,
  "ח@@": 7474,
  "Ί@@": 7475,
  "ȥ@@": 7476,
  "供@@": 7477,
  "め@@": 7478,
  "@@": 7479,
  "È": 7480,
  "බ@@": 7481,
  "꿈@@": 7482,
  "九@@": 7483,
  "̙@@": 7484,
  "案@@": 7485,
  "̘@@": 7486,
  "扎": 7487,
  "‹@@": 7488,
  "넬@@": 7489,
  "애@@": 7490,
  "쉬": 7491,
  "̐@@": 7492,
  "页@@": 7493,
  "만@@": 7494,
  "🥂": 7495,
  "𝐑@@": 7496,
  "유@@": 7497,
  "姓@@": 7498,
  "@@": 7499,
  "𝐍@@": 7500,
  "迅@@": 7501,
  "漣@@": 7502,
  "׵@@": 7503,
  "🔹@@": 7504,
  "Ж@@": 7505,
  "橙": 7506,
  "ギ@@": 7507,
  "台": 7508,
  "鵜@@": 7509,
  "산@@": 7510,
  "👉": 7511,
  "ӹ@@": 7512,
  "ȵ@@": 7513,
  "ĸ@@": 7514,
  "ְ@@": 7515,
  "ƽ@@": 7516,
  "ʱ@@": 7517,
  "క@@": 7518,
  "갓": 7519,
  "斎@@": 7520,
  "ご@@": 7521,
  "조@@": 7522,
  "❞": 7523,
  "ネ@@": 7524,
  "灯@@": 7525,
  "特": 7526,
  "シ": 7527,
  "内@@": 7528,
  "◔@@": 7529,
  "宾@@": 7530,
  "歯@@": 7531,
  "📍": 7532,
  "ꕔ@@": 7533,
  "ζ": 7534,
  "セ@@": 7535,
  "桂@@": 7536,
  "殿": 7537,
  "檺@@": 7538,
  "앙@@": 7539,
  "🍩": 7540,
  "네@@": 7541,
  "ˎ@@": 7542,
  "＄": 7543,
  "🙅@@": 7544,
  "＋@@": 7545,
  "路": 7546,
  "ܡ@@": 7547,
  "誺@@": 7548,
  "น@@": 7549,
  "ܰ@@": 7550,
  "之@@": 7551,
  "Ⱥ@@": 7552,
  "텔@@": 7553,
  "ܤ@@": 7554,
  "파@@": 7555,
  "티@@": 7556,
  "정@@": 7557,
  "Ŷ@@": 7558,
  "ス": 7559,
  "訊": 7560,
  "급@@": 7561,
  "資@@": 7562,
  "₼": 7563,
  "Ţ@@": 7564,
  "装@@": 7565,
  "造": 7566,
  "Ī@@": 7567,
  "신": 7568,
  "🧚": 7569,
  "肅@@": 7570,
  "Ӫ@@": 7571,
  "ở@@": 7572,
  "休@@": 7573,
  "": 7574,
  "₽": 7575,
  "季@@": 7576,
  "": 7577,
  "１": 7578,
  "甘@@": 7579,
  "．": 7580,
  "牙@@": 7581,
  "@@": 7582,
  "櫂": 7583,
  "Ⓜ": 7584,
  "冬@@": 7585,
  "ｈ@@": 7586,
  "બ@@": 7587,
  "ｓ@@": 7588,
  "か": 7589,
  "Ｔ@@": 7590,
  "⏩@@": 7591,
  "😂": 7592,
  "ˮ@@": 7593,
  "省@@": 7594,
  "印@@": 7595,
  "寒@@": 7596,
  "湯@@": 7597,
  "枡@@": 7598,
  "ٰ": 7599,
  "🐐": 7600,
  "ʋ": 7601,
  "¨@@": 7602,
  "亚@@": 7603,
  "": 7604,
  "池@@": 7605,
  "Ⅱ": 7606,
  "♔@@": 7607,
  "深@@": 7608,
  "도@@": 7609,
  "授@@": 7610,
  "Й@@": 7611,
  "Э@@": 7612,
  "Й": 7613,
  "Ｂ@@": 7614,
  "Ҳ@@": 7615,
  "˾@@": 7616,
  "楽@@": 7617,
  "圳@@": 7618,
  "作@@": 7619,
  "砂@@": 7620,
  "ӵ@@": 7621,
  "▽@@": 7622,
  "대@@": 7623,
  "ム@@": 7624,
  "他": 7625,
  "ń": 7626,
  "塔@@": 7627,
  "屋": 7628,
  "其@@": 7629,
  "沖@@": 7630,
  "무@@": 7631,
  "꧂": 7632,
  "༒@@": 7633,
  "도": 7634,
  "☬@@": 7635,
  "力@@": 7636,
  "昌@@": 7637,
  "鱼@@": 7638,
  "化@@": 7639,
  "택": 7640,
  "¼": 7641,
  "（": 7642,
  "Ё@@": 7643,
  "醸@@": 7644,
  "진@@": 7645,
  "地": 7646,
  "生@@": 7647,
  "į": 7648,
  "協@@": 7649,
  "": 7650,
  "信@@": 7651,
  "컬@@": 7652,
  "렉@@": 7653,
  "션": 7654,
  "질": 7655,
  "안@@": 7656,
  "@@": 7657,
  "Π": 7658,
  "양": 7659,
  "¯@@": 7660,
  "✋@@": 7661,
  "₺@@": 7662,
  "😚@@": 7663,
  "ワ@@": 7664,
  "🥀@@": 7665,
  "🙌@@": 7666,
  "课": 7667,
  "🇺": 7668,
  "鎌@@": 7669,
  "娃@@": 7670,
  "🇷@@": 7671,
  "Հ@@": 7672,
  "村": 7673,
  "̲@@": 7674,
  "捕@@": 7675,
  "޹@@": 7676,
  "健": 7677,
  "啪@@": 7678,
  "ा@@": 7679,
  "器": 7680,
  "͉@@": 7681,
  "≡": 7682,
  "Ğ@@": 7683,
  "莫@@": 7684,
  "ј@@": 7685,
  "蠶@@": 7686,
  "色": 7687,
  "ペ@@": 7688,
  "下@@": 7689,
  "မ@@": 7690,
  "丹": 7691,
  "漢@@": 7692,
  "肺@@": 7693,
  "ာ@@": 7694,
  "楼": 7695,
  "◦": 7696,
  "ψ@@": 7697,
  "з": 7698,
  "ế@@": 7699,
  "叫@@": 7700,
  "ह@@": 7701,
  "ि@@": 7702,
  "前@@": 7703,
  "द@@": 7704,
  "ụ@@": 7705,
  "ನ@@": 7706,
  "😴@@": 7707,
  "ල": 7708,
  "ň@@": 7709,
  "ា@@": 7710,
  "啝@@": 7711,
  "½@@": 7712,
  "밸@@": 7713,
  "엿@@": 7714,
  "나": 7715,
  "먼": 7716,
  "Ö": 7717,
  "머@@": 7718,
  "班@@": 7719,
  "牙": 7720,
  "슨": 7721,
  "💐@@": 7722,
  "М": 7723,
  "치@@": 7724,
  "传@@": 7725,
  "Α": 7726,
  "잔@@": 7727,
  "〔@@": 7728,
  "〕": 7729,
  "ώ@@": 7730,
  "Ｙ@@": 7731,
  "麻@@": 7732,
  "甘": 7733,
  "語@@": 7734,
  "夫": 7735,
  "岁@@": 7736,
  "輪@@": 7737,
  "🏟": 7738,
  "හ@@": 7739,
  "ம@@": 7740,
  "ி@@": 7741,
  "德@@": 7742,
  "ழ@@": 7743,
  "武": 7744,
  "실": 7745,
  "మ@@": 7746,
  "ు@@": 7747,
  "ษ@@": 7748,
  "ท@@": 7749,
  "＊@@": 7750,
  "Т": 7751,
  "ダ": 7752,
  "🙋": 7753,
  "鸣@@": 7754,
  "ķ@@": 7755,
  "જ@@": 7756,
  "；@@": 7757,
  "담@@": 7758,
  "⃣": 7759,
  "월": 7760,
  "롤@@": 7761,
  "塼@@": 7762,
  "展@@": 7763,
  "륷@@": 7764,
  "Ѵ@@": 7765,
  "屋@@": 7766,
  "康@@": 7767,
  "야@@": 7768,
  "█": 7769,
  "󡣤@@": 7770,
  "Ă": 7771,
  "⤦@@": 7772,
  "貞@@": 7773,
  "블@@": 7774,
  "과@@": 7775,
  "일": 7776,
  "理@@": 7777,
  "ġ@@": 7778,
  "川@@": 7779,
  "⠀": 7780,
  "会@@": 7781,
  "何@@": 7782,
  "ю": 7783,
  "엔@@": 7784,
  "新@@": 7785,
  "히@@": 7786,
  "񤭹@@": 7787,
  "어@@": 7788,
  "프@@": 7789,
  "놈@@": 7790,
  "℡": 7791,
  "펜": 7792,
  "Ｊ@@": 7793,
  "😭@@": 7794,
  "ｔ@@": 7795,
  "บ@@": 7796,
  "ъ@@": 7797,
  "ต@@": 7798,
  "芳@@": 7799,
  "ュ@@": 7800,
  "≧@@": 7801,
  "ქ@@": 7802,
  "თ@@": 7803,
  "უ@@": 7804,
  "ლ@@": 7805,
  "հ@@": 7806,
  "ი@@": 7807,
  "刈@@": 7808,
  "ગ@@": 7809,
  "泰@@": 7810,
  "▶": 7811,
  "ไ@@": 7812,
  "া@@": 7813,
  "ھ@@": 7814,
  "ն@@": 7815,
  "ė@@": 7816,
  "역@@": 7817,
  "提@@": 7818,
  "광": 7819,
  "Ｎ@@": 7820,
  "ｉ": 7821,
  "ｋ@@": 7822,
  "Ｇ@@": 7823,
  "船@@": 7824,
  "ɨ@@": 7825,
  "₴@@": 7826,
  "问@@": 7827,
  "ボ@@": 7828,
  "福@@": 7829,
  "ů": 7830,
  "բ@@": 7831,
  "小@@": 7832,
  "梨": 7833,
  "で@@": 7834,
  "頻@@": 7835,
  "ٰ@@": 7836,
  "균@@": 7837,
  "와@@": 7838,
  "射@@": 7839,
  "类@@": 7840,
  "͌@@": 7841,
  "具": 7842,
  "砂": 7843,
  "节@@": 7844,
  "륨@@": 7845,
  "🎉@@": 7846,
  "様": 7847,
  "ꂵ@@": 7848,
  "@@": 7849,
  "社@@": 7850,
  "ő@@": 7851,
  "⌂@@": 7852,
  "ん@@": 7853,
  "∇": 7854,
  "̀": 7855,
  "": 7856,
  "": 7857,
  "说@@": 7858,
  "責": 7859,
  "川": 7860,
  "‭@@": 7861,
  "ȃ@@": 7862,
  "炦@@": 7863,
  "減@@": 7864,
  "ド@@": 7865,
  "Ｒ@@": 7866,
  "敏@@": 7867,
  "衰@@": 7868,
  "℅": 7869,
  "缃@@": 7870,
  "片": 7871,
  "耳@@": 7872,
  "🥰@@": 7873,
  "睡@@": 7874,
  "銀@@": 7875,
  "倉@@": 7876,
  "＠@@": 7877,
  "夾@@": 7878,
  "👨@@": 7879,
  "🇪@@": 7880,
  "性@@": 7881,
  "設@@": 7882,
  "环": 7883,
  "電@@": 7884,
  "を@@": 7885,
  "ં": 7886,
  "Ř@@": 7887,
  "트": 7888,
  "출@@": 7889,
  "🌸@@": 7890,
  "기": 7891,
  "威@@": 7892,
  "ʊ": 7893,
  "肅": 7894,
  "⚡": 7895,
  "자": 7896,
  "🤣": 7897,
  "ص": 7898,
  "Г": 7899,
  "先@@": 7900,
  "暗@@": 7901,
  "干@@": 7902,
  "这@@": 7903,
  "더": 7904,
  "怡": 7905,
  "令": 7906,
  "亜@@": 7907,
  "答": 7908,
  "ℓ@@": 7909,
  "价": 7910,
  "∼": 7911,
  "咀": 7912,
  "˅": 7913,
  "ǔ": 7914,
  "💙@@": 7915,
  "ﬁ@@": 7916,
  "セ": 7917,
  "ソ": 7918,
  "├@@": 7919,
  "尖@@": 7920,
  "报@@": 7921,
  "Ｏ@@": 7922,
  "법@@": 7923,
  "╔@@": 7924,
  "闽@@": 7925,
  "޵@@": 7926,
  "➕": 7927,
  "蕉": 7928,
  "源@@": 7929,
  "賣": 7930,
  "ጥ": 7931,
  "ሸ@@": 7932,
  "መ@@": 7933,
  "足@@": 7934,
  "居@@": 7935,
  "ざ@@": 7936,
  "语": 7937,
  "🖤": 7938,
  "♻": 7939,
  "☂": 7940,
  "行@@": 7941,
  "运@@": 7942,
  "細": 7943,
  "🕊@@": 7944,
  "脉": 7945,
  "禁@@": 7946,
  "켄@@": 7947,
  "乌@@": 7948,
  "話": 7949,
  "良@@": 7950,
  "伸": 7951,
  "有@@": 7952,
  "箱": 7953,
  "═": 7954,
  "ˆ@@": 7955,
  "ⅼ": 7956,
  "含@@": 7957,
  "積@@": 7958,
  "‬@@": 7959,
  "💞": 7960,
  "⑴": 7961,
  "ニ": 7962,
  "ß": 7963,
  "": 7964,
  "ȼ@@": 7965,
  "ả@@": 7966,
  "Ƕ@@": 7967,
  "膠@@": 7968,
  "԰@@": 7969,
  "에": 7970,
  "书@@": 7971,
  "‏": 7972,
  "志@@": 7973,
  "형": 7974,
  "อ": 7975,
  "ڳ@@": 7976,
  "喼@@": 7977,
  "Κ": 7978,
  "獎": 7979,
  "許@@": 7980,
  "コ@@": 7981,
  "勝@@": 7982,
  "的@@": 7983,
  "勒@@": 7984,
  "不@@": 7985,
  "那@@": 7986,
  "栄@@": 7987,
  "早@@": 7988,
  "住@@": 7989,
  "₷@@": 7990,
  "Ď@@": 7991,
  "": 7992,
  "∑@@": 7993,
  "Ղ@@": 7994,
  "ի@@": 7995,
  "㏸@@": 7996,
  "恋": 7997,
  "永@@": 7998,
  "전@@": 7999,
  "パ": 8000,
  "ϥ@@": 8001,
  "束@@": 8002,
  "β": 8003,
  "դ@@": 8004,
  "ื@@": 8005,
  "ห@@": 8006,
  "饼@@": 8007,
  "ը": 8008,
  "ꂷ": 8009,
  "ꁱ@@": 8010,
  "ꌠ@@": 8011,
  "ꆈ@@": 8012,
  "ふ@@": 8013,
  "ܗ@@": 8014,
  "น": 8015,
  "Ր": 8016,
  "₫@@": 8017,
  "厄@@": 8018,
  "計@@": 8019,
  "¬@@": 8020,
  "ඔ@@": 8021,
  "민": 8022,
  "サ": 8023,
  "制@@": 8024,
  "限@@": 8025,
  "ѕ": 8026,
  "ѐ@@": 8027,
  "읍@@": 8028,
  "٥@@": 8029,
  "ન@@": 8030,
  "વ@@": 8031,
  "મ@@": 8032,
  "Ņ@@": 8033,
  "률": 8034,
  "丸@@": 8035,
  "兹": 8036,
  "街": 8037,
  "ڪ@@": 8038,
  "刷": 8039,
  "ȩ@@": 8040,
  "ĳ": 8041,
  "պ@@": 8042,
  "⦿": 8043,
  "粲": 8044,
  "感": 8045,
  "灵@@": 8046,
  "演": 8047,
  "測": 8048,
  "ے@@": 8049,
  "麻": 8050,
  "ϲ@@": 8051,
  "⚠@@": 8052,
  "ဗ@@": 8053,
  "ܨ@@": 8054,
  "ौ": 8055,
  "ỗ@@": 8056,
  "😣": 8057,
  "氧@@": 8058,
  "ڕ@@": 8059,
  "梨@@": 8060,
  "ዩ": 8061,
  "中": 8062,
  "🥟": 8063,
  "🍜": 8064,
  "满@@": 8065,
  "玩@@": 8066,
  "У": 8067,
  "₩@@": 8068,
  "ሊ@@": 8069,
  "Ρ@@": 8070,
  "猿": 8071,
  "ද": 8072,
  "Ǹ@@": 8073,
  "幕@@": 8074,
  "㉫@@": 8075,
  "辫@@": 8076,
  "🇳": 8077,
  "ű@@": 8078,
  "අ@@": 8079,
  "↝": 8080,
  "🍒@@": 8081,
  "ව@@": 8082,
  "懿": 8083,
  "📢": 8084,
  "宮@@": 8085,
  "所": 8086,
  "ミ": 8087,
  "造@@": 8088,
  "ц": 8089,
  "汉": 8090,
  "兎@@": 8091,
  "ɡ": 8092,
  "⬇": 8093,
  "监@@": 8094,
  "": 8095,
  "注@@": 8096,
  "🇹@@": 8097,
  "ź": 8098,
  "段@@": 8099,
  "在": 8100,
  "；": 8101,
  "縄@@": 8102,
  "⚠": 8103,
  "炎": 8104,
  "册@@": 8105,
  "浜": 8106,
  "ර": 8107,
  "ෝ@@": 8108,
  "섬": 8109,
  "岳": 8110,
  "聖@@": 8111,
  "Ѷ@@": 8112,
  "임@@": 8113,
  "マ": 8114,
  "府": 8115,
  "权": 8116,
  "ȫ@@": 8117,
  "ۭ@@": 8118,
  "Û": 8119,
  "ǂ@@": 8120,
  "ٻ@@": 8121,
  "什@@": 8122,
  "➝": 8123,
  "거@@": 8124,
  "么@@": 8125,
  "凛@@": 8126,
  "标": 8127,
  "胡@@": 8128,
  "̽@@": 8129,
  "닉@@": 8130,
  "տ@@": 8131,
  "ȟ@@": 8132,
  "機": 8133,
  "߲@@": 8134,
  "Ƒ@@": 8135,
  "드": 8136,
  "랜@@": 8137,
  "视@@": 8138,
  "讯@@": 8139,
  "질@@": 8140,
  "객@@": 8141,
  "뉴@@": 8142,
  "芝@@": 8143,
  "📺": 8144,
  "根": 8145,
  "片@@": 8146,
  "킢@@": 8147,
  "照@@": 8148,
  "˂@@": 8149,
  "׊@@": 8150,
  "利": 8151,
  "写@@": 8152,
  "🤒": 8153,
  "＃@@": 8154,
  "近@@": 8155,
  "江@@": 8156,
  "ｎ@@": 8157,
  "费@@": 8158,
  "券": 8159,
  "照": 8160,
  "诵@@": 8161,
  "唱@@": 8162,
  "ɉ@@": 8163,
  "微@@": 8164,
  "调": 8165,
  "躺@@": 8166,
  "椅": 8167,
  "治@@": 8168,
  "描@@": 8169,
  "述": 8170,
  "٣@@": 8171,
  "战@@": 8172,
  "挑@@": 8173,
  "波@@": 8174,
  "": 8175,
  "프": 8176,
  "셰@@": 8177,
  "納@@": 8178,
  "郎@@": 8179,
  "幡": 8180,
  "頁": 8181,
  "ฯ": 8182,
  "ล@@": 8183,
  "ฯ@@": 8184,
  "𒈬@@": 8185,
  "咲": 8186,
  "஛@@": 8187,
  "巻": 8188,
  "鶴@@": 8189,
  "💼": 8190,
  "驿@@": 8191,
  "간": 8192,
  "🤦@@": 8193,
  "專@@": 8194,
  "款@@": 8195,
  "ම": 8196,
  "籌@@": 8197,
  "Ō": 8198,
  "ǒ@@": 8199,
  "󒍐@@": 8200,
  "륳@@": 8201,
  "纸": 8202,
  "靶@@": 8203,
  "٠@@": 8204,
  "务@@": 8205,
  "🏂": 8206,
  "徳": 8207,
  "牝@@": 8208,
  "њ@@": 8209,
  "🎩": 8210,
  "🎩@@": 8211,
  "息": 8212,
  "🐻@@": 8213,
  "器@@": 8214,
  "服@@": 8215,
  "プ": 8216,
  "🐻": 8217,
  "💫": 8218,
  "𖭍@@": 8219,
  "銅": 8220,
  "Ċ@@": 8221,
  "益@@": 8222,
  "茗@@": 8223,
  "酔@@": 8224,
  "": 8225,
  "🎁@@": 8226,
  "@@": 8227,
  "න@@": 8228,
  "お@@": 8229,
  "饰": 8230,
  "魚@@": 8231,
  "⑤": 8232,
  "ۧ@@": 8233,
  "٠": 8234,
  "鏈": 8235,
  "ℹ": 8236,
  "坤": 8237,
  "国@@": 8238,
  "🔁@@": 8239,
  "👇": 8240,
  "七@@": 8241,
  "粥": 8242,
  "⁝": 8243,
  "連@@": 8244,
  "🤯": 8245,
  "算@@": 8246,
  "口@@": 8247,
  "猪@@": 8248,
  "ʔ@@": 8249,
  "😜@@": 8250,
  "Ç": 8251,
  "親": 8252,
  "飯@@": 8253,
  "來": 8254,
  "如@@": 8255,
  "迦@@": 8256,
  "釋@@": 8257,
  "🙄": 8258,
  "📩@@": 8259,
  "📨@@": 8260,
  "柏@@": 8261,
  "ӿ@@": 8262,
  "馨@@": 8263,
  "Џ": 8264,
  "ґ@@": 8265,
  "ԓ@@": 8266,
  "ј": 8267,
  "製@@": 8268,
  "革@@": 8269,
  "蹇@@": 8270,
  "炬@@": 8271,
  "杈@@": 8272,
  "⌠@@": 8273,
  "不": 8274,
  "உ@@": 8275,
  "🦋": 8276,
  "ڈ@@": 8277,
  "Ē@@": 8278,
  "☼": 8279,
  "ო@@": 8280,
  "除@@": 8281,
  "드@@": 8282,
  "ᵣ": 8283,
  "ₕ@@": 8284,
  "𝆎@@": 8285,
  "҂@@": 8286,
  "ڕ": 8287,
  "ڙ@@": 8288,
  "ٵ@@": 8289,
  "თ": 8290,
  "ვ@@": 8291,
  "雪": 8292,
  "物": 8293,
  "친": 8294,
  "植@@": 8295,
  "葉@@": 8296,
  "ạ@@": 8297,
  "薔@@": 8298,
  "呂@@": 8299,
  "ટ@@": 8300,
  "ઇ@@": 8301,
  "ɕ@@": 8302,
  "ઝ@@": 8303,
  "울@@": 8304,
  "➤": 8305,
  "ؗ@@": 8306,
  "父@@": 8307,
  "쿄@@": 8308,
  "铂": 8309,
  "@@": 8310,
  "！": 8311,
  "ṩ@@": 8312,
  "ͳ@@": 8313,
  "ϵ@@": 8314,
  "ŷ@@": 8315,
  "Ʒ@@": 8316,
  "め": 8317,
  "責@@": 8318,
  "💻": 8319,
  "ℹ@@": 8320,
  "汁": 8321,
  "령@@": 8322,
  "任@@": 8323,
  "በ": 8324,
  "ሰ@@": 8325,
  "ካ@@": 8326,
  "า": 8327,
  "ฐ@@": 8328,
  "棕@@": 8329,
  "楠": 8330,
  "孙@@": 8331,
  "您@@": 8332,
  "迎@@": 8333,
  "欢@@": 8334,
  "": 8335,
  "🤛@@": 8336,
  "✊@@": 8337,
  "❞@@": 8338,
  "ค": 8339,
  "ช@@": 8340,
  "使": 8341,
  "华@@": 8342,
  "驻@@": 8343,
  "カ": 8344,
  "엑@@": 8345,
  "⟶": 8346,
  "馆@@": 8347,
  "ƅ@@": 8348,
  "ɯ": 8349,
  "💡@@": 8350,
  "🏾": 8351,
  "ɬ@@": 8352,
  "ꤹ@@": 8353,
  "򳫤@@": 8354,
  "ӥ@@": 8355,
  "ߤ@@": 8356,
  "ĺ@@": 8357,
  "碌@@": 8358,
  "䤤@@": 8359,
  "񤬳@@": 8360,
  "֥@@": 8361,
  "살": 8362,
  "럭": 8363,
  "ς@@": 8364,
  "④@@": 8365,
  "ħ": 8366,
  "焼": 8367,
  "📌@@": 8368,
  "Ġ@@": 8369,
  "💥@@": 8370,
  "💥": 8371,
  "﷼": 8372,
  "സ": 8373,
  "ൗ@@": 8374,
  "ഹ@@": 8375,
  "动": 8376,
  "活@@": 8377,
  "通@@": 8378,
  "證": 8379,
  "♡@@": 8380,
  "穴": 8381,
  "に": 8382,
  "词": 8383,
  "頁@@": 8384,
  "網@@": 8385,
  "莎@@": 8386,
  "瑪@@": 8387,
  "輪": 8388,
  "車@@": 8389,
  "톈@@": 8390,
  "伯@@": 8391,
  "🙊@@": 8392,
  "过": 8393,
  "🥩@@": 8394,
  "😊": 8395,
  "ආ@@": 8396,
  "▴": 8397,
  "À": 8398,
  "廻": 8399,
  "🇱@@": 8400,
  "∨": 8401,
  "🇻": 8402,
  "Á": 8403,
  "พ@@": 8404,
  "랑": 8405,
  "닌": 8406,
  "մ": 8407,
  "🧆@@": 8408,
  "մ@@": 8409,
  "": 8410,
  "答@@": 8411,
  "各@@": 8412,
  "ԑ@@": 8413,
  "😉@@": 8414,
  "😬@@": 8415,
  "🍉@@": 8416,
  "🥑@@": 8417,
  "🍗@@": 8418,
  "🍜@@": 8419,
  "罗@@": 8420,
  "幕": 8421,
  "₮": 8422,
  "弹@@": 8423,
  "ப@@": 8424,
  "ன@@": 8425,
  "இ@@": 8426,
  "🇰": 8427,
  "🇵@@": 8428,
  "경@@": 8429,
  "": 8430,
  "Ë@@": 8431,
  "@@": 8432,
  "話@@": 8433,
  "領@@": 8434,
  "總@@": 8435,
  "Ђ@@": 8436,
  "갤@@": 8437,
  "߻@@": 8438,
  "Ȼ": 8439,
  "湾": 8440,
  "玛@@": 8441,
  "ू@@": 8442,
  "ड@@": 8443,
  "铯@@": 8444,
  "别@@": 8445,
  "󂯕@@": 8446,
  "킹@@": 8447,
  "₢@@": 8448,
  "ொ@@": 8449,
  "ர@@": 8450,
  "ு@@": 8451,
  "ÿ": 8452,
  "爱@@": 8453,
  "໒@@": 8454,
  "곡@@": 8455,
  "👽": 8456,
  "👽@@": 8457,
  "👌@@": 8458,
  "る@@": 8459,
  "ᶰ@@": 8460,
  "艳@@": 8461,
  "ȕ@@": 8462,
  "؂@@": 8463,
  "Չ": 8464,
  "受": 8465,
  "Զ@@": 8466,
  "ゾ@@": 8467,
  "势@@": 8468,
  "走@@": 8469,
  "蓝@@": 8470,
  "双@@": 8471,
  "礁@@": 8472,
  "荃@@": 8473,
  "彦": 8474,
  "暢@@": 8475,
  "ள@@": 8476,
  "💪": 8477,
  "🐘@@": 8478,
  "💯@@": 8479,
  "そ": 8480,
  "椹@@": 8481,
  "姣@@": 8482,
  "홀": 8483,
  "보@@": 8484,
  "炭": 8485,
  "릉@@": 8486,
  "🍣": 8487,
  "🍤@@": 8488,
  "🍛@@": 8489,
  "ᵐ@@": 8490,
  "産@@": 8491,
  "裏@@": 8492,
  "庫@@": 8493,
  "脷@@": 8494,
  "현@@": 8495,
  "▫": 8496,
  "Ɍ@@": 8497,
  "㉻@@": 8498,
  "ߑ@@": 8499,
  "Љ@@": 8500,
  "Ǝ@@": 8501,
  "ڎ@@": 8502,
  "ꂪ@@": 8503,
  "Ð": 8504,
  "區": 8505,
  "ꂽ@@": 8506,
  "問@@": 8507,
  "ብ@@": 8508,
  "😁": 8509,
  "ኒ": 8510,
  "Ζ@@": 8511,
  "🍓": 8512,
  "版": 8513,
  "빌@@": 8514,
  "用@@": 8515,
  "劑@@": 8516,
  "毒@@": 8517,
  "消@@": 8518,
  "長@@": 8519,
  "隊@@": 8520,
  "ท": 8521,
  "💬": 8522,
  "ิ@@": 8523,
  "ቃ@@": 8524,
  "ል@@": 8525,
  "ף@@": 8526,
  "ḑ": 8527,
  "ो": 8528,
  "क@@": 8529,
  "😍": 8530,
  "𔭔@@": 8531,
  "˶@@": 8532,
  "ዱ@@": 8533,
  "채@@": 8534,
  "せ": 8535,
  "🦁@@": 8536,
  "す": 8537,
  "뜰@@": 8538,
  "ා@@": 8539,
  "භ@@": 8540,
  "枡": 8541,
  "ж": 8542,
  "額": 8543,
  "ብ": 8544,
  "ዘ@@": 8545,
  "菅@@": 8546,
  "ን@@": 8547,
  "ገ@@": 8548,
  "랜": 8549,
  "生": 8550,
  "플@@": 8551,
  "박": 8552,
  "숙@@": 8553,
  "‚@@": 8554,
  "ّ": 8555,
  "ǫ@@": 8556,
  "绾@@": 8557,
  "瓒@@": 8558,
  "Ƶ": 8559,
  "̰@@": 8560,
  "Ӳ@@": 8561,
  "۹@@": 8562,
  "👀@@": 8563,
  "🌻": 8564,
  "∃": 8565,
  "≫@@": 8566,
  "し": 8567,
  "さ": 8568,
  "舊@@": 8569,
  "裤": 8570,
  "角@@": 8571,
  "⏹@@": 8572,
  "ם@@": 8573,
  "🤔@@": 8574,
  "杏": 8575,
  "拍": 8576,
  "琴@@": 8577,
  "득": 8578,
  "表@@": 8579,
  "획@@": 8580,
  "🇮": 8581,
  "🇫@@": 8582,
  "〉": 8583,
  "查@@": 8584,
  "が": 8585,
  "抑": 8586,
  "力": 8587,
  "@@": 8588,
  "数@@": 8589,
  "単@@": 8590,
  "Ύ": 8591,
  "߰@@": 8592,
  "積": 8593,
  "也": 8594,
  "𝙖": 8595,
  "ᥙ": 8596,
  "ց": 8597,
  "𝙨": 8598,
  "😇": 8599,
  "ᥱ": 8600,
  "𝙀@@": 8601,
  "音": 8602,
  "擦@@": 8603,
  "ხ@@": 8604,
  "區@@": 8605,
  "̂": 8606,
  "ߧ@@": 8607,
  "彅": 8608,
  "ό": 8609,
  "🕑": 8610,
  "📅@@": 8611,
  "巌": 8612,
  "駒@@": 8613,
  "￭@@": 8614,
  "展": 8615,
  "ゾ": 8616,
  "道": 8617,
  "街@@": 8618,
  "😻@@": 8619,
  "𝙨@@": 8620,
  "🌱": 8621,
  "ว": 8622,
  "Ը@@": 8623,
  "禽": 8624,
  "仙@@": 8625,
  "ҳ": 8626,
  "ͻ@@": 8627,
  "ѹ@@": 8628,
  "价@@": 8629,
  "ɮ@@": 8630,
  "ѧ@@": 8631,
  "ѹ": 8632,
  "塔": 8633,
  "ʴ@@": 8634,
  "ࢵ@@": 8635,
  "👂@@": 8636,
  "ӷ@@": 8637,
  "繨@@": 8638,
  "🛌@@": 8639,
  "泉": 8640,
  "虹@@": 8641,
  "구": 8642,
  "ű": 8643,
  "ヤ": 8644,
  "쐬": 8645,
  "😃": 8646,
  "👀": 8647,
  "😜": 8648,
  "۵@@": 8649,
  "巴": 8650,
  "ซ@@": 8651,
  "𖞂@@": 8652,
  "廈": 8653,
  "柱": 8654,
  "⑬": 8655,
  "토@@": 8656,
  "์@@": 8657,
  "Ό@@": 8658,
  "境@@": 8659,
  "🇯@@": 8660,
  "🇶@@": 8661,
  "🇲@@": 8662,
  "铝@@": 8663,
  "削": 8664,
  "@@": 8665,
  "了@@": 8666,
  "魅@@": 8667,
  "🚶@@": 8668,
  "태@@": 8669,
  "Կ": 8670,
  "Ց@@": 8671,
  "ሳ": 8672,
  "ው@@": 8673,
  "ሐ@@": 8674,
  "მ@@": 8675,
  "ȍ@@": 8676,
  "Ｉ": 8677,
  "₃": 8678,
  "罰@@": 8679,
  "钯@@": 8680,
  "‚": 8681,
  "": 8682,
  "̱": 8683,
  "ʾ": 8684,
  "Ź@@": 8685,
  "岥@@": 8686,
  "＝@@": 8687,
  "皺@@": 8688,
  "わ@@": 8689,
  "θ@@": 8690,
  "Ã": 8691,
  "和": 8692,
  "심": 8693,
  "缀": 8694,
  "関@@": 8695,
  "⨯": 8696,
  "刨": 8697,
  "열": 8698,
  "船": 8699,
  "客@@": 8700,
  "☑@@": 8701,
  "門": 8702,
  "石@@": 8703,
  "味@@": 8704,
  "祭@@": 8705,
  "醐@@": 8706,
  "್@@": 8707,
  "्@@": 8708,
  "₴": 8709,
  "清@@": 8710,
  "昵@@": 8711,
  "ं@@": 8712,
  "歡@@": 8713,
  "節": 8714,
  "ಕ@@": 8715,
  "雲@@": 8716,
  "趙@@": 8717,
  "𝓈": 8718,
  "⒈": 8719,
  "莱": 8720,
  "ಡ@@": 8721,
  "标@@": 8722,
  "Қ@@": 8723,
  "қ": 8724,
  "ភ@@": 8725,
  "野@@": 8726,
  "由": 8727,
  "ស@@": 8728,
  "": 8729,
  "ខ@@": 8730,
  "鯉": 8731,
  "資": 8732,
  "狂@@": 8733,
  "比@@": 8734,
  "昂@@": 8735,
  "🤔": 8736,
  "升@@": 8737,
  "兰@@": 8738,
  "⧽": 8739,
  "Ļ@@": 8740,
  "手": 8741,
  "☎": 8742,
  "⁺": 8743,
  "布": 8744,
  "蒂@@": 8745,
  "혹@@": 8746,
  "‹": 8747,
  "潞": 8748,
  "苔@@": 8749,
  "🕋": 8750,
  "板@@": 8751,
  "粤": 8752,
  "备": 8753,
  "ત@@": 8754,
  "Յ": 8755,
  "Ï@@": 8756,
  "ી@@": 8757,
  "¦": 8758,
  "邁": 8759,
  "្@@": 8760,
  "요@@": 8761,
  "𝓂@@": 8762,
  "於@@": 8763,
  "@@": 8764,
  "エ@@": 8765,
  "മ@@": 8766,
  "ല@@": 8767,
  "ҝ@@": 8768,
  "Ԃ@@": 8769,
  "横@@": 8770,
  "യ@@": 8771,
  "净@@": 8772,
  "ാ@@": 8773,
  "ള@@": 8774,
  "̣@@": 8775,
  "Φ": 8776,
  "ം@@": 8777,
  "म@@": 8778,
  "र@@": 8779,
  "ᶻ@@": 8780,
  "關@@": 8781,
  "ݒ@@": 8782,
  "Ŏ@@": 8783,
  "苒": 8784,
  "荏@@": 8785,
  "ネ": 8786,
  "下": 8787,
  "": 8788,
  "ວ@@": 8789,
  "₪": 8790,
  "△@@": 8791,
  "ម@@": 8792,
  "ែ@@": 8793,
  "賭": 8794,
  "韂@@": 8795,
  "ザ@@": 8796,
  "で": 8797,
  "Ƨ": 8798,
  "រ@@": 8799,
  "事@@": 8800,
  "ພ@@": 8801,
  "ສ@@": 8802,
  "户@@": 8803,
  "开@@": 8804,
  "杯": 8805,
  "ު@@": 8806,
  "ລ@@": 8807,
  "发@@": 8808,
  "艧@@": 8809,
  "谋": 8810,
  "舍@@": 8811,
  "귽@@": 8812,
  "ⲟ": 8813,
  "✺": 8814,
  "立@@": 8815,
  "歓@@": 8816,
  "생@@": 8817,
  "☑": 8818,
  "輔@@": 8819,
  "恭@@": 8820,
  "冉": 8821,
  "沐@@": 8822,
  "和@@": 8823,
  "贺@@": 8824,
  "찰@@": 8825,
  "ડ": 8826,
  "哥@@": 8827,
  "摩": 8828,
  "寿@@": 8829,
  "桨": 8830,
  "園@@": 8831,
  "𝒸@@": 8832,
  "所@@": 8833,
  "诊@@": 8834,
  "Œ": 8835,
  "仲@@": 8836,
  "区@@": 8837,
  "φ": 8838,
  "撮@@": 8839,
  "館": 8840,
  "賓@@": 8841,
  "⓶": 8842,
  "標@@": 8843,
  "仁@@": 8844,
  "읽@@": 8845,
  "準@@": 8846,
  "膚@@": 8847,
  "ゴ@@": 8848,
  "☛": 8849,
  "言": 8850,
  "ケ": 8851,
  "陳@@": 8852,
  "👁": 8853,
  "👅@@": 8854,
  "👁@@": 8855,
  "发": 8856,
  "椋": 8857,
  "林@@": 8858,
  "▶@@": 8859,
  "個@@": 8860,
  "۝": 8861,
  "۝@@": 8862,
  "И": 8863,
  "ą": 8864,
  "⏩": 8865,
  "암@@": 8866,
  "𝑜@@": 8867,
  "都@@": 8868,
  "ԃ@@": 8869,
  "７@@": 8870,
  "果@@": 8871,
  "计": 8872,
  "풍": 8873,
  "岡@@": 8874,
  "𝒾": 8875,
  "𝒽@@": 8876,
  "ব@@": 8877,
  "Ｑ@@": 8878,
  "粤@@": 8879,
  "ং@@": 8880,
  "럼": 8881,
  "ߋ": 8882,
  "ল@@": 8883,
  "教@@": 8884,
  "ṇ": 8885,
  "ː@@": 8886,
  "𝓈@@": 8887,
  "처@@": 8888,
  "Р": 8889,
  "画@@": 8890,
  "爱": 8891,
  "♴": 8892,
  "빈@@": 8893,
  "귀@@": 8894,
  "천@@": 8895,
  "字@@": 8896,
  "한": 8897,
  "Ɂ@@": 8898,
  "◄": 8899,
  "칸": 8900,
  "🌚@@": 8901,
  "ɪ@@": 8902,
  "𝒾@@": 8903,
  "🔧": 8904,
  "✉": 8905,
  "💌": 8906,
  "😈": 8907,
  "Ƿ": 8908,
  "Ｅ@@": 8909,
  "８": 8910,
  "Ú": 8911,
  "😈@@": 8912,
  "⓸": 8913,
  "💃": 8914,
  "𝓃@@": 8915,
  "ண@@": 8916,
  "க@@": 8917,
  "📁": 8918,
  "Ħ@@": 8919,
  "₽@@": 8920,
  "Ь@@": 8921,
  "Ē": 8922,
  "료@@": 8923,
  "디@@": 8924,
  "ठ@@": 8925,
  "境": 8926,
  "播": 8927,
  "🤱": 8928,
  "̗@@": 8929,
  "迷@@": 8930,
  "材": 8931,
  "素@@": 8932,
  "؟": 8933,
  "详@@": 8934,
  "产@@": 8935,
  "데@@": 8936,
  "上": 8937,
  "廈@@": 8938,
  "門@@": 8939,
  "̨@@": 8940,
  "🎧@@": 8941,
  "防@@": 8942,
  "迅": 8943,
  "欧": 8944,
  "루@@": 8945,
  "ャ@@": 8946,
  "帽@@": 8947,
  "児": 8948,
  "幼@@": 8949,
  "乳@@": 8950,
  "남@@": 8951,
  "转@@": 8952,
  "冠@@": 8953,
  "立": 8954,
  "员@@": 8955,
  "ズ": 8956,
  "千@@": 8957,
  "﴾": 8958,
  "봉@@": 8959,
  "켓": 8960,
  "レ@@": 8961,
  "ソ@@": 8962,
  "駄@@": 8963,
  "な@@": 8964,
  "⓲": 8965,
  "體": 8966,
  "媒@@": 8967,
  "六": 8968,
  "☺": 8969,
  "😁@@": 8970,
  "🎤": 8971,
  "є@@": 8972,
  "ө@@": 8973,
  "肵@@": 8974,
  "ә@@": 8975,
  "脈": 8976,
  "ә": 8977,
  "ි": 8978,
  "ය@@": 8979,
  "土@@": 8980,
  "町@@": 8981,
  "̦@@": 8982,
  "규": 8983,
  "咲@@": 8984,
  "문@@": 8985,
  "験": 8986,
  "💚": 8987,
  "挂@@": 8988,
  "綺@@": 8989,
  "餉@@": 8990,
  "‰": 8991,
  "연@@": 8992,
  "Μ": 8993,
  "版@@": 8994,
  "Ｕ": 8995,
  "霞@@": 8996,
  "¾": 8997,
  "₦@@": 8998,
  "Ң@@": 8999,
  "ˉ@@": 9000,
  "来@@": 9001,
  "⠞@@": 9002,
  "처": 9003,
  "图": 9004,
  "书": 9005,
  "¼@@": 9006,
  "Ⅰ": 9007,
  "试@@": 9008,
  "雷@@": 9009,
  "扫@@": 9010,
  "米@@": 9011,
  "棋@@": 9012,
  "胜@@": 9013,
  "올@@": 9014,
  "速": 9015,
  "₁": 9016,
  "驶@@": 9017,
  "κ": 9018,
  "驾@@": 9019,
  "덕@@": 9020,
  "錢@@": 9021,
  "賞@@": 9022,
  "情": 9023,
  "𺦣@@": 9024,
  "๦@@": 9025,
  "ɵ@@": 9026,
  "鷢@@": 9027,
  "ձ@@": 9028,
  "ƻ@@": 9029,
  "⓷": 9030,
  "红@@": 9031,
  "包@@": 9032,
  "ϸ@@": 9033,
  "ʸ@@": 9034,
  "﴿": 9035,
  "指": 9036,
  "ြ@@": 9037,
  "త@@": 9038,
  "ਬ@@": 9039,
  "ੀ@@": 9040,
  "Ｓ@@": 9041,
  "ි@@": 9042,
  "코@@": 9043,
  "草": 9044,
  "ҷ@@": 9045,
  "ӣ@@": 9046,
  "삼@@": 9047,
  "키@@": 9048,
  "்@@": 9049,
  "ె@@": 9050,
  "̵@@": 9051,
  "⓹": 9052,
  "ల@@": 9053,
  "గ@@": 9054,
  "泊@@": 9055,
  "褯@@": 9056,
  "Ȱ@@": 9057,
  "ꡢ@@": 9058,
  "Ǽ@@": 9059,
  "뤬@@": 9060,
  "ʥ@@": 9061,
  "ץ@@": 9062,
  "ਾ@@": 9063,
  "ਜ@@": 9064,
  "ੰ@@": 9065,
  "畫@@": 9066,
  "로": 9067,
  "포@@": 9068,
  "樹": 9069,
  "政@@": 9070,
  "灯": 9071,
  "吊@@": 9072,
  "狸": 9073,
  "狐@@": 9074,
  "き@@": 9075,
  "텐@@": 9076,
  "ぃ@@": 9077,
  "န@@": 9078,
  "校@@": 9079,
  "ș@@": 9080,
  "်@@": 9081,
  "စ@@": 9082,
  "े@@": 9083,
  "ƣ@@": 9084,
  "ٿ@@": 9085,
  "प@@": 9086,
  "ल@@": 9087,
  "🇬": 9088,
  "ਪ@@": 9089,
  "ї@@": 9090,
  "ệ@@": 9091,
  "ѡ@@": 9092,
  "应@@": 9093,
  "昌": 9094,
  "寮": 9095,
  "雄": 9096,
  "✈@@": 9097,
  "🙍@@": 9098,
  "용": 9099,
  "ẕ@@": 9100,
  "ʏ@@": 9101,
  "鉴@@": 9102,
  "茶@@": 9103,
  "衣@@": 9104,
  "ણ@@": 9105,
  "ִ@@": 9106,
  "Ę@@": 9107,
  "染@@": 9108,
  "电": 9109,
  "火@@": 9110,
  "郵@@": 9111,
  "변": 9112,
  "常": 9113,
  "𑕒@@": 9114,
  "？@@": 9115,
  "✦@@": 9116,
  "秋@@": 9117,
  "Ц": 9118,
  "Ή@@": 9119,
  "򉻋@@": 9120,
  "₳@@": 9121,
  "ị": 9122,
  "额": 9123,
  "🙂@@": 9124,
  "Ї": 9125,
  "": 9126,
  "支": 9127,
  "ք@@": 9128,
  "链@@": 9129,
  "꧁@@": 9130,
  "❯": 9131,
  "蒲@@": 9132,
  "湾@@": 9133,
  "母@@": 9134,
  "銘@@": 9135,
  "柄@@": 9136,
  "刘": 9137,
  "間@@": 9138,
  "渭": 9139,
  "贤": 9140,
  "Ɉ@@": 9141,
  "항": 9142,
  "򉻑@@": 9143,
  "򉻕@@": 9144,
  "𝓁@@": 9145,
  "ռ@@": 9146,
  "醍@@": 9147,
  "裙@@": 9148,
  "‍": 9149,
  "స@@": 9150,
  "ు": 9151,
  "ኛ": 9152,
  "ተ@@": 9153,
  "ስ@@": 9154,
  "ነ@@": 9155,
  "泵": 9156,
  "ʷ@@": 9157,
  "∀": 9158,
  "⅂@@": 9159,
  "Ć@@": 9160,
  "π": 9161,
  "隨@@": 9162,
  "藥@@": 9163,
  "丨": 9164,
  "鍼@@": 9165,
  "워": 9166,
  "址": 9167,
  "瓜@@": 9168,
  "Ｌ@@": 9169,
  "Ｕ@@": 9170,
  "皮@@": 9171,
  "玉@@": 9172,
  "ర@@": 9173,
  "⌘": 9174,
  "焼@@": 9175,
  "䪺@@": 9176,
  "̤@@": 9177,
  "ڭ@@": 9178,
  "Ѩ@@": 9179,
  "ݨ@@": 9180,
  "임": 9181,
  "᪺@@": 9182,
  "鎧": 9183,
  "ߦ@@": 9184,
  "Ȩ@@": 9185,
  "Ҥ@@": 9186,
  "ܮ@@": 9187,
  "Ҧ@@": 9188,
  "마": 9189,
  "써@@": 9190,
  "비@@": 9191,
  "치": 9192,
  "年": 9193,
  "란": 9194,
  "֓@@": 9195,
  "⇁": 9196,
  "ᒲ@@": 9197,
  "Ǵ@@": 9198,
  "🐧@@": 9199,
  "ꂩ@@": 9200,
  "碧@@": 9201,
  "크": 9202,
  "링@@": 9203,
  "⚖@@": 9204,
  "見@@": 9205,
  "⊙": 9206,
  "🐲": 9207,
  "τ": 9208,
  "Ə": 9209,
  "矿@@": 9210,
  "泳@@": 9211,
  "游@@": 9212,
  "鲁@@": 9213,
  "👸@@": 9214,
  "👰@@": 9215,
  "완": 9216,
  "외@@": 9217,
  "🚒@@": 9218,
  "🎨@@": 9219,
  "목@@": 9220,
  "쉬@@": 9221,
  "🔬@@": 9222,
  "ő": 9223,
  "🔧@@": 9224,
  "💼@@": 9225,
  "💻@@": 9226,
  "🏭@@": 9227,
  "🏫@@": 9228,
  "록": 9229,
  "科": 9230,
  "쇼@@": 9231,
  "핑@@": 9232,
  "郎": 9233,
  "妄@@": 9234,
  "件@@": 9235,
  "손": 9236,
  "询": 9237,
  "想@@": 9238,
  "今@@": 9239,
  "卢@@": 9240,
  "姆": 9241,
  "ા": 9242,
  "퀸@@": 9243,
  "즈@@": 9244,
  "운": 9245,
  "吟": 9246,
  "觀@@": 9247,
  "񂾃@@": 9248,
  "ߍ@@": 9249,
  "𖄂@@": 9250,
  "로@@": 9251,
  "킩@@": 9252,
  "🥃": 9253,
  "↑@@": 9254,
  "寺": 9255,
  "ܳ@@": 9256,
  "ٯ@@": 9257,
  "줽@@": 9258,
  "＿@@": 9259,
  "基": 9260,
  "休": 9261,
  "彻@@": 9262,
  "Ŵ@@": 9263,
  "Լ@@": 9264,
  "ϰ@@": 9265,
  "Ѿ@@": 9266,
  "動": 9267,
  "稼@@": 9268,
  "勢": 9269,
  "玄@@": 9270,
  "っ": 9271,
  "繭": 9272,
  "◡@@": 9273,
  "ș": 9274,
  "っ@@": 9275,
  "𝗶": 9276,
  "𝗮@@": 9277,
  "𝗸@@": 9278,
  "会": 9279,
  "例@@": 9280,
  "⇐": 9281,
  "塢@@": 9282,
  "⇒@@": 9283,
  "ァ@@": 9284,
  "ƹ@@": 9285,
  "ŵ@@": 9286,
  "Ů@@": 9287,
  "性": 9288,
  "💕": 9289,
  "": 9290,
  "뷔@@": 9291,
  "페@@": 9292,
  "龙@@": 9293,
  "♫": 9294,
  "娉@@": 9295,
  "锘@@": 9296,
  "ぱ": 9297,
  "②@@": 9298,
  "ウ@@": 9299,
  "祭": 9300,
  "": 9301,
  "毛@@": 9302,
  "׾@@": 9303,
  "񕜂@@": 9304,
  "̍": 9305,
  "📆": 9306,
  "ɡ@@": 9307,
  "ܵ@@": 9308,
  "ױ@@": 9309,
  "Գ@@": 9310,
  "烤": 9311,
  "ế": 9312,
  "죤": 9313,
  "ǻ@@": 9314,
  "５": 9315,
  "𶯼@@": 9316,
  "칼@@": 9317,
  "디": 9318,
  "ֺ@@": 9319,
  "ܼ@@": 9320,
  "豸@@": 9321,
  "㷺@@": 9322,
  "Ϲ@@": 9323,
  "Ƚ@@": 9324,
  "Ӧ@@": 9325,
  "⑵": 9326,
  "년": 9327,
  "費@@": 9328,
  "垢": 9329,
  "보": 9330,
  "林": 9331,
  "✦": 9332,
  "宿": 9333,
  "ี@@": 9334,
  "凰": 9335,
  "鳳@@": 9336,
  "琴": 9337,
  "钢@@": 9338,
  "Һ@@": 9339,
  "̩@@": 9340,
  "🇨@@": 9341,
  "ߣ@@": 9342,
  "コ": 9343,
  "２@@": 9344,
  "亭@@": 9345,
  "゙@@": 9346,
  "ひ@@": 9347,
  "拉": 9348,
  "ゑ@@": 9349,
  "@@": 9350,
  "֣@@": 9351,
  "⭕": 9352,
  "ɷ@@": 9353,
  "맷@@": 9354,
  "녀": 9355,
  "🇱": 9356,
  "♵": 9357,
  "保": 9358,
  "藤": 9359,
  "갑": 9360,
  "ా": 9361,
  "్@@": 9362,
  "방@@": 9363,
  "䣺@@": 9364,
  "복": 9365,
  "🎓@@": 9366,
  "🍳@@": 9367,
  "🌾@@": 9368,
  "없@@": 9369,
  "콩": 9370,
  "홍@@": 9371,
  "🍌": 9372,
  "☕@@": 9373,
  "茶": 9374,
  "麦@@": 9375,
  "꧁": 9376,
  "😘": 9377,
  "ず@@": 9378,
  "祖@@": 9379,
  "😠": 9380,
  "수": 9381,
  "忆@@": 9382,
  "따@@": 9383,
  "할": 9384,
  "殷@@": 9385,
  "楠@@": 9386,
  "와": 9387,
  "į@@": 9388,
  "瑞@@": 9389,
  "件": 9390,
  "υ": 9391,
  "Ⅴ": 9392,
  "х": 9393,
  "乘@@": 9394,
  "蓮@@": 9395,
  "經": 9396,
  "⇓": 9397,
  "頭@@": 9398,
  "æ": 9399,
  "∫@@": 9400,
  "😨": 9401,
  "夜": 9402,
  "帯@@": 9403,
  "熱@@": 9404,
  "희@@": 9405,
  "ａ": 9406,
  "권@@": 9407,
  "ȉ@@": 9408,
  "ョ@@": 9409,
  "Ѓ@@": 9410,
  "任": 9411,
  "Å": 9412,
  "辞@@": 9413,
  "荣": 9414,
  "培@@": 9415,
  "沈@@": 9416,
  "昴@@": 9417,
  "繧@@": 9418,
  "肥": 9419,
  "棚@@": 9420,
  "̲": 9421,
  "记@@": 9422,
  "ｕ@@": 9423,
  "ነ": 9424,
  "🏄": 9425,
  "◗": 9426,
  "🖐@@": 9427,
  "⅓@@": 9428,
  "골@@": 9429,
  "웨@@": 9430,
  "🌟@@": 9431,
  "Х": 9432,
  "点": 9433,
  "又@@": 9434,
  "𝑒": 9435,
  "ቡ@@": 9436,
  "戍": 9437,
  "恵@@": 9438,
  "ȁ@@": 9439,
  "잘@@": 9440,
  "餓@@": 9441,
  "鬼@@": 9442,
  "₪@@": 9443,
  "편@@": 9444,
  "미": 9445,
  "윳@@": 9446,
  "언@@": 9447,
  "": 9448,
  "🍸": 9449,
  "🙌": 9450,
  "↩@@": 9451,
  "🏃@@": 9452,
  "戴@@": 9453,
  "吟@@": 9454,
  "詩@@": 9455,
  "칭@@": 9456,
  "오": 9457,
  "̅@@": 9458,
  "ɋ@@": 9459,
  "ʧ": 9460,
  "グ": 9461,
  "㕶@@": 9462,
  "ǐ@@": 9463,
  "满": 9464,
  "ガ@@": 9465,
  "オ@@": 9466,
  "¶@@": 9467,
  "쌧@@": 9468,
  "ސ@@": 9469,
  "대": 9470,
  "욕": 9471,
  "ˇ@@": 9472,
  "선": 9473,
  "고": 9474,
  "🏂@@": 9475,
  "辞": 9476,
  "施@@": 9477,
  "⚕@@": 9478,
  "𝐓": 9479,
  "博@@": 9480,
  "ĵ@@": 9481,
  "波": 9482,
  "弘@@": 9483,
  "士": 9484,
  "𝐄": 9485,
  "𝐉@@": 9486,
  "כ@@": 9487,
  "𝐓@@": 9488,
  "𝐀@@": 9489,
  "𝐌@@": 9490,
  "𝐂": 9491,
  "显@@": 9492,
  "之": 9493,
  "𝐈@@": 9494,
  "@@": 9495,
  "正@@": 9496,
  "巻@@": 9497,
  "◉": 9498,
  "拳@@": 9499,
  "階": 9500,
  "灘@@": 9501,
  "古@@": 9502,
  "腰@@": 9503,
  "難@@": 9504,
  "􎖋@@": 9505,
  "〉@@": 9506,
  "〈@@": 9507,
  "🕵@@": 9508,
  "👷@@": 9509,
  "밀@@": 9510,
  "拓@@": 9511,
  "持@@": 9512,
  "冷@@": 9513,
  "撒@@": 9514,
  "耶@@": 9515,
  "ʕ@@": 9516,
  "堂@@": 9517,
  "夹@@": 9518,
  "］@@": 9519,
  "磨@@": 9520,
  "ё@@": 9521,
  "👰": 9522,
  "إ": 9523,
  "٤": 9524,
  "ś": 9525,
  "😴": 9526,
  "ෙ@@": 9527,
  "@@": 9528,
  "🥂@@": 9529,
  "逆@@": 9530,
  "示@@": 9531,
  "는": 9532,
  "へ": 9533,
  "̚@@": 9534,
  "̾@@": 9535,
  "̸@@": 9536,
  "狛@@": 9537,
  "̋@@": 9538,
  "̿@@": 9539,
  "̴@@": 9540,
  "̡@@": 9541,
  "😟": 9542,
  "̀@@": 9543,
  "͗@@": 9544,
  "͘@@": 9545,
  "ꂅ": 9546,
  "체@@": 9547,
  "🗣": 9548,
  "♅@@": 9549,
  "Ť@@": 9550,
  "ᵃ": 9551,
  "є": 9552,
  "Ƭ@@": 9553,
  "": 9554,
  "著@@": 9555,
  "跟@@": 9556,
  "ｍ@@": 9557,
  "艺@@": 9558,
  "̟@@": 9559,
  "̈́@@": 9560,
  "͋@@": 9561,
  "见": 9562,
  "억@@": 9563,
  "桥": 9564,
  "ץ": 9565,
  "ɨ": 9566,
  "⤓": 9567,
  "믲@@": 9568,
  "饻@@": 9569,
  "좌": 9570,
  "̪": 9571,
  "ս@@": 9572,
  "遺@@": 9573,
  "̯": 9574,
  "": 9575,
  "尿": 9576,
  "͈@@": 9577,
  "̮@@": 9578,
  "参@@": 9579,
  "̞@@": 9580,
  "̢@@": 9581,
  "͕@@": 9582,
  "͜@@": 9583,
  "̺@@": 9584,
  "̠@@": 9585,
  "🌹": 9586,
  "<PAD>":10732
}